#ifndef MODEL_DATA_H
#define MODEL_DATA_H

#if defined(__has_attribute) && __has_attribute(aligned)
#define DATA_ALIGN_ATTRIBUTE __attribute__((aligned(4)))
#else
#define DATA_ALIGN_ATTRIBUTE
#endif

const unsigned char medical_model[] DATA_ALIGN_ATTRIBUTE = {
  0x20, 0x00, 0x00, 0x00, 0x54, 0x46, 0x4c, 0x33, 0x00, 0x00, 0x00, 0x00, 
  0x14, 0x00, 0x20, 0x00, 0x1c, 0x00, 0x18, 0x00, 0x14, 0x00, 0x10, 0x00, 
  0x0c, 0x00, 0x00, 0x00, 0x08, 0x00, 0x04, 0x00, 0x14, 0x00, 0x00, 0x00, 
  0x1c, 0x00, 0x00, 0x00, 0x8c, 0x00, 0x00, 0x00, 0xe4, 0x00, 0x00, 0x00, 
  0x38, 0x1c, 0x00, 0x00, 0x48, 0x1c, 0x00, 0x00, 0x50, 0x25, 0x00, 0x00, 
  0x03, 0x00, 0x00, 0x00, 0x01, 0x00, 0x00, 0x00, 0x04, 0x00, 0x00, 0x00, 
  0x76, 0xe3, 0xff, 0xff, 0x0c, 0x00, 0x00, 0x00, 0x1c, 0x00, 0x00, 0x00, 
  0x3c, 0x00, 0x00, 0x00, 0x0f, 0x00, 0x00, 0x00, 0x73, 0x65, 0x72, 0x76, 
  0x69, 0x6e, 0x67, 0x5f, 0x64, 0x65, 0x66, 0x61, 0x75, 0x6c, 0x74, 0x00, 
  0x01, 0x00, 0x00, 0x00, 0x04, 0x00, 0x00, 0x00, 0x90, 0xff, 0xff, 0xff, 
  0x0d, 0x00, 0x00, 0x00, 0x04, 0x00, 0x00, 0x00, 0x08, 0x00, 0x00, 0x00, 
  0x6f, 0x75, 0x74, 0x70, 0x75, 0x74, 0x5f, 0x30, 0x00, 0x00, 0x00, 0x00, 
  0x01, 0x00, 0x00, 0x00, 0x04, 0x00, 0x00, 0x00, 0x4a, 0xec, 0xff, 0xff, 
  0x04, 0x00, 0x00, 0x00, 0x0d, 0x00, 0x00, 0x00, 0x69, 0x6e, 0x70, 0x75, 
  0x74, 0x5f, 0x6c, 0x61, 0x79, 0x65, 0x72, 0x5f, 0x33, 0x00, 0x00, 0x00, 
  0x02, 0x00, 0x00, 0x00, 0x34, 0x00, 0x00, 0x00, 0x04, 0x00, 0x00, 0x00, 
  0xdc, 0xff, 0xff, 0xff, 0x10, 0x00, 0x00, 0x00, 0x04, 0x00, 0x00, 0x00, 
  0x13, 0x00, 0x00, 0x00, 0x43, 0x4f, 0x4e, 0x56, 0x45, 0x52, 0x53, 0x49, 
  0x4f, 0x4e, 0x5f, 0x4d, 0x45, 0x54, 0x41, 0x44, 0x41, 0x54, 0x41, 0x00, 
  0x08, 0x00, 0x0c, 0x00, 0x08, 0x00, 0x04, 0x00, 0x08, 0x00, 0x00, 0x00, 
  0x0f, 0x00, 0x00, 0x00, 0x04, 0x00, 0x00, 0x00, 0x13, 0x00, 0x00, 0x00, 
  0x6d, 0x69, 0x6e, 0x5f, 0x72, 0x75, 0x6e, 0x74, 0x69, 0x6d, 0x65, 0x5f, 
  0x76, 0x65, 0x72, 0x73, 0x69, 0x6f, 0x6e, 0x00, 0x11, 0x00, 0x00, 0x00, 
  0x50, 0x1b, 0x00, 0x00, 0x48, 0x1b, 0x00, 0x00, 0x38, 0x13, 0x00, 0x00, 
  0x20, 0x12, 0x00, 0x00, 0xd0, 0x11, 0x00, 0x00, 0xbc, 0x11, 0x00, 0x00, 
  0xac, 0x09, 0x00, 0x00, 0x5c, 0x09, 0x00, 0x00, 0xcc, 0x08, 0x00, 0x00, 
  0xbc, 0x00, 0x00, 0x00, 0xb4, 0x00, 0x00, 0x00, 0xac, 0x00, 0x00, 0x00, 
  0xa4, 0x00, 0x00, 0x00, 0x9c, 0x00, 0x00, 0x00, 0x94, 0x00, 0x00, 0x00, 
  0x74, 0x00, 0x00, 0x00, 0x04, 0x00, 0x00, 0x00, 0x0a, 0xed, 0xff, 0xff, 
  0x04, 0x00, 0x00, 0x00, 0x60, 0x00, 0x00, 0x00, 0x0c, 0x00, 0x00, 0x00, 
  0x08, 0x00, 0x0e, 0x00, 0x08, 0x00, 0x04, 0x00, 0x08, 0x00, 0x00, 0x00, 
  0x10, 0x00, 0x00, 0x00, 0x28, 0x00, 0x00, 0x00, 0x00, 0x00, 0x06, 0x00, 
  0x08, 0x00, 0x04, 0x00, 0x06, 0x00, 0x00, 0x00, 0x04, 0x00, 0x00, 0x00, 
  0x01, 0x00, 0x00, 0x00, 0xea, 0x03, 0x00, 0x00, 0x0c, 0x00, 0x18, 0x00, 
  0x14, 0x00, 0x10, 0x00, 0x0c, 0x00, 0x04, 0x00, 0x0c, 0x00, 0x00, 0x00, 
  0x5a, 0xc0, 0x30, 0x68, 0x51, 0x95, 0xda, 0x2f, 0x02, 0x00, 0x00, 0x00, 
  0x02, 0x00, 0x00, 0x00, 0x04, 0x00, 0x00, 0x00, 0x06, 0x00, 0x00, 0x00, 
  0x32, 0x2e, 0x31, 0x39, 0x2e, 0x30, 0x00, 0x00, 0x76, 0xed, 0xff, 0xff, 
  0x04, 0x00, 0x00, 0x00, 0x10, 0x00, 0x00, 0x00, 0x32, 0x2e, 0x31, 0x37, 
  0x2e, 0x30, 0x00, 0x00, 0x00, 0x00, 0x00, 0x00, 0x00, 0x00, 0x00, 0x00, 
  0x90, 0xdc, 0xff, 0xff, 0x94, 0xdc, 0xff, 0xff, 0x98, 0xdc, 0xff, 0xff, 
  0x9c, 0xdc, 0xff, 0xff, 0xa0, 0xdc, 0xff, 0xff, 0xa6, 0xed, 0xff, 0xff, 
  0x04, 0x00, 0x00, 0x00, 0x00, 0x08, 0x00, 0x00, 0x00, 0xfd, 0x00, 0x00, 
  0x00, 0xfb, 0x00, 0x00, 0x00, 0x00, 0x00, 0x00, 0x23, 0x00, 0x00, 0xfb, 
  0x02, 0x00, 0x81, 0x30, 0x00, 0xff, 0x01, 0x00, 0x00, 0x05, 0x00, 0xf4, 
  0x00, 0x00, 0x02, 0x00, 0x00, 0x00, 0x0a, 0x00, 0x00, 0x00, 0x02, 0x00, 
  0xf6, 0x00, 0x04, 0x00, 0x00, 0x00, 0x33, 0x00, 0xfa, 0x00, 0xe9, 0x00, 
  0x00, 0xff, 0x00, 0x00, 0x01, 0xfd, 0x00, 0x00, 0x00, 0x00, 0x00, 0xfe, 
  0x00, 0xff, 0x00, 0xad, 0x00, 0x02, 0x01, 0x00, 0x00, 0xff, 0x00, 0xf9, 
  0xe9, 0x00, 0x00, 0xe1, 0xfa, 0x00, 0x6a, 0x81, 0x00, 0x00, 0xfc, 0x00, 
  0xff, 0x00, 0x02, 0x5a, 0x00, 0x00, 0x05, 0x00, 0x01, 0x00, 0xe1, 0xff, 
  0x00, 0xf4, 0xf3, 0x03, 0x36, 0xff, 0x1c, 0x00, 0x00, 0x01, 0xd1, 0x00, 
  0x27, 0x00, 0xaf, 0x00, 0xfe, 0xd4, 0xf5, 0xed, 0xfb, 0x30, 0x00, 0x00, 
  0xff, 0x00, 0x00, 0xcc, 0x00, 0x01, 0x00, 0xf3, 0x00, 0xfe, 0xff, 0x00, 
  0x00, 0xff, 0xff, 0xfe, 0xff, 0x00, 0x00, 0x08, 0x0e, 0x00, 0x01, 0x7f, 
  0x00, 0x00, 0x09, 0xff, 0x00, 0xfd, 0x00, 0x00, 0x00, 0x00, 0xfd, 0x00, 
  0x00, 0x01, 0x10, 0x00, 0x00, 0xff, 0xfe, 0x00, 0xe9, 0xff, 0xeb, 0x00, 
  0x00, 0x01, 0xfe, 0x00, 0xf7, 0x00, 0x3a, 0x00, 0x01, 0xfd, 0xfd, 0xff, 
  0x00, 0x09, 0x00, 0x00, 0x00, 0x00, 0x00, 0x07, 0x00, 0xfc, 0x00, 0xf9, 
  0x00, 0xf9, 0x01, 0x00, 0x00, 0x01, 0x00, 0x02, 0x29, 0x00, 0x00, 0x04, 
  0xf8, 0xff, 0x81, 0xcb, 0x00, 0xfe, 0xfc, 0x01, 0xfe, 0xfc, 0x00, 0x45, 
  0x00, 0x00, 0x03, 0x00, 0x00, 0x00, 0xf4, 0x00, 0x00, 0x01, 0xff, 0x00, 
  0x29, 0x00, 0x08, 0x00, 0x00, 0x00, 0x33, 0x00, 0xe8, 0x00, 0x1e, 0x01, 
  0x00, 0xfa, 0x03, 0xff, 0xfe, 0xfe, 0x01, 0x00, 0x01, 0x00, 0x00, 0xf8, 
  0x00, 0x01, 0x00, 0xfa, 0x00, 0x00, 0xff, 0x00, 0x00, 0x00, 0x00, 0x01, 
  0x00, 0x00, 0x00, 0x7f, 0x00, 0x01, 0x03, 0xef, 0x00, 0x00, 0xfe, 0x00, 
  0x00, 0x05, 0x00, 0x00, 0x00, 0x00, 0xf6, 0x00, 0x00, 0x00, 0x24, 0x00, 
  0x00, 0x05, 0xff, 0x00, 0xff, 0x00, 0x01, 0xff, 0x00, 0xff, 0x00, 0x00, 
  0x0a, 0x00, 0xb8, 0x00, 0x00, 0xfe, 0x01, 0x04, 0x01, 0x07, 0x00, 0x00, 
  0xfc, 0x00, 0x00, 0x1b, 0x00, 0x01, 0x00, 0xb0, 0x00, 0xf5, 0xff, 0x00, 
  0xff, 0x00, 0x00, 0x01, 0xdf, 0x00, 0x00, 0x07, 0xf3, 0x00, 0x7f, 0x12, 
  0x00, 0xff, 0xff, 0x00, 0x00, 0x0e, 0x00, 0x5a, 0x00, 0x00, 0xfb, 0x00, 
  0x01, 0x00, 0x22, 0x00, 0x00, 0x0e, 0xf5, 0x00, 0xf5, 0x00, 0x1b, 0x01, 
  0x00, 0xff, 0xd3, 0x00, 0x08, 0x00, 0x02, 0x00, 0xff, 0xe3, 0x04, 0x07, 
  0xff, 0xd5, 0xff, 0x00, 0x01, 0x00, 0x00, 0x0e, 0x00, 0x01, 0x00, 0xfd, 
  0x00, 0xff, 0x00, 0x00, 0x00, 0x00, 0x00, 0xfc, 0xf6, 0x00, 0x00, 0x4a, 
  0xf8, 0x00, 0x14, 0x3f, 0x00, 0x00, 0xfa, 0x00, 0xff, 0xff, 0x00, 0x7f, 
  0x01, 0x00, 0xff, 0x00, 0xff, 0x00, 0x1c, 0x00, 0x00, 0xff, 0xfd, 0x01, 
  0x7b, 0x01, 0xf9, 0xff, 0x00, 0xff, 0xfb, 0x00, 0x76, 0x00, 0x0c, 0xff, 
  0x00, 0xff, 0xfd, 0x04, 0x01, 0x12, 0xff, 0x00, 0xfd, 0x00, 0x00, 0x0e, 
  0x00, 0xfd, 0x00, 0xff, 0x00, 0xfd, 0x00, 0x00, 0x00, 0x00, 0x00, 0xfe, 
  0x26, 0x00, 0x00, 0xfd, 0xfc, 0xff, 0x81, 0xf7, 0x00, 0xfe, 0x02, 0x00, 
  0x00, 0x00, 0x00, 0xf9, 0x00, 0x00, 0x03, 0x00, 0x00, 0x00, 0xff, 0x00, 
  0x00, 0x03, 0x01, 0x00, 0xf4, 0x00, 0x03, 0x00, 0x00, 0x00, 0x38, 0x00, 
  0xf8, 0x00, 0x0d, 0x00, 0x00, 0xfc, 0xff, 0xfb, 0x00, 0x07, 0x00, 0x00, 
  0x00, 0x00, 0x00, 0xfb, 0x00, 0x01, 0x00, 0xfa, 0x00, 0xeb, 0xfe, 0x00, 
  0x00, 0x00, 0x00, 0xfb, 0xf0, 0x00, 0x00, 0x81, 0x06, 0x00, 0x3b, 0xcd, 
  0x00, 0x01, 0xfa, 0x00, 0x00, 0x14, 0xfe, 0xd3, 0x00, 0x00, 0x08, 0x00, 
  0xff, 0xfe, 0xde, 0x00, 0x00, 0x00, 0xfe, 0x01, 0x31, 0x00, 0x02, 0x00, 
  0x00, 0x01, 0xee, 0x00, 0x04, 0x00, 0xda, 0xfd, 0xff, 0x01, 0x01, 0xfd, 
  0xff, 0x10, 0x00, 0x00, 0x19, 0x00, 0x00, 0xff, 0x00, 0x00, 0x00, 0xdd, 
  0x00, 0x01, 0xff, 0x00, 0x00, 0xff, 0xff, 0xfb, 0xe8, 0x00, 0x00, 0x7f, 
  0xfa, 0x01, 0x52, 0x96, 0x00, 0x00, 0xfc, 0x00, 0xff, 0x0b, 0x00, 0xed, 
  0xff, 0x00, 0xfa, 0x00, 0x00, 0x00, 0x17, 0x00, 0x00, 0xf8, 0xfa, 0x01, 
  0x35, 0xff, 0x10, 0x00, 0x00, 0xfe, 0xe1, 0x00, 0xfb, 0x00, 0xec, 0x01, 
  0x00, 0xf1, 0xff, 0x07, 0xfb, 0x04, 0xff, 0x00, 0xfa, 0x00, 0x00, 0xe0, 
  0x00, 0x00, 0xff, 0xd8, 0x00, 0xfd, 0x00, 0x00, 0x00, 0x00, 0x00, 0xf3, 
  0xf7, 0x00, 0x00, 0x6c, 0xfb, 0x00, 0x21, 0x90, 0x00, 0xff, 0x04, 0x00, 
  0x00, 0xf7, 0xfe, 0x4b, 0x01, 0x00, 0x00, 0x00, 0xff, 0x00, 0x1d, 0x00, 
  0x00, 0xed, 0xff, 0x03, 0x38, 0xfe, 0x11, 0x00, 0x00, 0x00, 0xe5, 0x00, 
  0xe7, 0x00, 0xc0, 0x00, 0x00, 0x04, 0xf3, 0xf0, 0xf7, 0x5a, 0xfe, 0x00, 
  0xf4, 0x00, 0x00, 0x81, 0x00, 0xff, 0x00, 0xfa, 0x00, 0xfd, 0x00, 0x00, 
  0x00, 0x00, 0x00, 0xff, 0x07, 0x00, 0x00, 0xfb, 0x0c, 0x00, 0xd1, 0x81, 
  0x00, 0xff, 0x09, 0x00, 0x00, 0x00, 0x00, 0x3c, 0x00, 0x00, 0x01, 0x00, 
  0x00, 0x00, 0xfd, 0x00, 0x00, 0xfd, 0x00, 0x00, 0x2e, 0x00, 0xf4, 0x00, 
  0x00, 0x00, 0x10, 0x00, 0xde, 0x00, 0xd2, 0x00, 0x00, 0xfc, 0xfd, 0x01, 
  0x01, 0xf8, 0x00, 0x00, 0xff, 0x00, 0x00, 0xfa, 0x00, 0x00, 0xff, 0x02, 
  0x00, 0xf2, 0x00, 0x00, 0x00, 0x00, 0x00, 0x03, 0x03, 0x00, 0x00, 0x15, 
  0xfc, 0x00, 0xfa, 0xcd, 0x00, 0x00, 0xff, 0x00, 0x00, 0x2b, 0xff, 0xfc, 
  0x00, 0x00, 0xff, 0x00, 0x00, 0xfe, 0xf2, 0x00, 0x00, 0x0e, 0xff, 0xfd, 
  0x0b, 0x00, 0xfe, 0x01, 0x00, 0x01, 0xfe, 0x00, 0x20, 0x00, 0xe2, 0xff, 
  0x00, 0xfe, 0x01, 0x24, 0x00, 0x81, 0x00, 0xff, 0x04, 0x00, 0x00, 0xf8, 
  0x00, 0xff, 0x06, 0xee, 0x00, 0x0f, 0x00, 0x00, 0x00, 0x00, 0x01, 0x08, 
  0xec, 0x00, 0x00, 0x81, 0x02, 0xfd, 0x4a, 0xe3, 0x00, 0xff, 0x01, 0xff, 
  0x02, 0xc9, 0x06, 0x26, 0x00, 0x00, 0x02, 0x00, 0x02, 0x00, 0xc7, 0x00, 
  0x00, 0xde, 0xfc, 0x01, 0x12, 0x00, 0x00, 0x00, 0x00, 0x00, 0xf5, 0x00, 
  0xff, 0x00, 0xff, 0xff, 0xfe, 0xf1, 0xfa, 0xca, 0x02, 0x7a, 0xff, 0x00, 
  0x21, 0x00, 0x00, 0xfd, 0x00, 0x02, 0x00, 0x02, 0x00, 0x01, 0x00, 0x00, 
  0x00, 0x00, 0xff, 0x00, 0x06, 0x00, 0x00, 0xf6, 0x02, 0x01, 0x0c, 0xfb, 
  0x00, 0x02, 0x01, 0x00, 0x00, 0xf3, 0x00, 0xff, 0x00, 0x00, 0x01, 0x00, 
  0x00, 0x00, 0xf7, 0x00, 0x00, 0xff, 0x05, 0x01, 0x02, 0x00, 0xfe, 0x01, 
  0x00, 0x01, 0x0a, 0x00, 0x08, 0x00, 0x7f, 0x00, 0xff, 0xff, 0x01, 0xf7, 
  0x02, 0x13, 0x02, 0x00, 0xff, 0x00, 0x00, 0xf9, 0x00, 0x00, 0xfe, 0xfc, 
  0x00, 0xf2, 0x00, 0x00, 0x00, 0x00, 0x00, 0x02, 0x07, 0x00, 0x00, 0x07, 
  0xfe, 0xff, 0x00, 0xbd, 0x00, 0x00, 0x03, 0x00, 0x00, 0x31, 0x00, 0x15, 
  0x00, 0x00, 0xff, 0x00, 0x00, 0xfe, 0xf9, 0x00, 0x00, 0x11, 0xff, 0xfe, 
  0xde, 0x00, 0x00, 0x00, 0x00, 0x00, 0x0a, 0x00, 0xf0, 0x00, 0x26, 0x00, 
  0x00, 0xfe, 0x00, 0x1f, 0x00, 0x81, 0xff, 0x00, 0x04, 0x00, 0x00, 0xf3, 
  0x00, 0x00, 0x00, 0xf5, 0x00, 0x00, 0xff, 0x00, 0x00, 0xff, 0xff, 0xfe, 
  0xfb, 0x00, 0x00, 0x07, 0x12, 0x00, 0xe7, 0xe6, 0x00, 0x00, 0x09, 0x00, 
  0x00, 0x04, 0xff, 0xf0, 0x00, 0xff, 0x00, 0x00, 0x00, 0x01, 0x02, 0x00, 
  0x00, 0x01, 0xff, 0xff, 0x00, 0x00, 0xe2, 0x00, 0x00, 0x01, 0xfc, 0x00, 
  0x0e, 0x00, 0x81, 0x00, 0x00, 0xff, 0xfc, 0x03, 0x00, 0x01, 0x00, 0x00, 
  0x00, 0x00, 0x00, 0xfe, 0x00, 0xfe, 0x00, 0xfc, 0x00, 0x02, 0x00, 0x00, 
  0x00, 0x00, 0x00, 0x01, 0x1f, 0x00, 0x00, 0x00, 0xff, 0x00, 0x81, 0xfd, 
  0x00, 0xff, 0xfd, 0x00, 0x00, 0xfc, 0x00, 0xda, 0x00, 0x00, 0x03, 0x00, 
  0x00, 0x00, 0x02, 0x00, 0x00, 0x00, 0xff, 0x00, 0x09, 0x01, 0xfe, 0x00, 
  0x00, 0xff, 0x34, 0x00, 0x30, 0x00, 0xe7, 0x00, 0x00, 0xff, 0xff, 0xfc, 
  0x00, 0x0e, 0x00, 0x00, 0x00, 0x00, 0x00, 0x01, 0x00, 0x00, 0x03, 0xf7, 
  0x00, 0x06, 0x00, 0x00, 0x00, 0x00, 0x01, 0xf8, 0xfd, 0x00, 0x00, 0xfe, 
  0xfb, 0xfe, 0x19, 0xf2, 0x00, 0xff, 0x01, 0x00, 0x00, 0xcf, 0x02, 0x09, 
  0x00, 0xff, 0x00, 0x00, 0x01, 0x01, 0x1b, 0x00, 0x00, 0xe7, 0xff, 0x00, 
  0x05, 0x00, 0x04, 0x01, 0x00, 0x01, 0xff, 0x00, 0x01, 0x00, 0x1f, 0x01, 
  0xff, 0xfd, 0xf8, 0xdb, 0xfc, 0x7f, 0xfd, 0x00, 0xfc, 0x00, 0x00, 0x2b, 
  0x00, 0x01, 0x00, 0x02, 0x00, 0xf9, 0x00, 0x00, 0x00, 0x00, 0x00, 0xff, 
  0xff, 0x00, 0x00, 0xfa, 0x00, 0xff, 0x0a, 0x35, 0x00, 0x00, 0x00, 0xff, 
  0x00, 0x03, 0x00, 0x7f, 0x00, 0x00, 0xfa, 0x00, 0x00, 0x00, 0x08, 0x00, 
  0x00, 0x00, 0xff, 0x00, 0x73, 0x00, 0xfe, 0xff, 0x00, 0x00, 0xfa, 0x00, 
  0xf6, 0x00, 0xf5, 0x00, 0x00, 0xfc, 0x00, 0x01, 0x00, 0x00, 0xff, 0x00, 
  0x00, 0x00, 0x00, 0xfc, 0x00, 0x00, 0xfe, 0x19, 0x00, 0xee, 0xff, 0x00, 
  0x00, 0x01, 0x01, 0x03, 0xf7, 0x00, 0x00, 0xfc, 0x01, 0xff, 0x25, 0xba, 
  0x00, 0xff, 0x07, 0xff, 0xff, 0x3a, 0xff, 0xd8, 0x00, 0x00, 0xfe, 0x00, 
  0xff, 0xfd, 0x00, 0x00, 0x00, 0x16, 0xfc, 0xfc, 0xf9, 0x00, 0x00, 0x01, 
  0x00, 0x00, 0xf0, 0x00, 0xef, 0x00, 0xce, 0x00, 0x00, 0xfe, 0x00, 0x2a, 
  0x00, 0x81, 0xfe, 0xff, 0x03, 0x00, 0x00, 0xf0, 0x00, 0x01, 0x00, 0x02, 
  0x00, 0x01, 0x00, 0x00, 0x00, 0x00, 0x00, 0xfe, 0xed, 0x00, 0x00, 0x60, 
  0xfe, 0x01, 0x58, 0xb5, 0x00, 0x01, 0xfd, 0x00, 0x00, 0x00, 0x00, 0xdd, 
  0x00, 0x01, 0xfd, 0x00, 0x00, 0x00, 0x12, 0x00, 0x00, 0x01, 0xff, 0x01, 
  0xef, 0x00, 0x01, 0xff, 0x00, 0xff, 0xe6, 0x00, 0xf4, 0x00, 0x7f, 0x00, 
  0x00, 0x00, 0xfc, 0xfd, 0x01, 0x03, 0x00, 0x00, 0xfb, 0x00, 0x00, 0xf1, 
  0x00, 0x01, 0x00, 0xf2, 0x00, 0x02, 0xfe, 0x00, 0x00, 0xff, 0x00, 0xed, 
  0xe0, 0x00, 0x00, 0x18, 0xfc, 0x00, 0x58, 0xd9, 0x00, 0xff, 0xfc, 0x00, 
  0xff, 0xed, 0x00, 0xdc, 0xff, 0x00, 0x04, 0x00, 0xff, 0xff, 0x4e, 0x00, 
  0x00, 0xdc, 0xf2, 0x00, 0xfe, 0xfe, 0x11, 0x01, 0x00, 0x00, 0xe5, 0x00, 
  0xff, 0xff, 0x07, 0x00, 0xff, 0xec, 0xf0, 0xf2, 0xfc, 0x7f, 0xf8, 0x00, 
  0xf2, 0x00, 0x00, 0xf9, 0x00, 0xfe, 0xfe, 0x17, 0x00, 0x02, 0x00, 0x00, 
  0x00, 0x00, 0x00, 0xf7, 0xf8, 0x00, 0x00, 0x54, 0xfd, 0x00, 0x29, 0xa4, 
  0x00, 0x00, 0xfd, 0x00, 0xff, 0x05, 0xff, 0xb7, 0x00, 0x00, 0xfd, 0x00, 
  0xff, 0x01, 0x09, 0x00, 0x00, 0xf9, 0xfc, 0x02, 0xef, 0xff, 0x0c, 0x00, 
  0x00, 0x00, 0xed, 0x00, 0x00, 0xff, 0xa5, 0x01, 0x00, 0xfc, 0xfa, 0xf5, 
  0xf9, 0x28, 0x01, 0x00, 0xfa, 0x00, 0x00, 0x81, 0x00, 0x01, 0x00, 0x00, 
  0x00, 0xf8, 0x00, 0x00, 0x00, 0x00, 0x00, 0xff, 0x01, 0x00, 0x00, 0xf2, 
  0x07, 0xff, 0x07, 0xe7, 0x00, 0x00, 0x05, 0x00, 0x00, 0xff, 0x00, 0x7f, 
  0x00, 0x00, 0xfb, 0x00, 0x00, 0x00, 0xfc, 0x00, 0x00, 0x01, 0xff, 0x00, 
  0x66, 0x00, 0xfc, 0x00, 0x00, 0x00, 0xfc, 0x00, 0xf1, 0x00, 0xe0, 0x00, 
  0x00, 0xfd, 0x00, 0x00, 0xff, 0x05, 0xfe, 0x00, 0x00, 0x00, 0x00, 0x00, 
  0x00, 0x02, 0xfe, 0xe2, 0x00, 0x06, 0x01, 0x00, 0x00, 0x00, 0x01, 0x03, 
  0x00, 0x00, 0x00, 0x3f, 0xf6, 0x01, 0x21, 0x8d, 0x00, 0xff, 0xf9, 0x01, 
  0x00, 0x16, 0xff, 0xca, 0xff, 0x00, 0x00, 0x00, 0x00, 0xfe, 0x15, 0x00, 
  0x00, 0x0b, 0xf7, 0x00, 0xcf, 0xff, 0x1f, 0x00, 0x00, 0x00, 0xf1, 0x00, 
  0xf2, 0xff, 0x81, 0x00, 0xff, 0xed, 0x00, 0x14, 0x00, 0xe5, 0x00, 0xff, 
  0xff, 0x00, 0x00, 0xce, 0x00, 0xff, 0xfe, 0xec, 0x00, 0xf6, 0x00, 0x00, 
  0x00, 0x00, 0x00, 0xf9, 0x00, 0x00, 0x00, 0x81, 0xfb, 0x00, 0x21, 0xe4, 
  0x00, 0xff, 0xff, 0x00, 0x00, 0xf9, 0xff, 0x2b, 0x00, 0x00, 0xf9, 0x00, 
  0xff, 0xff, 0xb2, 0x00, 0x00, 0xff, 0xfe, 0x03, 0x06, 0xff, 0x04, 0xff, 
  0x00, 0x00, 0xfa, 0x00, 0xfb, 0x00, 0x0a, 0x00, 0x02, 0x03, 0x00, 0x02, 
  0xfc, 0x09, 0xff, 0x00, 0x09, 0x00, 0x00, 0x99, 0x00, 0x00, 0xff, 0xfd, 
  0x00, 0xfa, 0x00, 0x00, 0x00, 0x00, 0x00, 0x00, 0x00, 0x00, 0x00, 0xfd, 
  0x02, 0xff, 0xfe, 0x7f, 0x00, 0x00, 0xfe, 0x00, 0xff, 0x28, 0xff, 0x00, 
  0x00, 0x00, 0x01, 0x00, 0x00, 0xfe, 0x07, 0x00, 0x00, 0x0d, 0x00, 0xfd, 
  0xf0, 0x00, 0xff, 0x00, 0x00, 0x01, 0x01, 0x00, 0xf1, 0x00, 0x13, 0x00, 
  0x00, 0xff, 0x01, 0x1d, 0x00, 0xbb, 0xff, 0x00, 0x03, 0x00, 0x00, 0xf8, 
  0x00, 0x00, 0x01, 0x23, 0x00, 0x0a, 0xfe, 0x00, 0x00, 0x00, 0xff, 0xf1, 
  0xf5, 0x00, 0x00, 0x4c, 0x03, 0x01, 0x2b, 0xab, 0x00, 0x01, 0xf7, 0x01, 
  0xff, 0xe2, 0x00, 0xa8, 0x00, 0x00, 0xff, 0x00, 0xff, 0x02, 0x33, 0x00, 
  0x00, 0xe0, 0x06, 0x05, 0xe3, 0x00, 0x0a, 0x00, 0x00, 0xff, 0xea, 0x00, 
  0xfa, 0x01, 0x81, 0x00, 0xff, 0xf7, 0xfc, 0xe2, 0x02, 0x76, 0xfe, 0x00, 
  0xf2, 0x00, 0x00, 0xa6, 0x00, 0x00, 0x00, 0x04, 0x00, 0x00, 0x00, 0x00, 
  0x00, 0x00, 0x00, 0xff, 0xfe, 0x00, 0x00, 0x7f, 0x04, 0x01, 0xfb, 0xee, 
  0x00, 0x00, 0x02, 0x00, 0x00, 0x05, 0x00, 0x09, 0x00, 0x00, 0xfd, 0x00, 
  0x00, 0x00, 0x1e, 0x00, 0x00, 0x05, 0x00, 0x00, 0xf9, 0x00, 0x00, 0xff, 
  0x00, 0xff, 0x00, 0x00, 0xf8, 0x00, 0xe5, 0x01, 0x00, 0xfe, 0x00, 0x07, 
  0x01, 0x0d, 0x00, 0x00, 0xfd, 0x00, 0x00, 0x0d, 0x00, 0x00, 0x00, 0x08, 
  0x00, 0x05, 0x01, 0x00, 0x01, 0xff, 0x00, 0x00, 0x0d, 0x00, 0x00, 0xf5, 
  0x02, 0x00, 0x44, 0xd9, 0x00, 0x00, 0xff, 0xfe, 0x00, 0x11, 0x00, 0x81, 
  0x01, 0x00, 0x03, 0x00, 0xff, 0xff, 0xff, 0x00, 0x00, 0x0b, 0x01, 0x01, 
  0xb2, 0x00, 0x03, 0x00, 0x00, 0x00, 0x0e, 0x00, 0x1d, 0x01, 0x44, 0x01, 
  0xff, 0x04, 0x06, 0x11, 0x01, 0x36, 0x01, 0x00, 0x00, 0x00, 0x00, 0xe6, 
  0x00, 0xfd, 0x00, 0xf1, 0x00, 0xf3, 0xff, 0x00, 0x00, 0x00, 0x00, 0x03, 
  0x2d, 0x00, 0x00, 0x7d, 0xff, 0x00, 0x81, 0x8e, 0x00, 0x00, 0xff, 0x01, 
  0xff, 0x00, 0x01, 0xe4, 0x00, 0x00, 0xfe, 0x00, 0x01, 0x00, 0x22, 0x00, 
  0x00, 0x01, 0x06, 0x01, 0xc9, 0x00, 0x07, 0xff, 0x00, 0xfe, 0x38, 0x00, 
  0xd7, 0x00, 0xc8, 0xff, 0xfe, 0xf7, 0x05, 0xfd, 0x04, 0xfb, 0x01, 0x00, 
  0xfa, 0x00, 0x00, 0x26, 0xb2, 0xf5, 0xff, 0xff, 0x04, 0x00, 0x00, 0x00, 
  0x80, 0x00, 0x00, 0x00, 0x21, 0xae, 0xad, 0x3d, 0xbd, 0x4d, 0x6f, 0x3d, 
  0x48, 0x36, 0x8b, 0xbe, 0xec, 0xde, 0x92, 0x3e, 0x3e, 0x55, 0xcd, 0xbe, 
  0xa3, 0xb4, 0x16, 0x3f, 0xd4, 0x91, 0x63, 0xbf, 0x22, 0x30, 0x81, 0x3e, 
  0x46, 0x03, 0xda, 0xbf, 0x23, 0x11, 0x25, 0x3f, 0xef, 0x05, 0x69, 0x3f, 
  0x56, 0x68, 0xeb, 0x3e, 0x78, 0xac, 0x32, 0x3e, 0x48, 0x4a, 0x8f, 0xbf, 
  0xdd, 0x85, 0x15, 0xc0, 0x68, 0x23, 0x9a, 0x3e, 0xf5, 0x00, 0x4d, 0xbd, 
  0x65, 0x0c, 0x80, 0x3e, 0xdc, 0x0d, 0xe4, 0xbe, 0x5d, 0x8c, 0x37, 0xbf, 
  0xd8, 0x2c, 0xed, 0x3e, 0x44, 0x61, 0xd7, 0xbd, 0x86, 0xc3, 0xdf, 0x3e, 
  0x91, 0x81, 0x57, 0x3f, 0xa9, 0xdf, 0x7a, 0xbf, 0xec, 0x68, 0x25, 0x3f, 
  0x53, 0xd4, 0x3a, 0x3e, 0xc8, 0x34, 0x1e, 0x3e, 0x7e, 0x2e, 0x90, 0x3c, 
  0x2e, 0x37, 0xe9, 0xbe, 0x62, 0x93, 0xc5, 0xbf, 0x9b, 0xf9, 0x81, 0x3d, 
  0x3e, 0xf6, 0xff, 0xff, 0x04, 0x00, 0x00, 0x00, 0x40, 0x00, 0x00, 0x00, 
  0xc5, 0x0d, 0x1a, 0xbf, 0x75, 0xdd, 0x43, 0x3f, 0x98, 0x82, 0x2f, 0xbf, 
  0x7f, 0x54, 0x90, 0x3f, 0x3e, 0xca, 0x47, 0xbf, 0x55, 0x82, 0xf2, 0x3d, 
  0xe4, 0xe1, 0x38, 0xbf, 0x9f, 0x66, 0xbd, 0xbf, 0x13, 0x39, 0x20, 0x3f, 
  0xfe, 0xf2, 0x9b, 0x3f, 0xf3, 0xbb, 0x6e, 0x3f, 0x57, 0x01, 0x72, 0x3f, 
  0x1e, 0x38, 0x17, 0xc0, 0xcf, 0xfc, 0x1b, 0x3f, 0x10, 0x32, 0x7e, 0x3f, 
  0x93, 0x17, 0xe7, 0x3e, 0x8a, 0xf6, 0xff, 0xff, 0x04, 0x00, 0x00, 0x00, 
  0x00, 0x08, 0x00, 0x00, 0x69, 0xee, 0xb0, 0xbf, 0xec, 0x68, 0x36, 0x3e, 
  0x8b, 0x9b, 0x1d, 0xbf, 0x99, 0xa8, 0xd4, 0xbe, 0x25, 0x54, 0x54, 0x3e, 
  0x33, 0x18, 0xa0, 0x3e, 0x14, 0x6a, 0x6d, 0xbe, 0x5d, 0xfa, 0xcb, 0xbf, 
  0xf7, 0xa1, 0x54, 0x3f, 0xfc, 0xa2, 0x15, 0xbf, 0x16, 0xcd, 0xd5, 0x39, 
  0x86, 0xc5, 0xbf, 0xbe, 0x16, 0x3c, 0x14, 0xbf, 0x69, 0x6d, 0x03, 0xbf, 
  0x1f, 0x1a, 0xab, 0xbd, 0x26, 0xee, 0x50, 0xbf, 0xcd, 0x09, 0xd5, 0xbe, 
  0xc7, 0x51, 0x92, 0xbf, 0x8a, 0xd1, 0x46, 0x3f, 0x53, 0x51, 0x64, 0xbe, 
  0x1d, 0x70, 0x97, 0xbe, 0xdb, 0xf6, 0xaf, 0xbe, 0x15, 0x51, 0x38, 0x3f, 
  0x28, 0x52, 0x58, 0x3f, 0x7d, 0x1f, 0xb0, 0xbe, 0x7a, 0x9b, 0x62, 0x3d, 
  0x54, 0xbb, 0x4e, 0xbe, 0x66, 0x74, 0xe4, 0xbe, 0xcd, 0x1d, 0xcf, 0xbc, 
  0xe2, 0x2f, 0x7d, 0x3e, 0x01, 0xe8, 0xe3, 0xbd, 0x3b, 0x71, 0x1f, 0x3e, 
  0xe4, 0x92, 0x19, 0x3f, 0x95, 0xbb, 0x67, 0xbe, 0x0b, 0x65, 0xaf, 0xbe, 
  0xb1, 0xcc, 0x64, 0x3f, 0xe3, 0xc4, 0x3b, 0xbf, 0x13, 0x1d, 0xeb, 0xbd, 
  0xeb, 0xa5, 0xe7, 0x3e, 0x62, 0x91, 0xfc, 0x3e, 0xf7, 0x5d, 0x05, 0xbf, 
  0x20, 0x19, 0xa1, 0xbd, 0xc1, 0xf3, 0x6e, 0xbe, 0xa0, 0xa1, 0xac, 0x3e, 
  0xbe, 0xa8, 0x9c, 0x3e, 0x7b, 0x20, 0xf7, 0xbe, 0x64, 0xb1, 0x91, 0xbf, 
  0x38, 0x70, 0xe9, 0x3e, 0x3e, 0xfd, 0x74, 0xbf, 0xd4, 0xf4, 0x1e, 0x3f, 
  0x59, 0x3c, 0x73, 0xbd, 0x1f, 0x0d, 0xe4, 0xbf, 0xc2, 0xb3, 0xae, 0x3e, 
  0xf5, 0x52, 0xbe, 0xbe, 0x11, 0xe7, 0x67, 0xbe, 0xd4, 0xf5, 0xef, 0x3c, 
  0x3c, 0xf9, 0x3b, 0x3f, 0x83, 0x7b, 0x84, 0x3e, 0xd5, 0xac, 0xfd, 0xbd, 
  0x8f, 0x6a, 0xc2, 0x3d, 0x54, 0x67, 0x35, 0xbd, 0x1e, 0xd4, 0x4c, 0x3f, 
  0x9e, 0x37, 0x82, 0x3e, 0xeb, 0x88, 0xf6, 0x3e, 0xb6, 0x3e, 0x51, 0xbf, 
  0x29, 0xb3, 0x97, 0x3d, 0xe2, 0xa5, 0x9a, 0xbd, 0x39, 0x9f, 0x4e, 0xbe, 
  0x3b, 0x39, 0xb7, 0x3e, 0xa6, 0xf4, 0x18, 0x3f, 0xae, 0xe3, 0x55, 0xbe, 
  0xb6, 0x62, 0x58, 0xbf, 0xef, 0x98, 0x73, 0x3e, 0xb8, 0xb6, 0x83, 0xbd, 
  0xad, 0xc0, 0x0b, 0x3e, 0x61, 0xc4, 0x74, 0xbe, 0x5f, 0x7a, 0x41, 0xbf, 
  0x69, 0xe9, 0x06, 0x3f, 0xac, 0x17, 0x8f, 0xbd, 0xe9, 0x0a, 0xd2, 0xbe, 
  0xe9, 0x69, 0x09, 0xbf, 0x03, 0xc1, 0x8b, 0xbf, 0x6b, 0x2c, 0xeb, 0x3e, 
  0x67, 0xcb, 0x04, 0xbe, 0x1e, 0xd1, 0xaa, 0x3e, 0x57, 0x6d, 0x91, 0x3e, 
  0x0a, 0xe9, 0xa3, 0x3e, 0xe3, 0x13, 0x9c, 0x3e, 0x04, 0xb1, 0x26, 0x3d, 
  0xca, 0x1d, 0x66, 0x3e, 0xa0, 0x86, 0xba, 0x3e, 0xbb, 0x00, 0x31, 0xbe, 
  0x7c, 0x1a, 0x0b, 0x3f, 0x04, 0x1f, 0x70, 0xbe, 0x81, 0xfa, 0x54, 0xbe, 
  0x01, 0x17, 0x66, 0xbe, 0x51, 0x84, 0x0b, 0x3f, 0x85, 0xe5, 0xc8, 0xbe, 
  0xda, 0x47, 0x0d, 0x3f, 0x55, 0x3b, 0x5b, 0x3f, 0xae, 0xfc, 0x9b, 0xbe, 
  0xc4, 0xd4, 0xcb, 0xbf, 0x14, 0x7a, 0xdf, 0x3c, 0xa5, 0xef, 0x01, 0x3f, 
  0x84, 0xf1, 0x0c, 0x3f, 0x40, 0xa1, 0xca, 0xbd, 0xbb, 0x55, 0x34, 0x3f, 
  0x93, 0x58, 0x0c, 0x3f, 0xb3, 0x72, 0x4a, 0xbe, 0x2e, 0xa2, 0x30, 0x3f, 
  0x39, 0x2b, 0x84, 0xbf, 0x0e, 0x79, 0xbd, 0x3d, 0xa2, 0x74, 0xa6, 0x3e, 
  0xfb, 0xe7, 0x6e, 0x3f, 0xea, 0xa7, 0x46, 0x3f, 0x6f, 0xe4, 0x73, 0x3e, 
  0xb4, 0x8a, 0xd6, 0xbf, 0xeb, 0xfe, 0x02, 0xbf, 0xad, 0xdf, 0xd2, 0x3e, 
  0x3d, 0x97, 0x06, 0x3f, 0x94, 0x77, 0x3a, 0x3d, 0xc0, 0x6d, 0x34, 0xbd, 
  0x01, 0xe8, 0xca, 0x3e, 0x1d, 0x28, 0x57, 0xbf, 0x1e, 0x1b, 0xa3, 0x3e, 
  0xe5, 0x6a, 0x4b, 0xbe, 0x4e, 0x2a, 0x26, 0xbe, 0xad, 0x9b, 0x52, 0x3e, 
  0x27, 0xc8, 0x3a, 0xbf, 0xf3, 0xbd, 0x87, 0xbe, 0x9f, 0x4b, 0x3a, 0xbe, 
  0x46, 0x31, 0xff, 0xbd, 0x37, 0x17, 0x66, 0xbe, 0xcf, 0x25, 0xe5, 0x3d, 
  0x10, 0x04, 0x29, 0xbf, 0x54, 0x3f, 0x64, 0xbf, 0x76, 0x90, 0x61, 0x3e, 
  0xc4, 0x5a, 0x48, 0x3f, 0x77, 0xc7, 0x11, 0x3e, 0x0a, 0x81, 0xdd, 0xbe, 
  0x07, 0xb9, 0x1b, 0xbf, 0x41, 0xf2, 0x6f, 0x3e, 0xd6, 0x8f, 0x09, 0x3d, 
  0xea, 0x90, 0x07, 0xbf, 0xc1, 0xa9, 0x55, 0xbf, 0x8f, 0x28, 0x79, 0xbf, 
  0xbf, 0x6f, 0x19, 0x3f, 0xd1, 0xe2, 0x0f, 0xbf, 0x65, 0xb1, 0xb9, 0xbd, 
  0xc6, 0x41, 0xb5, 0x3e, 0x5f, 0x3b, 0xcb, 0x3e, 0x8d, 0xf1, 0x90, 0x3d, 
  0xa0, 0x8a, 0x31, 0xbf, 0x2a, 0x02, 0xa6, 0x3e, 0x10, 0xaf, 0x4f, 0x3e, 
  0x34, 0xf2, 0x99, 0xbe, 0xf4, 0x4c, 0x39, 0x3d, 0x5f, 0xca, 0x93, 0xbe, 
  0x81, 0x93, 0x06, 0xbf, 0x6a, 0x14, 0x10, 0xbf, 0xc8, 0x33, 0x83, 0xbe, 
  0xb5, 0x86, 0x7f, 0x3e, 0x87, 0x03, 0x59, 0x3e, 0x14, 0x46, 0x14, 0xbf, 
  0xfd, 0xbc, 0x7b, 0xbd, 0x12, 0x5c, 0x3d, 0x3e, 0x4a, 0x4d, 0x36, 0x3e, 
  0x1a, 0xdf, 0x9f, 0x3e, 0x5f, 0xe3, 0x64, 0xbd, 0x13, 0x93, 0xab, 0x3e, 
  0xed, 0x34, 0x92, 0xbd, 0x3d, 0x78, 0xe5, 0x3e, 0x4c, 0x59, 0x8b, 0x3f, 
  0x95, 0x9d, 0x77, 0x3d, 0x8f, 0x55, 0xd6, 0x3e, 0x90, 0x6b, 0x75, 0x3e, 
  0x0e, 0x16, 0x28, 0x3f, 0x5f, 0x0e, 0x67, 0x3e, 0x6c, 0x09, 0x3e, 0x3c, 
  0x77, 0x56, 0xa2, 0xbc, 0x42, 0x79, 0x79, 0xbf, 0x17, 0xc9, 0x08, 0x3e, 
  0xf5, 0x42, 0x90, 0x3e, 0x3f, 0xb7, 0x69, 0xbd, 0xa1, 0x26, 0x55, 0xbe, 
  0xd0, 0x1e, 0x2d, 0x3e, 0xdc, 0x1c, 0x6f, 0xbe, 0x6d, 0xb8, 0x5f, 0x3f, 
  0xb8, 0x18, 0x6b, 0xbd, 0x9a, 0xcc, 0x93, 0x3a, 0x34, 0x32, 0x5a, 0x3f, 
  0x70, 0x4c, 0xd9, 0xbe, 0x06, 0xb0, 0x50, 0xbf, 0xe5, 0x39, 0x3a, 0x3f, 
  0xda, 0xe5, 0xb9, 0xbe, 0x55, 0x88, 0xed, 0xbd, 0x67, 0x86, 0x24, 0x3e, 
  0x8f, 0x84, 0xd7, 0x3e, 0x9c, 0xa8, 0xb0, 0xbe, 0xd0, 0xda, 0x82, 0xbf, 
  0x0a, 0xa1, 0xab, 0x3e, 0x5e, 0x12, 0xd3, 0x3d, 0xdc, 0x05, 0x95, 0x3e, 
  0x36, 0xd7, 0xce, 0xbe, 0xb1, 0xe2, 0x2d, 0xbf, 0x6f, 0x42, 0x02, 0x3f, 
  0x6d, 0x58, 0x6a, 0xbd, 0x73, 0x68, 0xad, 0xbe, 0x60, 0xd3, 0x76, 0xbf, 
  0xc4, 0x44, 0x80, 0xbf, 0x72, 0x3a, 0xb0, 0x3e, 0xb2, 0x30, 0x4a, 0xbe, 
  0xae, 0x35, 0x64, 0x3e, 0xc5, 0xdb, 0x8b, 0x3e, 0x70, 0xd5, 0x40, 0xbe, 
  0x54, 0x25, 0xf8, 0x3e, 0xd9, 0x42, 0xc8, 0xbe, 0xd1, 0x03, 0xbf, 0x3e, 
  0x62, 0x07, 0xff, 0x3d, 0xed, 0x5b, 0xc9, 0x3d, 0xac, 0xcf, 0xbc, 0x3e, 
  0xeb, 0xcf, 0xbd, 0xbd, 0xae, 0xa8, 0x80, 0xbe, 0xfd, 0xcf, 0x03, 0xbe, 
  0xf4, 0x60, 0x0c, 0xc0, 0x5d, 0xb7, 0x21, 0x3f, 0x85, 0xb8, 0x27, 0xbf, 
  0x1c, 0xe1, 0x65, 0xbe, 0x96, 0xe7, 0xbb, 0xbe, 0xb0, 0xa3, 0x92, 0x3c, 
  0x44, 0x51, 0x7e, 0xbe, 0xc8, 0x5e, 0x06, 0xc0, 0xb9, 0x63, 0x7d, 0x3e, 
  0xb3, 0x39, 0x17, 0x3f, 0xaf, 0xa3, 0x32, 0x3f, 0x66, 0x3a, 0xbf, 0xbd, 
  0x1d, 0xb0, 0xb0, 0xbf, 0x70, 0x03, 0x7a, 0x3d, 0x90, 0x81, 0x4b, 0xbe, 
  0xe8, 0x9c, 0xaf, 0xbf, 0x67, 0x2d, 0x41, 0xbf, 0x82, 0x6e, 0x88, 0xbf, 
  0x5d, 0xb0, 0x4c, 0x3e, 0x0e, 0xc2, 0xad, 0xbe, 0x40, 0x12, 0x86, 0xbf, 
  0x16, 0xb8, 0x5e, 0xbe, 0xae, 0xc5, 0xb4, 0x3e, 0xcd, 0xa2, 0xc4, 0xbe, 
  0x64, 0xc5, 0x92, 0xbe, 0x65, 0xed, 0xdf, 0x3d, 0x63, 0xd7, 0x44, 0x3e, 
  0x7b, 0xb8, 0x73, 0xbf, 0xda, 0x6e, 0xbb, 0xbe, 0x27, 0x30, 0xe4, 0xbe, 
  0xc8, 0xe1, 0x29, 0xbe, 0x36, 0xf4, 0x25, 0xbf, 0xaa, 0xfd, 0x45, 0xbe, 
  0xc8, 0x40, 0xab, 0x3e, 0x7d, 0x2c, 0xe8, 0x3e, 0xe2, 0x0e, 0x5f, 0xbe, 
  0xba, 0x86, 0x2d, 0xbe, 0x65, 0xcd, 0x92, 0xbe, 0xbc, 0x98, 0xf0, 0x3e, 
  0x51, 0x05, 0x7b, 0x3d, 0x89, 0x93, 0x78, 0x3e, 0xfc, 0x7b, 0x38, 0x3e, 
  0x97, 0x95, 0x69, 0x3e, 0x36, 0x1e, 0xc7, 0x3d, 0x08, 0xdb, 0x5b, 0xbf, 
  0xbc, 0x30, 0x93, 0x3e, 0x06, 0xef, 0x02, 0x3f, 0x61, 0x51, 0x89, 0x3f, 
  0x43, 0xa4, 0x25, 0x3f, 0xcd, 0x5c, 0xa9, 0xbc, 0x33, 0x01, 0x82, 0x3e, 
  0xe5, 0xb1, 0x90, 0x3e, 0xdd, 0xf1, 0x55, 0x3f, 0x73, 0xf4, 0x18, 0x3f, 
  0xa4, 0x69, 0x14, 0x3f, 0xe8, 0x92, 0x8a, 0xbd, 0x78, 0x7b, 0x84, 0x3e, 
  0xed, 0x6b, 0x66, 0x3d, 0xa8, 0xbd, 0x31, 0x3e, 0x8a, 0x7e, 0xad, 0x3e, 
  0x34, 0xe0, 0x33, 0xbe, 0x33, 0x99, 0xfb, 0x3d, 0x54, 0xbd, 0x82, 0x3f, 
  0x68, 0x3f, 0x16, 0xbe, 0x1c, 0xb7, 0xcc, 0x3b, 0xac, 0x2d, 0x7c, 0x3e, 
  0xb5, 0x64, 0x8c, 0xbe, 0xf7, 0x5b, 0xe0, 0xbe, 0x92, 0xf1, 0xc6, 0x3e, 
  0x28, 0xc3, 0x32, 0x3f, 0x21, 0xfc, 0xd3, 0xbe, 0x9e, 0x3c, 0xa9, 0x3f, 
  0xbd, 0x6a, 0x34, 0xbf, 0x9d, 0xc5, 0x34, 0x3f, 0x8e, 0xcb, 0xd4, 0xbf, 
  0xed, 0x46, 0x12, 0xbd, 0x04, 0x8a, 0xfd, 0x3e, 0xc3, 0x67, 0xf9, 0xbe, 
  0x54, 0x2e, 0x68, 0xbf, 0x05, 0xe6, 0x3c, 0x3f, 0xe3, 0x45, 0x45, 0x3e, 
  0xcf, 0x66, 0xba, 0xbd, 0x3d, 0x4e, 0x15, 0xbf, 0xc8, 0xff, 0x0c, 0x3d, 
  0x7c, 0x66, 0x64, 0x3f, 0x0f, 0x91, 0xef, 0x3e, 0x16, 0x5b, 0x81, 0xbf, 
  0x30, 0xd0, 0x00, 0xc0, 0xd0, 0x90, 0xbc, 0xbd, 0x3d, 0x9e, 0x1b, 0x3f, 
  0x04, 0x4d, 0x9c, 0xbf, 0x98, 0x87, 0x00, 0x3f, 0x8a, 0x7c, 0x72, 0xbf, 
  0x50, 0xec, 0x25, 0x3e, 0xe6, 0xd0, 0x0c, 0x3f, 0x0e, 0x25, 0x3a, 0xbe, 
  0x97, 0xd9, 0x01, 0x3e, 0xc1, 0x0f, 0xa4, 0x3e, 0x6c, 0xbb, 0x16, 0xbe, 
  0x8b, 0x70, 0x12, 0xbf, 0x72, 0x9d, 0x85, 0x3e, 0x67, 0xd5, 0xd6, 0x3d, 
  0xbb, 0xd7, 0xe9, 0xbc, 0x16, 0x3d, 0x3c, 0xbf, 0x75, 0xa9, 0xc3, 0xbe, 
  0x32, 0x22, 0x40, 0x3f, 0x02, 0xce, 0xf8, 0xbf, 0x10, 0x9b, 0x4d, 0xbe, 
  0x28, 0x0a, 0x6b, 0xbe, 0x34, 0x90, 0x59, 0xbf, 0x34, 0xa5, 0x1a, 0xbf, 
  0xdc, 0xeb, 0xeb, 0xbe, 0x32, 0x02, 0xc2, 0xbd, 0xa0, 0x72, 0x5e, 0xbf, 
  0xf2, 0xc4, 0xb1, 0xbf, 0x32, 0x87, 0x99, 0x3d, 0xbc, 0xed, 0xa3, 0x3e, 
  0x02, 0x2f, 0x47, 0x3f, 0x29, 0x1d, 0xaa, 0xbf, 0x33, 0x23, 0xc1, 0xbf, 
  0x9c, 0x6c, 0x94, 0x3d, 0x0d, 0xae, 0x8c, 0xbe, 0x29, 0xaf, 0x09, 0xbf, 
  0x47, 0xf0, 0x12, 0x3f, 0x67, 0x4a, 0xf3, 0xbf, 0xf1, 0x3b, 0x74, 0x3e, 
  0x19, 0x6b, 0x2c, 0x3f, 0xff, 0xa0, 0x1a, 0x3e, 0x4d, 0x62, 0xcd, 0xbe, 
  0x59, 0x78, 0x3b, 0xbe, 0x51, 0xab, 0x18, 0x3f, 0xf4, 0xba, 0x60, 0xbd, 
  0x4b, 0x73, 0x89, 0x3e, 0x82, 0xe2, 0x6a, 0xbd, 0x77, 0x6a, 0x2a, 0xbe, 
  0x11, 0x3e, 0xae, 0x3f, 0xfd, 0xe5, 0x86, 0x3d, 0x12, 0x27, 0xe7, 0xbc, 
  0x7e, 0x0c, 0xdf, 0x3c, 0xbe, 0x99, 0xe5, 0xbe, 0xde, 0xe4, 0xac, 0x3f, 
  0x8f, 0xe1, 0x0d, 0xbe, 0x83, 0xb0, 0x2b, 0xbe, 0xab, 0xc2, 0x16, 0xbf, 
  0x26, 0x0c, 0xa4, 0xbe, 0x0e, 0x05, 0x8e, 0xbe, 0x47, 0xa9, 0x1b, 0xbd, 
  0xd1, 0xd7, 0xb3, 0xbd, 0x54, 0x8b, 0x8f, 0x3e, 0xea, 0xd2, 0xd4, 0x3e, 
  0x35, 0xdb, 0x0e, 0x3e, 0x6c, 0x1b, 0xc2, 0xbd, 0x04, 0x8f, 0x29, 0x3f, 
  0x84, 0x0c, 0x24, 0x3a, 0x69, 0x3b, 0xf0, 0x3d, 0x2d, 0x7c, 0xa1, 0xbe, 
  0x39, 0xfe, 0x31, 0xbe, 0x1e, 0x46, 0x76, 0xbf, 0xdc, 0xac, 0x28, 0xbe, 
  0xd9, 0x5a, 0x2e, 0x3e, 0xf6, 0xc8, 0x3b, 0xc0, 0xbe, 0xe3, 0x78, 0x3e, 
  0x3b, 0xea, 0x42, 0xbf, 0xcb, 0x32, 0x52, 0xbf, 0x5b, 0x05, 0xe4, 0xbe, 
  0x9d, 0x81, 0xb5, 0xbe, 0x3f, 0x98, 0x16, 0xbf, 0x03, 0xa6, 0x38, 0xc0, 
  0x58, 0xda, 0x9f, 0x3d, 0x49, 0x6d, 0x05, 0x3f, 0x42, 0xf6, 0x04, 0xbe, 
  0x29, 0x04, 0x0d, 0xbf, 0x32, 0xa3, 0x85, 0xbf, 0x16, 0x11, 0x73, 0x3e, 
  0xbb, 0x36, 0x03, 0xbe, 0xb4, 0x24, 0xe6, 0xbf, 0xf7, 0x04, 0x70, 0xbf, 
  0x02, 0x34, 0xca, 0xbf, 0x0a, 0x38, 0x8d, 0xbd, 0x69, 0x45, 0xbd, 0xbf, 
  0xa6, 0xa5, 0x3b, 0xbf, 0x41, 0x89, 0xe5, 0xbd, 0x44, 0xc5, 0x26, 0x3f, 
  0x6b, 0xa0, 0xe4, 0x3d, 0x5d, 0x82, 0xa1, 0xbf, 0xea, 0x6a, 0x88, 0x3e, 
  0xe7, 0x4a, 0x2f, 0x3e, 0x41, 0x51, 0x9c, 0xbf, 0xe3, 0xaf, 0x36, 0x3e, 
  0xf8, 0x64, 0xc1, 0xbe, 0xe9, 0x38, 0x25, 0x3e, 0xa7, 0x03, 0x28, 0xbf, 
  0xc1, 0x18, 0x21, 0x3f, 0xba, 0x0d, 0x0b, 0xbf, 0x00, 0x1f, 0xfa, 0xbd, 
  0x8b, 0xc5, 0x49, 0x3f, 0xe5, 0x80, 0x21, 0x3f, 0xe1, 0xe2, 0x4b, 0xbf, 
  0xb2, 0x84, 0x02, 0xbf, 0x38, 0xcb, 0x14, 0x3f, 0x21, 0xd7, 0xfa, 0x3d, 
  0x6a, 0xda, 0x42, 0xbe, 0x96, 0x8a, 0x5f, 0x3e, 0x1f, 0x64, 0x7a, 0xbc, 
  0xb8, 0x87, 0x77, 0x3f, 0x2a, 0xbf, 0xb8, 0x3e, 0x13, 0x4a, 0x8e, 0x3d, 
  0x00, 0x7c, 0x8d, 0x3f, 0x23, 0xe5, 0xc1, 0x3d, 0x3b, 0x2c, 0x97, 0x3f, 
  0xdc, 0x1b, 0xb2, 0x3e, 0x31, 0xe0, 0x44, 0x3f, 0x49, 0xff, 0xf8, 0xbf, 
  0x74, 0xc9, 0x9b, 0xbe, 0x79, 0x5e, 0x00, 0x3d, 0xb4, 0xd7, 0x13, 0x3e, 
  0xe2, 0xda, 0x04, 0xbf, 0x9e, 0x5d, 0x53, 0x3e, 0x35, 0x42, 0x7e, 0x3e, 
  0xd4, 0xc5, 0x16, 0x3f, 0x55, 0xab, 0x71, 0xbc, 0xce, 0x08, 0x61, 0xbe, 
  0x2d, 0x08, 0x43, 0x3f, 0x47, 0xfb, 0xdb, 0x3d, 0x86, 0xce, 0x13, 0x3f, 
  0x9d, 0x25, 0x1a, 0xbf, 0x51, 0xbf, 0x2e, 0xbf, 0xcc, 0xbf, 0x27, 0xbd, 
  0xa0, 0x1d, 0xa0, 0x3e, 0x28, 0xb8, 0x92, 0xbb, 0x3f, 0x6c, 0x2d, 0xbd, 
  0x41, 0x6d, 0x91, 0x3f, 0x40, 0xdf, 0xe3, 0xbf, 0xeb, 0x64, 0x95, 0x3e, 
  0xfd, 0x2d, 0x0d, 0xbe, 0xd2, 0x36, 0x1a, 0xbc, 0xfd, 0xb0, 0x34, 0x3d, 
  0x04, 0xf2, 0xb8, 0xbf, 0x23, 0x7c, 0x99, 0xbf, 0x31, 0xcb, 0x20, 0xbe, 
  0x15, 0xaa, 0x90, 0x3f, 0xf9, 0xdd, 0xab, 0x3d, 0xec, 0x8e, 0x2f, 0xbf, 
  0xcb, 0xc6, 0xe3, 0x3e, 0x6e, 0x31, 0xf7, 0x3e, 0x76, 0x75, 0x68, 0xbe, 
  0xe9, 0xba, 0xdc, 0xbe, 0x81, 0x21, 0x66, 0xbe, 0x32, 0x6b, 0x41, 0xbf, 
  0xd0, 0x55, 0x8c, 0x3e, 0xa4, 0x7b, 0x1f, 0xbd, 0xab, 0x77, 0x67, 0xbd, 
  0x78, 0xc9, 0x94, 0xbe, 0x27, 0x19, 0x8f, 0xbc, 0xb0, 0xd5, 0x81, 0x3e, 
  0x73, 0xd9, 0xaa, 0xbe, 0xd1, 0x6a, 0x3f, 0xbe, 0x5b, 0x39, 0x76, 0x3d, 
  0xea, 0x41, 0x71, 0xbd, 0xc4, 0x37, 0x2d, 0xbf, 0x8b, 0xe2, 0x9f, 0x3e, 
  0x45, 0x1c, 0x06, 0x3f, 0x86, 0x70, 0xd3, 0x3e, 0xae, 0x14, 0xeb, 0x3e, 
  0xb4, 0x28, 0x00, 0xbf, 0x80, 0x82, 0x0d, 0x3f, 0xb9, 0xcd, 0x1d, 0xbf, 
  0x17, 0xd7, 0x0f, 0x3f, 0xd8, 0x62, 0x6d, 0x3f, 0xb1, 0x5c, 0xf5, 0xbe, 
  0x1b, 0xfd, 0xd4, 0x3e, 0x27, 0x9f, 0x4b, 0x3f, 0xb9, 0xe3, 0x10, 0xbe, 
  0xf8, 0x9b, 0xd8, 0xbe, 0xc1, 0x01, 0xac, 0xbe, 0x11, 0x5e, 0x0b, 0xbe, 
  0x5e, 0x74, 0x47, 0x3f, 0xbf, 0x07, 0xde, 0x3e, 0x1d, 0x46, 0xe4, 0xbe, 
  0xb4, 0x12, 0x80, 0xbf, 0x9a, 0x3c, 0xe8, 0x3e, 0x3f, 0x2b, 0xbc, 0x3e, 
  0x84, 0xe8, 0x1c, 0xbf, 0xb2, 0x42, 0x1b, 0x3f, 0xf9, 0x75, 0x48, 0xbf, 
  0x66, 0xa7, 0x93, 0x3e, 0x0a, 0xb0, 0x95, 0x3f, 0xcd, 0xf7, 0x36, 0x3d, 
  0x96, 0xfe, 0xff, 0xff, 0x04, 0x00, 0x00, 0x00, 0x04, 0x00, 0x00, 0x00, 
  0x33, 0x14, 0xea, 0xbe, 0xa6, 0xfe, 0xff, 0xff, 0x04, 0x00, 0x00, 0x00, 
  0x40, 0x00, 0x00, 0x00, 0x82, 0x40, 0xc0, 0x3d, 0x8a, 0x6f, 0xb9, 0x3e, 
  0xf5, 0xa3, 0x4b, 0x3f, 0x62, 0xfb, 0x29, 0xbd, 0x5e, 0x08, 0x46, 0x3f, 
  0xf3, 0x18, 0x0b, 0xbf, 0x7b, 0x8a, 0x34, 0x3f, 0x70, 0x0a, 0x06, 0x3f, 
  0xb6, 0xcd, 0x17, 0xbf, 0x2f, 0x03, 0xe8, 0x3e, 0x4f, 0xc0, 0xa2, 0x3e, 
  0x7c, 0xda, 0x10, 0xbe, 0x7a, 0xc1, 0xe4, 0x3e, 0xab, 0x31, 0x0f, 0x3e, 
  0xdc, 0x4a, 0x30, 0x3e, 0xcb, 0x9f, 0x88, 0x3c, 0xf2, 0xfe, 0xff, 0xff, 
  0x04, 0x00, 0x00, 0x00, 0x00, 0x01, 0x00, 0x00, 0x91, 0x1b, 0xa4, 0x3e, 
  0xd6, 0x9f, 0x49, 0x3f, 0x96, 0x77, 0x2f, 0x3f, 0xea, 0x1a, 0x32, 0xbf, 
  0xa7, 0xa4, 0x7b, 0xbe, 0x61, 0x84, 0x59, 0xbf, 0x4c, 0xb0, 0xb9, 0xbe, 
  0x10, 0xb4, 0xef, 0x3d, 0x86, 0xb4, 0x70, 0xbe, 0x68, 0x84, 0xbb, 0xbe, 
  0x36, 0x98, 0x64, 0x3f, 0x7b, 0x1a, 0x2b, 0xbf, 0xbf, 0xd9, 0x12, 0xbf, 
  0x09, 0x52, 0x51, 0x3e, 0xce, 0x6d, 0xb8, 0xbd, 0xef, 0xbf, 0x5f, 0xbf, 
  0xe3, 0x5d, 0xe2, 0xbe, 0x93, 0x28, 0xb2, 0x3e, 0x8d, 0x6f, 0xfb, 0xbe, 
  0x88, 0xda, 0x56, 0xbf, 0x2c, 0xe4, 0xa1, 0xbe, 0xc7, 0xe7, 0x82, 0x3f, 
  0x0f, 0xf7, 0xdd, 0xbe, 0x9e, 0x9d, 0x5a, 0x3f, 0xf8, 0x7c, 0x19, 0xbf, 
  0x32, 0x6d, 0x44, 0xbf, 0xf3, 0x84, 0xd2, 0x3e, 0x72, 0x5b, 0x43, 0xbf, 
  0xd4, 0x49, 0x9f, 0xbe, 0xe3, 0xe1, 0xf5, 0x3e, 0x9f, 0xed, 0x28, 0xbf, 
  0x5e, 0xd7, 0x9a, 0xbe, 0x10, 0xa1, 0x93, 0x3e, 0xfa, 0x41, 0x93, 0x3e, 
  0xb2, 0xd4, 0x50, 0xbf, 0x1c, 0xda, 0x73, 0x3f, 0x20, 0x2d, 0x11, 0xbe, 
  0xc5, 0x14, 0x41, 0xbf, 0xaf, 0x94, 0x10, 0xbf, 0x46, 0xd4, 0x49, 0x3f, 
  0x07, 0x51, 0x46, 0xbf, 0xa7, 0x54, 0xa3, 0xbe, 0xdf, 0x39, 0x37, 0xbf, 
  0x8f, 0x05, 0x27, 0x3f, 0x4e, 0x80, 0x67, 0xbf, 0x0e, 0x08, 0x6d, 0x3f, 
  0xd8, 0x43, 0x12, 0xbf, 0xba, 0x31, 0xee, 0xbe, 0xd0, 0xc4, 0x29, 0xbf, 
  0x60, 0xd9, 0xec, 0xbe, 0xb9, 0x3a, 0x3e, 0xbf, 0xaf, 0xce, 0x0b, 0xbf, 
  0x90, 0x08, 0x4c, 0xbf, 0xa7, 0x61, 0x2c, 0xbf, 0x9e, 0x75, 0x2e, 0xbf, 
  0x45, 0xff, 0x3c, 0xbf, 0x0a, 0x12, 0x0b, 0xbf, 0xc7, 0x50, 0x52, 0xbf, 
  0x53, 0x64, 0x03, 0xbf, 0x26, 0x96, 0x18, 0xbc, 0xbf, 0xa4, 0x59, 0xbf, 
  0x26, 0x96, 0x4c, 0x3f, 0x93, 0xa0, 0x7f, 0xbd, 0xff, 0x2f, 0x51, 0xbf, 
  0x00, 0x00, 0x06, 0x00, 0x08, 0x00, 0x04, 0x00, 0x06, 0x00, 0x00, 0x00, 
  0x04, 0x00, 0x00, 0x00, 0x00, 0x08, 0x00, 0x00, 0x47, 0xd1, 0x4e, 0x3e, 
  0xc2, 0xa3, 0xc9, 0x3d, 0x4e, 0x30, 0xe9, 0x3e, 0x28, 0xdc, 0x81, 0x3e, 
  0xce, 0x5e, 0x93, 0x3e, 0x18, 0xa7, 0xa0, 0x3e, 0x02, 0x9a, 0xfd, 0x3e, 
  0x34, 0x68, 0xfb, 0xbe, 0x02, 0xf1, 0x9c, 0xbc, 0x17, 0x71, 0x9a, 0xbf, 
  0x33, 0x6b, 0xd2, 0xbb, 0x1b, 0x5d, 0xf2, 0x3a, 0xf1, 0xb4, 0x89, 0x3c, 
  0x15, 0x96, 0x00, 0x3e, 0xb0, 0x20, 0xf2, 0xbd, 0xba, 0x30, 0x6d, 0xbe, 
  0xdd, 0x6d, 0x3e, 0x3d, 0x37, 0x76, 0x61, 0x3d, 0xb2, 0xe8, 0x47, 0x3d, 
  0x07, 0xfe, 0xf3, 0xbc, 0x9b, 0xd6, 0xbc, 0xbc, 0xcd, 0xaa, 0xa5, 0x3e, 
  0xf8, 0x0a, 0xcf, 0xbe, 0x12, 0xca, 0xc6, 0x3f, 0x15, 0x5d, 0x42, 0x3c, 
  0x06, 0xf3, 0x6e, 0xbc, 0x11, 0x8a, 0x29, 0x3b, 0x00, 0x0a, 0x41, 0x3f, 
  0x7e, 0x60, 0xb6, 0xbc, 0xbb, 0x82, 0xba, 0x3d, 0x0e, 0x29, 0x8f, 0xbd, 
  0xf4, 0x06, 0x86, 0xbd, 0x01, 0x37, 0xc5, 0x3d, 0x24, 0x4d, 0xbb, 0x3e, 
  0x3d, 0xf1, 0x0c, 0xbe, 0x00, 0x60, 0xb9, 0x3e, 0xde, 0x2b, 0x82, 0xbe, 
  0x6e, 0x76, 0xd0, 0x3e, 0x51, 0x3e, 0x4e, 0xbc, 0xa6, 0x05, 0x88, 0x3f, 
  0x0b, 0x94, 0x9f, 0x3d, 0xdf, 0x95, 0x22, 0x3d, 0x95, 0x34, 0x74, 0x3d, 
  0xbe, 0x89, 0x9c, 0x3b, 0x1e, 0xd2, 0xda, 0xbb, 0xfd, 0x31, 0xac, 0x3e, 
  0xad, 0x5a, 0xa2, 0x3e, 0x1f, 0x28, 0xf4, 0x3e, 0x44, 0x51, 0xd8, 0xbc, 
  0x7d, 0x47, 0x1f, 0xbe, 0x62, 0x46, 0x99, 0xbf, 0x6f, 0x8c, 0x00, 0x3e, 
  0xad, 0xfa, 0x99, 0x3d, 0x6a, 0xd1, 0x65, 0x3e, 0x16, 0x74, 0x64, 0x3e, 
  0xfc, 0x8e, 0x66, 0x3d, 0xd5, 0x9e, 0xfa, 0x3e, 0x72, 0xaf, 0x2a, 0xbf, 
  0x11, 0x22, 0x77, 0xbe, 0x52, 0xa9, 0xd8, 0xbe, 0x76, 0x69, 0x07, 0x3d, 
  0x91, 0xc0, 0x4d, 0xbc, 0x78, 0x89, 0xa2, 0x3b, 0x93, 0x6a, 0xd8, 0xbe, 
  0xd6, 0x01, 0x21, 0xbe, 0x45, 0x9a, 0x43, 0xbf, 0x3a, 0x77, 0xda, 0xbe, 
  0x95, 0xcb, 0x1b, 0x3f, 0x32, 0xa2, 0x90, 0xbc, 0x15, 0x29, 0xa9, 0x3c, 
  0x15, 0x76, 0x25, 0xbe, 0x9c, 0x3d, 0xa6, 0xbe, 0xa2, 0xbc, 0x10, 0xbe, 
  0x7b, 0x7c, 0xc2, 0x3c, 0xdd, 0x0d, 0x1b, 0x3f, 0xad, 0xb8, 0x81, 0xbf, 
  0x17, 0xb1, 0x5e, 0x3d, 0x89, 0x1e, 0x16, 0x3e, 0x6d, 0x37, 0xe1, 0xbd, 
  0xbe, 0xb9, 0x87, 0x3c, 0x60, 0x22, 0x78, 0xbe, 0x28, 0x1e, 0x34, 0x3e, 
  0x71, 0x2b, 0x7f, 0x3f, 0x10, 0xeb, 0x64, 0x3e, 0x0b, 0x3d, 0xcc, 0x3d, 
  0x88, 0x26, 0x76, 0x3e, 0x81, 0xc9, 0xbe, 0xbd, 0xc6, 0x90, 0x51, 0x3e, 
  0x35, 0x92, 0x55, 0xbd, 0x12, 0x13, 0x8d, 0xbc, 0x0a, 0x4c, 0x01, 0x3d, 
  0xca, 0x3a, 0x6e, 0xbc, 0x37, 0xe5, 0x12, 0x3b, 0x4e, 0xef, 0x95, 0x3e, 
  0x66, 0xe1, 0x92, 0xbe, 0x04, 0x5b, 0x56, 0x3f, 0x66, 0xa7, 0x07, 0x3a, 
  0x90, 0xc4, 0x7f, 0x3f, 0x13, 0x25, 0x5e, 0x3b, 0x55, 0xc2, 0x27, 0xbc, 
  0x20, 0x6b, 0xda, 0xb9, 0xe1, 0x92, 0xf1, 0x3c, 0x14, 0x26, 0x78, 0xbc, 
  0xc7, 0x55, 0xfe, 0xbc, 0x3a, 0x34, 0xb7, 0xbe, 0xfe, 0x5f, 0x03, 0xbf, 
  0x9a, 0xa2, 0xf4, 0xbe, 0xa3, 0x9c, 0xaa, 0xbe, 0x1b, 0x09, 0xc5, 0x3e, 
  0xd8, 0x37, 0xbf, 0x3c, 0xd1, 0x38, 0x01, 0x3f, 0xdd, 0xaa, 0xb7, 0xbe, 
  0x05, 0xed, 0x59, 0xbe, 0x63, 0xee, 0x0a, 0x3e, 0x51, 0x9b, 0x54, 0x3e, 
  0x1e, 0x1f, 0x15, 0x3e, 0x4e, 0x11, 0xb6, 0x3c, 0x2b, 0x41, 0x89, 0xbf, 
  0x5d, 0xaa, 0xbd, 0xbe, 0xee, 0xc3, 0x21, 0xbf, 0x5b, 0xe0, 0xa6, 0xbb, 
  0x40, 0x5a, 0x92, 0x3a, 0x15, 0x9a, 0x0a, 0x3b, 0xbf, 0x1d, 0x46, 0xbb, 
  0x24, 0x25, 0x13, 0xbb, 0xef, 0xf2, 0xc4, 0xbe, 0xa9, 0x24, 0x6f, 0x3e, 
  0x0f, 0xe2, 0xdd, 0xbe, 0x20, 0x5a, 0x04, 0x3d, 0xd2, 0x1d, 0xe1, 0xbb, 
  0xe4, 0x40, 0x9d, 0xbf, 0xd2, 0x8a, 0xe2, 0x3c, 0x44, 0x69, 0x5e, 0xbb, 
  0x86, 0xd0, 0xd7, 0xbd, 0xc2, 0x0f, 0x7c, 0x3d, 0x41, 0x96, 0xee, 0x3d, 
  0xd1, 0x38, 0x0f, 0xbe, 0x47, 0x2d, 0x43, 0xbf, 0xe5, 0x26, 0xde, 0x3e, 
  0x23, 0xb8, 0x90, 0xbe, 0x79, 0x32, 0x14, 0xbd, 0xe7, 0x9b, 0x16, 0xbe, 
  0xa3, 0x8e, 0x30, 0x3e, 0x62, 0xac, 0xd1, 0xbe, 0xf9, 0xcc, 0x6c, 0xbb, 
  0x96, 0xd0, 0x32, 0x3f, 0x57, 0xed, 0x8a, 0xb9, 0x88, 0x47, 0x68, 0xbb, 
  0x39, 0x56, 0xc0, 0xbb, 0xe0, 0x51, 0x39, 0xbd, 0x9c, 0x24, 0x46, 0x3d, 
  0xf4, 0x32, 0x90, 0x3d, 0x6d, 0xda, 0x19, 0xbf, 0x8b, 0x88, 0xd7, 0xbc, 
  0x4b, 0xc5, 0x33, 0x3c, 0x76, 0x38, 0xcf, 0x3b, 0x2a, 0xd4, 0x61, 0x39, 
  0xb1, 0xd5, 0xc0, 0xbc, 0x3c, 0xda, 0xba, 0x3c, 0xbe, 0x31, 0x32, 0x3d, 
  0x31, 0x39, 0x8b, 0x3e, 0x19, 0x71, 0x18, 0x3f, 0x8d, 0x81, 0x09, 0xbf, 
  0xc4, 0xcf, 0x9c, 0x3e, 0x8f, 0x3e, 0x95, 0xbe, 0x0b, 0xcf, 0xb3, 0x3d, 
  0xef, 0xd1, 0x96, 0xbe, 0x3c, 0x05, 0x99, 0xbe, 0xf4, 0x41, 0x7c, 0x3b, 
  0x3e, 0xff, 0x12, 0x40, 0x30, 0xdc, 0x0a, 0x3a, 0x0d, 0xa0, 0x4b, 0xbd, 
  0xac, 0x6a, 0x4b, 0x3b, 0x4a, 0x0f, 0x34, 0xbe, 0x01, 0x38, 0x00, 0x3e, 
  0x87, 0x9a, 0x00, 0x3e, 0xdf, 0x4d, 0xa8, 0x3c, 0xcc, 0x33, 0xf5, 0x3c, 
  0x48, 0xee, 0x91, 0xbf, 0x6d, 0x85, 0xc3, 0xbb, 0x78, 0xcc, 0x1e, 0xbd, 
  0x61, 0xad, 0xe2, 0x3d, 0x28, 0x1f, 0xdf, 0xbd, 0xdd, 0xaa, 0x3d, 0xbe, 
  0x72, 0xe6, 0x61, 0xbc, 0xa6, 0x17, 0xfe, 0x3d, 0x2c, 0x0f, 0x7e, 0x3f, 
  0xdb, 0xab, 0x94, 0xbe, 0x9a, 0x54, 0x9e, 0xbd, 0x29, 0xfd, 0x6a, 0x3d, 
  0x2a, 0x77, 0xaf, 0x3d, 0x62, 0x17, 0xfc, 0xbe, 0x66, 0xd8, 0xe8, 0xbe, 
  0x37, 0x1d, 0xb4, 0xbd, 0xed, 0xb9, 0x27, 0xbf, 0x26, 0xed, 0x93, 0x3e, 
  0x79, 0xba, 0xca, 0x3d, 0x24, 0x4f, 0x36, 0x3e, 0x9d, 0x41, 0x72, 0xbe, 
  0x2d, 0x8e, 0xfb, 0x3e, 0xc4, 0xcf, 0xb4, 0xb8, 0x9e, 0xc4, 0x54, 0x3b, 
  0xd8, 0xce, 0x44, 0x3b, 0x35, 0x3d, 0x51, 0xbb, 0x8b, 0x25, 0x7f, 0xba, 
  0xd4, 0x0e, 0x9b, 0x3e, 0xc9, 0x75, 0x8e, 0xbe, 0xa0, 0x7f, 0x3a, 0x3f, 
  0x39, 0x1c, 0x92, 0xbc, 0xeb, 0x0c, 0x15, 0xbd, 0xb5, 0x5d, 0xe2, 0x3d, 
  0xa1, 0xfd, 0xe0, 0xbb, 0x1c, 0x02, 0xab, 0x3c, 0x39, 0xf7, 0x68, 0x3e, 
  0xf3, 0x1d, 0xbe, 0xbe, 0x09, 0x53, 0xe2, 0x3f, 0xdc, 0x02, 0x27, 0xbc, 
  0xd1, 0x31, 0x20, 0x3c, 0x78, 0x6e, 0x9e, 0x3a, 0x4c, 0xd7, 0x2b, 0x3f, 
  0x79, 0xac, 0x05, 0x3c, 0x82, 0x06, 0x0e, 0x3d, 0x58, 0xbe, 0xbc, 0xbc, 
  0xda, 0x79, 0x64, 0xbd, 0x2a, 0x01, 0x5c, 0x3f, 0x1c, 0xce, 0xf9, 0x3e, 
  0xe4, 0x3b, 0xdf, 0xbe, 0xc9, 0x2f, 0xf9, 0xbd, 0x55, 0xe0, 0x43, 0x3e, 
  0x12, 0x50, 0xd8, 0xbd, 0x94, 0x04, 0xea, 0x3c, 0x49, 0x75, 0x27, 0x3e, 
  0x6c, 0x79, 0x9a, 0xbd, 0x90, 0x10, 0x1c, 0xbf, 0x25, 0xa1, 0x30, 0x3f, 
  0xc1, 0x8c, 0xa0, 0x3e, 0xb0, 0x4a, 0x3d, 0xbc, 0x59, 0xec, 0x27, 0xbd, 
  0x70, 0x73, 0x68, 0x3e, 0x2d, 0x67, 0xd4, 0xbe, 0x13, 0xb1, 0x91, 0x3c, 
  0xcb, 0xd3, 0x60, 0xbf, 0x8f, 0x48, 0x8f, 0x3d, 0x61, 0x33, 0x6d, 0xbd, 
  0xae, 0x5e, 0x46, 0x3c, 0x23, 0xce, 0xa3, 0xbd, 0xb9, 0x89, 0x94, 0x3d, 
  0x7f, 0x13, 0x7c, 0x3e, 0x75, 0x93, 0x1a, 0xbe, 0xe2, 0x6c, 0x4c, 0x3f, 
  0x1d, 0xaf, 0x34, 0xbe, 0x4d, 0x3a, 0x63, 0xbc, 0xf7, 0xc2, 0xbb, 0x3d, 
  0x4d, 0x42, 0xc0, 0x3e, 0x14, 0x73, 0x46, 0x3d, 0x29, 0x0b, 0x3c, 0x3f, 
  0x4c, 0x8c, 0x62, 0xbd, 0x8d, 0x20, 0x91, 0xbc, 0x7e, 0xa1, 0xfb, 0xbd, 
  0x19, 0xb7, 0x18, 0xbe, 0xa2, 0x3e, 0x34, 0xbd, 0x0f, 0xe6, 0x8b, 0x3e, 
  0xf4, 0xb7, 0x78, 0xbe, 0x61, 0x1d, 0xfb, 0x3f, 0x5e, 0x00, 0xe5, 0xbd, 
  0x83, 0x76, 0x02, 0xbf, 0x1d, 0x34, 0x09, 0x3e, 0x45, 0xe0, 0x1e, 0xbc, 
  0x2e, 0x2b, 0xbd, 0x3c, 0xf6, 0xcf, 0xa0, 0x3e, 0x35, 0x54, 0x58, 0x3f, 
  0xb3, 0x15, 0x1c, 0xbf, 0xd7, 0xe6, 0xb9, 0xbb, 0xf1, 0xc0, 0xd8, 0x39, 
  0x6b, 0x87, 0x15, 0x3b, 0xd5, 0xd6, 0xf6, 0xba, 0x2a, 0xf5, 0x2d, 0x3a, 
  0xe8, 0x0e, 0xe7, 0xbe, 0xee, 0xaf, 0x8b, 0x3e, 0xe9, 0xc5, 0xa3, 0xbe, 
  0x70, 0xf6, 0xa1, 0x3d, 0xcb, 0xa2, 0xac, 0x3f, 0xbb, 0xbb, 0x8a, 0xbe, 
  0x07, 0x5f, 0x82, 0xbc, 0x2b, 0x92, 0x2f, 0x3b, 0xcc, 0x5e, 0x55, 0x3e, 
  0x8f, 0xa7, 0x16, 0xbe, 0xef, 0x90, 0x0c, 0xbe, 0xd8, 0xb4, 0x42, 0xbe, 
  0x50, 0xec, 0x42, 0xbf, 0x6e, 0xa7, 0x38, 0xbe, 0x7c, 0x37, 0xa0, 0x3e, 
  0x5c, 0x49, 0xf4, 0xbe, 0xb1, 0x5e, 0x07, 0xbd, 0x25, 0x52, 0x9d, 0x3e, 
  0x83, 0x5a, 0x07, 0x3e, 0xd6, 0x43, 0x1e, 0xbb, 0x8f, 0x09, 0x6a, 0xba, 
  0x5d, 0xc2, 0x8e, 0x3c, 0xb9, 0xd5, 0x08, 0xba, 0x3e, 0x02, 0xdb, 0xbb, 
  0x02, 0x70, 0xae, 0x3e, 0x2a, 0x6f, 0xa7, 0xbe, 0xfe, 0x59, 0x2e, 0x3f, 
  0xcb, 0xd2, 0x25, 0xba, 0xa0, 0xff, 0x98, 0x3f, 0xe5, 0x46, 0x56, 0x3d, 
  0x4a, 0x88, 0x9b, 0xbc, 0x12, 0xb6, 0x55, 0x3b, 0x24, 0xc4, 0x3a, 0x3c, 
  0x66, 0x0e, 0x10, 0xbc, 0x98, 0x4b, 0x1f, 0xbd, 0x73, 0x95, 0x1c, 0xbb, 
  0x37, 0x7f, 0x95, 0xbd, 0x15, 0xbe, 0xa2, 0x3d, 0x3d, 0x82, 0x0e, 0xbd, 
  0x89, 0x99, 0x1e, 0x3d, 0x20, 0x3c, 0x3d, 0xbe, 0x69, 0x17, 0x68, 0x3d, 
  0xaa, 0xa5, 0x66, 0xbf, 0xc9, 0x95, 0x04, 0xbb, 0x90, 0x03, 0x2c, 0x3c, 
  0xca, 0x8c, 0x06, 0x3c, 0x6e, 0xa6, 0x31, 0x3f, 0x11, 0x30, 0xbd, 0x3b, 
  0x38, 0xf5, 0x77, 0xbd, 0x22, 0xb5, 0x5c, 0x3d, 0xd0, 0x08, 0x8d, 0x3d, 
  0x1c, 0x77, 0x1f, 0x3f, 0x29, 0x4b, 0xab, 0xbe, 0xab, 0x67, 0xc3, 0x3e, 
  0x4f, 0x80, 0xc2, 0x3b, 0x4e, 0xa9, 0x8c, 0xbd, 0xee, 0x7f, 0xb5, 0x3d, 
  0xad, 0xb0, 0x20, 0xbe, 0x78, 0x31, 0x4e, 0x3f, 0x2c, 0x68, 0xcf, 0x3d, 
  0x1e, 0x68, 0x8e, 0xbb, 0xc1, 0x71, 0x65, 0xbf, 0x9e, 0x26, 0xb2, 0x3d, 
  0x40, 0x05, 0x5d, 0xbc, 0x86, 0x30, 0xe7, 0xbd, 0x00, 0xcf, 0x0a, 0x3e, 
  0x6f, 0xc7, 0x3f, 0x3e, 0x0b, 0x7c, 0xac, 0xbd, 0xc2, 0xa2, 0x11, 0xbf, 
  0x54, 0x96, 0x16, 0x3f, 0xc2, 0x20, 0xbd, 0xbe, 0x0a, 0x98, 0x0d, 0x3c, 
  0x4d, 0x70, 0x10, 0x3e, 0x42, 0x27, 0xbb, 0xbe, 0x16, 0xc2, 0x8f, 0x3e, 
  0x8f, 0x95, 0x89, 0x3c, 0xb8, 0x36, 0x02, 0x3d, 0x57, 0xb7, 0x1d, 0xbe, 
  0x10, 0x47, 0xcf, 0x3d, 0x5e, 0x93, 0x13, 0x3d, 0x36, 0xb2, 0x23, 0xbf, 
  0x4a, 0x41, 0xce, 0x3e, 0xcf, 0x76, 0x11, 0xbf, 0x2b, 0xa9, 0x02, 0xbe, 
  0x52, 0x8c, 0x28, 0xbf, 0xc3, 0x68, 0xb4, 0x3d, 0x37, 0xae, 0x0a, 0xbe, 
  0x64, 0x46, 0x9e, 0x3c, 0x00, 0xf4, 0xd9, 0x3e, 0xfd, 0x55, 0x80, 0xbe, 
  0x12, 0x81, 0x3c, 0x3e, 0x0b, 0xc1, 0x87, 0xbb, 0x80, 0x80, 0x80, 0x3f, 
  0x18, 0x7d, 0x86, 0x3a, 0xf2, 0x5a, 0x02, 0xbc, 0xfc, 0x89, 0xd7, 0xba, 
  0x2b, 0xda, 0xf3, 0xbc, 0x82, 0x80, 0xd5, 0x3c, 0x17, 0xde, 0x15, 0x3d, 
  0x1b, 0xd2, 0x0f, 0x3d, 0x02, 0x69, 0x09, 0x3e, 0x1d, 0xe9, 0x46, 0xbe, 
  0x4a, 0xaa, 0x15, 0xbd, 0x13, 0x39, 0x0b, 0xbd, 0xdb, 0xec, 0xbb, 0x3e, 
  0x74, 0x5a, 0x78, 0xbe, 0xf8, 0x3e, 0xda, 0x3f, 0x64, 0xe7, 0x1c, 0x3f, 
  0xd8, 0xbc, 0x42, 0xbd, 0xf5, 0x17, 0xbc, 0x3a, 0x66, 0x99, 0x03, 0xbb, 
  0x84, 0x93, 0x6e, 0xbc, 0xc1, 0x1e, 0x77, 0x3d, 0x81, 0x54, 0x11, 0xbd, 
  0xb8, 0x36, 0xa6, 0xbb, 0x85, 0x1f, 0x78, 0x3d, 0x06, 0xb7, 0xa6, 0x3f, 
  0xc6, 0x39, 0xed, 0x3d, 0xf3, 0xb0, 0xe3, 0xbd, 0x9b, 0xa5, 0x91, 0x3d, 
  0xcf, 0xc9, 0x4f, 0xbd, 0xc0, 0x53, 0x36, 0xbb, 0x27, 0x54, 0x8d, 0x3e, 
  0x7e, 0xcc, 0xf5, 0x3b, 0x06, 0x72, 0xff, 0xbe, 0x63, 0xa5, 0x98, 0xbc, 
  0x75, 0x35, 0xb3, 0x3a, 0xd8, 0x90, 0xc3, 0x3a, 0xdf, 0x9b, 0x82, 0xbc, 
  0xb8, 0x3c, 0x2c, 0x3b, 0x98, 0x3a, 0x49, 0x3d, 0x6c, 0xa1, 0x52, 0xbd, 
  0x63, 0xfc, 0x65, 0x3e, 0x5f, 0x69, 0x3a, 0xbe, 0x66, 0xc0, 0x9e, 0xbd, 
  0x69, 0xaf, 0x02, 0x3d, 0x2d, 0x3b, 0x39, 0xbf, 0x12, 0x7c, 0x2f, 0xbf, 
  0x87, 0x0f, 0x66, 0xbe, 0xb2, 0xe0, 0x0d, 0xbf, 0x52, 0x26, 0x81, 0xbe, 
  0x56, 0x93, 0x23, 0xbe, 0x7d, 0x1a, 0xf5, 0xbe, 0x30, 0xda, 0x3b, 0x3e, 
  0xc2, 0xeb, 0x24, 0xbe, 0xb1, 0xee, 0xcc, 0x3d, 0xf3, 0x12, 0x89, 0x3c, 
  0x2f, 0xcf, 0x47, 0x3f, 0xc2, 0x86, 0x4a, 0xbd, 0xb7, 0x12, 0xa3, 0x3c, 
  0x21, 0x0a, 0xe3, 0xbc, 0xbb, 0xb7, 0x96, 0xbb, 0xeb, 0x96, 0x05, 0xbe, 
  0x07, 0x3c, 0xfe, 0x3d, 0x3d, 0xf1, 0x21, 0x3e, 0x87, 0x54, 0xe1, 0x3b, 
  0xc7, 0xe3, 0x1a, 0xbd, 0xff, 0xb1, 0xb2, 0x3c, 0x39, 0xad, 0xc1, 0xbb, 
  0xd7, 0x93, 0xec, 0xba, 0x31, 0xe9, 0x86, 0x3e, 0xab, 0xd5, 0x86, 0xbe, 
  0xb3, 0x48, 0x3f, 0x3f, 0x36, 0x90, 0xec, 0x3a, 0xd9, 0x97, 0xe1, 0x3b, 
  0x7b, 0x90, 0x86, 0x3b, 0x65, 0x3e, 0x4f, 0xbb, 0xad, 0x85, 0x6d, 0xbb, 
  0x0e, 0x08, 0x70, 0x3e, 0x2b, 0xcc, 0x5e, 0xbe, 0x3b, 0xe4, 0x47, 0x3f, 
  0x3c, 0xd7, 0x7d, 0x3d, 0x3b, 0xaf, 0xeb, 0xbe, 0x7b, 0x78, 0x54, 0xbe, 
  0x76, 0x19, 0xae, 0xbd, 0xb6, 0xa4, 0x83, 0x3d, 0x28, 0x29, 0xde, 0x3d, 
  0xf7, 0x86, 0x59, 0xbd, 0xc7, 0xda, 0x7d, 0x3f, 0x4e, 0xa6, 0x0e, 0xbd, 
  0x7d, 0x45, 0xed, 0x3b, 0x8d, 0x3d, 0x80, 0xbc, 0xdf, 0xa6, 0x5e, 0x3c, 
  0xb9, 0x02, 0x66, 0xbc, 0x75, 0x82, 0x81, 0x3e, 0x21, 0x93, 0x5f, 0xbe, 
  0x13, 0xb4, 0x2a, 0x3f, 0x41, 0x7f, 0x12, 0xbd, 0x68, 0x0e, 0x17, 0xbf, 
  0x33, 0x8a, 0xf0, 0x3d, 0xaf, 0xe8, 0x27, 0xbe, 0xc1, 0x68, 0x28, 0x3c, 
  0xd6, 0xf4, 0xb0, 0xbe, 0xae, 0xf4, 0xca, 0x3e, 0xd2, 0x07, 0x19, 0xbe, 
  0x95, 0x4a, 0x0b, 0xbe, 0xde, 0xbc, 0xe5, 0xbe, 0xe4, 0x23, 0xab, 0x3e, 
  0x09, 0x33, 0x4e, 0xbe, 0x0e, 0xd8, 0xe1, 0xbc, 0xa9, 0x16, 0x40, 0xbf, 
  0x21, 0xbb, 0xec, 0xbe, 0x53, 0x53, 0x0c, 0xbf, 0x0c, 0xfd, 0x7e, 0x3c, 
  0x41, 0x74, 0x11, 0xbd, 0x03, 0x10, 0xc5, 0x37, 0xd1, 0xe9, 0x36, 0xbd, 
  0x65, 0xbe, 0xd5, 0x3c, 0x7e, 0xe1, 0x1f, 0xbf, 0x68, 0xce, 0xd4, 0x3e, 
  0x18, 0x2a, 0x93, 0xbf, 0x11, 0xae, 0xa0, 0x3e, 0x9e, 0xd4, 0xfc, 0xbe, 
  0x28, 0x29, 0xa0, 0xbe, 0x6c, 0x3b, 0x27, 0xbe, 0xdd, 0x4d, 0x3a, 0xbd, 
  0x58, 0x42, 0x5a, 0xbe, 0xf6, 0x70, 0xb9, 0xbe, 0x4d, 0xe4, 0x9a, 0xbe, 
  0xdc, 0x84, 0x18, 0xbe, 0xca, 0x0c, 0xb6, 0xbe, 0xfd, 0x33, 0x50, 0x3f, 
  0xa8, 0x20, 0x98, 0x3a, 0x96, 0xca, 0x06, 0xbf, 0x9d, 0x8c, 0x85, 0x3e, 
  0x50, 0x68, 0xa8, 0xbe, 0x88, 0x60, 0xaa, 0xbc, 0x91, 0x5a, 0x8d, 0xbc, 
  0xaf, 0xaf, 0xd8, 0xbb, 0xe0, 0x14, 0x54, 0xbc, 0x58, 0x53, 0x05, 0xb8, 
  0xa8, 0x64, 0xa6, 0x3b, 0xb9, 0x97, 0xed, 0xbe, 0x9f, 0x61, 0x91, 0x3e, 
  0x0f, 0x95, 0xd9, 0xbe, 0x10, 0xf7, 0xff, 0xff, 0x14, 0xf7, 0xff, 0xff, 
  0x0f, 0x00, 0x00, 0x00, 0x4d, 0x4c, 0x49, 0x52, 0x20, 0x43, 0x6f, 0x6e, 
  0x76, 0x65, 0x72, 0x74, 0x65, 0x64, 0x2e, 0x00, 0x01, 0x00, 0x00, 0x00, 
  0x14, 0x00, 0x00, 0x00, 0x00, 0x00, 0x0e, 0x00, 0x18, 0x00, 0x14, 0x00, 
  0x10, 0x00, 0x0c, 0x00, 0x08, 0x00, 0x04, 0x00, 0x0e, 0x00, 0x00, 0x00, 
  0x14, 0x00, 0x00, 0x00, 0x1c, 0x00, 0x00, 0x00, 0x5c, 0x01, 0x00, 0x00, 
  0x60, 0x01, 0x00, 0x00, 0x64, 0x01, 0x00, 0x00, 0x04, 0x00, 0x00, 0x00, 
  0x6d, 0x61, 0x69, 0x6e, 0x00, 0x00, 0x00, 0x00, 0x05, 0x00, 0x00, 0x00, 
  0x04, 0x01, 0x00, 0x00, 0xb0, 0x00, 0x00, 0x00, 0x68, 0x00, 0x00, 0x00, 
  0x34, 0x00, 0x00, 0x00, 0x10, 0x00, 0x00, 0x00, 0x00, 0x00, 0x0a, 0x00, 
  0x10, 0x00, 0x0c, 0x00, 0x08, 0x00, 0x04, 0x00, 0x0a, 0x00, 0x00, 0x00, 
  0x0c, 0x00, 0x00, 0x00, 0x10, 0x00, 0x00, 0x00, 0x01, 0x00, 0x00, 0x00, 
  0x01, 0x00, 0x00, 0x00, 0x0d, 0x00, 0x00, 0x00, 0x01, 0x00, 0x00, 0x00, 
  0x0c, 0x00, 0x00, 0x00, 0x9a, 0xff, 0xff, 0xff, 0x10, 0x00, 0x00, 0x00, 
  0x00, 0x00, 0x00, 0x08, 0x0c, 0x00, 0x00, 0x00, 0x10, 0x00, 0x00, 0x00, 
  0xc0, 0xf7, 0xff, 0xff, 0x01, 0x00, 0x00, 0x00, 0x0c, 0x00, 0x00, 0x00, 
  0x03, 0x00, 0x00, 0x00, 0x0b, 0x00, 0x00, 0x00, 0x06, 0x00, 0x00, 0x00, 
  0x04, 0x00, 0x00, 0x00, 0xca, 0xff, 0xff, 0xff, 0x10, 0x00, 0x00, 0x00, 
  0x00, 0x00, 0x00, 0x08, 0x10, 0x00, 0x00, 0x00, 0x14, 0x00, 0x00, 0x00, 
  0x6a, 0xff, 0xff, 0xff, 0x00, 0x00, 0x00, 0x01, 0x01, 0x00, 0x00, 0x00, 
  0x0b, 0x00, 0x00, 0x00, 0x03, 0x00, 0x00, 0x00, 0x0a, 0x00, 0x00, 0x00, 
  0x05, 0x00, 0x00, 0x00, 0x03, 0x00, 0x00, 0x00, 0x00, 0x00, 0x0e, 0x00, 
  0x14, 0x00, 0x00, 0x00, 0x10, 0x00, 0x0c, 0x00, 0x0b, 0x00, 0x04, 0x00, 
  0x0e, 0x00, 0x00, 0x00, 0x1c, 0x00, 0x00, 0x00, 0x00, 0x00, 0x00, 0x08, 
  0x1c, 0x00, 0x00, 0x00, 0x20, 0x00, 0x00, 0x00, 0x0c, 0x00, 0x08, 0x00, 
  0x07, 0x00, 0x00, 0x00, 0x00, 0x00, 0x06, 0x00, 0x0c, 0x00, 0x00, 0x00, 
  0x00, 0x00, 0x01, 0x01, 0x01, 0x00, 0x00, 0x00, 0x0a, 0x00, 0x00, 0x00, 
  0x03, 0x00, 0x00, 0x00, 0x09, 0x00, 0x00, 0x00, 0x08, 0x00, 0x00, 0x00, 
  0x07, 0x00, 0x00, 0x00, 0x00, 0x00, 0x0e, 0x00, 0x16, 0x00, 0x00, 0x00, 
  0x10, 0x00, 0x0c, 0x00, 0x0b, 0x00, 0x04, 0x00, 0x0e, 0x00, 0x00, 0x00, 
  0x18, 0x00, 0x00, 0x00, 0x00, 0x00, 0x00, 0x08, 0x18, 0x00, 0x00, 0x00, 
  0x1c, 0x00, 0x00, 0x00, 0x00, 0x00, 0x06, 0x00, 0x08, 0x00, 0x07, 0x00, 
  0x06, 0x00, 0x00, 0x00, 0x00, 0x00, 0x00, 0x01, 0x01, 0x00, 0x00, 0x00, 
  0x09, 0x00, 0x00, 0x00, 0x03, 0x00, 0x00, 0x00, 0x00, 0x00, 0x00, 0x00, 
  0x01, 0x00, 0x00, 0x00, 0x02, 0x00, 0x00, 0x00, 0x01, 0x00, 0x00, 0x00, 
  0x0d, 0x00, 0x00, 0x00, 0x01, 0x00, 0x00, 0x00, 0x00, 0x00, 0x00, 0x00, 
  0x0e, 0x00, 0x00, 0x00, 0x18, 0x07, 0x00, 0x00, 0xc0, 0x06, 0x00, 0x00, 
  0x6c, 0x06, 0x00, 0x00, 0x30, 0x06, 0x00, 0x00, 0xf4, 0x05, 0x00, 0x00, 
  0xb4, 0x05, 0x00, 0x00, 0x74, 0x05, 0x00, 0x00, 0x38, 0x05, 0x00, 0x00, 
  0x50, 0x03, 0x00, 0x00, 0x94, 0x02, 0x00, 0x00, 0x84, 0x01, 0x00, 0x00, 
  0xe0, 0x00, 0x00, 0x00, 0x60, 0x00, 0x00, 0x00, 0x04, 0x00, 0x00, 0x00, 
  0x36, 0xf9, 0xff, 0xff, 0x00, 0x00, 0x00, 0x01, 0x14, 0x00, 0x00, 0x00, 
  0x1c, 0x00, 0x00, 0x00, 0x1c, 0x00, 0x00, 0x00, 0x0e, 0x00, 0x00, 0x00, 
  0x34, 0x00, 0x00, 0x00, 0x02, 0x00, 0x00, 0x00, 0xff, 0xff, 0xff, 0xff, 
  0x01, 0x00, 0x00, 0x00, 0x20, 0xf9, 0xff, 0xff, 0x1b, 0x00, 0x00, 0x00, 
  0x53, 0x74, 0x61, 0x74, 0x65, 0x66, 0x75, 0x6c, 0x50, 0x61, 0x72, 0x74, 
  0x69, 0x74, 0x69, 0x6f, 0x6e, 0x65, 0x64, 0x43, 0x61, 0x6c, 0x6c, 0x5f, 
  0x31, 0x3a, 0x30, 0x00, 0x02, 0x00, 0x00, 0x00, 0x01, 0x00, 0x00, 0x00, 
  0x01, 0x00, 0x00, 0x00, 0x8e, 0xf9, 0xff, 0xff, 0x00, 0x00, 0x00, 0x01, 
  0x14, 0x00, 0x00, 0x00, 0x1c, 0x00, 0x00, 0x00, 0x1c, 0x00, 0x00, 0x00, 
  0x0d, 0x00, 0x00, 0x00, 0x58, 0x00, 0x00, 0x00, 0x02, 0x00, 0x00, 0x00, 
  0xff, 0xff, 0xff, 0xff, 0x01, 0x00, 0x00, 0x00, 0x78, 0xf9, 0xff, 0xff, 
  0x3e, 0x00, 0x00, 0x00, 0x73, 0x65, 0x71, 0x75, 0x65, 0x6e, 0x74, 0x69, 
  0x61, 0x6c, 0x5f, 0x33, 0x5f, 0x31, 0x2f, 0x64, 0x65, 0x6e, 0x73, 0x65, 
  0x5f, 0x31, 0x35, 0x5f, 0x31, 0x2f, 0x4d, 0x61, 0x74, 0x4d, 0x75, 0x6c, 
  0x3b, 0x73, 0x65, 0x71, 0x75, 0x65, 0x6e, 0x74, 0x69, 0x61, 0x6c, 0x5f, 
  0x33, 0x5f, 0x31, 0x2f, 0x64, 0x65, 0x6e, 0x73, 0x65, 0x5f, 0x31, 0x35, 
  0x5f, 0x31, 0x2f, 0x41, 0x64, 0x64, 0x00, 0x00, 0x02, 0x00, 0x00, 0x00, 
  0x01, 0x00, 0x00, 0x00, 0x01, 0x00, 0x00, 0x00, 0x0a, 0xfa, 0xff, 0xff, 
  0x00, 0x00, 0x00, 0x01, 0x14, 0x00, 0x00, 0x00, 0x1c, 0x00, 0x00, 0x00, 
  0x1c, 0x00, 0x00, 0x00, 0x0c, 0x00, 0x00, 0x00, 0x7c, 0x00, 0x00, 0x00, 
  0x02, 0x00, 0x00, 0x00, 0xff, 0xff, 0xff, 0xff, 0x10, 0x00, 0x00, 0x00, 
  0xf4, 0xf9, 0xff, 0xff, 0x61, 0x00, 0x00, 0x00, 0x73, 0x65, 0x71, 0x75, 
  0x65, 0x6e, 0x74, 0x69, 0x61, 0x6c, 0x5f, 0x33, 0x5f, 0x31, 0x2f, 0x64, 
  0x65, 0x6e, 0x73, 0x65, 0x5f, 0x31, 0x34, 0x5f, 0x31, 0x2f, 0x4d, 0x61, 
  0x74, 0x4d, 0x75, 0x6c, 0x3b, 0x73, 0x65, 0x71, 0x75, 0x65, 0x6e, 0x74, 
  0x69, 0x61, 0x6c, 0x5f, 0x33, 0x5f, 0x31, 0x2f, 0x64, 0x65, 0x6e, 0x73, 
  0x65, 0x5f, 0x31, 0x34, 0x5f, 0x31, 0x2f, 0x52, 0x65, 0x6c, 0x75, 0x3b, 
  0x73, 0x65, 0x71, 0x75, 0x65, 0x6e, 0x74, 0x69, 0x61, 0x6c, 0x5f, 0x33, 
  0x5f, 0x31, 0x2f, 0x64, 0x65, 0x6e, 0x73, 0x65, 0x5f, 0x31, 0x34, 0x5f, 
  0x31, 0x2f, 0x42, 0x69, 0x61, 0x73, 0x41, 0x64, 0x64, 0x00, 0x00, 0x00, 
  0x02, 0x00, 0x00, 0x00, 0x01, 0x00, 0x00, 0x00, 0x10, 0x00, 0x00, 0x00, 
  0xaa, 0xfa, 0xff, 0xff, 0x00, 0x00, 0x00, 0x01, 0x14, 0x00, 0x00, 0x00, 
  0x1c, 0x00, 0x00, 0x00, 0x1c, 0x00, 0x00, 0x00, 0x0b, 0x00, 0x00, 0x00, 
  0xe8, 0x00, 0x00, 0x00, 0x02, 0x00, 0x00, 0x00, 0xff, 0xff, 0xff, 0xff, 
  0x20, 0x00, 0x00, 0x00, 0x94, 0xfa, 0xff, 0xff, 0xcf, 0x00, 0x00, 0x00, 
  0x73, 0x65, 0x71, 0x75, 0x65, 0x6e, 0x74, 0x69, 0x61, 0x6c, 0x5f, 0x33, 
  0x5f, 0x31, 0x2f, 0x62, 0x61, 0x74, 0x63, 0x68, 0x5f, 0x6e, 0x6f, 0x72, 
  0x6d, 0x61, 0x6c, 0x69, 0x7a, 0x61, 0x74, 0x69, 0x6f, 0x6e, 0x5f, 0x31, 
  0x5f, 0x31, 0x2f, 0x62, 0x61, 0x74, 0x63, 0x68, 0x6e, 0x6f, 0x72, 0x6d, 
  0x2f, 0x6d, 0x75, 0x6c, 0x5f, 0x31, 0x3b, 0x73, 0x65, 0x71, 0x75, 0x65, 
  0x6e, 0x74, 0x69, 0x61, 0x6c, 0x5f, 0x33, 0x5f, 0x31, 0x2f, 0x62, 0x61, 
  0x74, 0x63, 0x68, 0x5f, 0x6e, 0x6f, 0x72, 0x6d, 0x61, 0x6c, 0x69, 0x7a, 
  0x61, 0x74, 0x69, 0x6f, 0x6e, 0x5f, 0x31, 0x5f, 0x31, 0x2f, 0x62, 0x61, 
  0x74, 0x63, 0x68, 0x6e, 0x6f, 0x72, 0x6d, 0x2f, 0x61, 0x64, 0x64, 0x5f, 
  0x31, 0x3b, 0x73, 0x65, 0x71, 0x75, 0x65, 0x6e, 0x74, 0x69, 0x61, 0x6c, 
  0x5f, 0x33, 0x5f, 0x31, 0x2f, 0x64, 0x65, 0x6e, 0x73, 0x65, 0x5f, 0x31, 
  0x33, 0x5f, 0x31, 0x2f, 0x4d, 0x61, 0x74, 0x4d, 0x75, 0x6c, 0x3b, 0x73, 
  0x65, 0x71, 0x75, 0x65, 0x6e, 0x74, 0x69, 0x61, 0x6c, 0x5f, 0x33, 0x5f, 
  0x31, 0x2f, 0x64, 0x65, 0x6e, 0x73, 0x65, 0x5f, 0x31, 0x33, 0x5f, 0x31, 
  0x2f, 0x52, 0x65, 0x6c, 0x75, 0x3b, 0x73, 0x65, 0x71, 0x75, 0x65, 0x6e, 
  0x74, 0x69, 0x61, 0x6c, 0x5f, 0x33, 0x5f, 0x31, 0x2f, 0x64, 0x65, 0x6e, 
  0x73, 0x65, 0x5f, 0x31, 0x33, 0x5f, 0x31, 0x2f, 0x42, 0x69, 0x61, 0x73, 
  0x41, 0x64, 0x64, 0x00, 0x02, 0x00, 0x00, 0x00, 0x01, 0x00, 0x00, 0x00, 
  0x20, 0x00, 0x00, 0x00, 0xb6, 0xfb, 0xff, 0xff, 0x00, 0x00, 0x00, 0x01, 
  0x14, 0x00, 0x00, 0x00, 0x1c, 0x00, 0x00, 0x00, 0x1c, 0x00, 0x00, 0x00, 
  0x0a, 0x00, 0x00, 0x00, 0x7c, 0x00, 0x00, 0x00, 0x02, 0x00, 0x00, 0x00, 
  0xff, 0xff, 0xff, 0xff, 0x40, 0x00, 0x00, 0x00, 0xa0, 0xfb, 0xff, 0xff, 
  0x61, 0x00, 0x00, 0x00, 0x73, 0x65, 0x71, 0x75, 0x65, 0x6e, 0x74, 0x69, 
  0x61, 0x6c, 0x5f, 0x33, 0x5f, 0x31, 0x2f, 0x64, 0x65, 0x6e, 0x73, 0x65, 
  0x5f, 0x31, 0x32, 0x5f, 0x31, 0x2f, 0x4d, 0x61, 0x74, 0x4d, 0x75, 0x6c, 
  0x3b, 0x73, 0x65, 0x71, 0x75, 0x65, 0x6e, 0x74, 0x69, 0x61, 0x6c, 0x5f, 
  0x33, 0x5f, 0x31, 0x2f, 0x64, 0x65, 0x6e, 0x73, 0x65, 0x5f, 0x31, 0x32, 
  0x5f, 0x31, 0x2f, 0x52, 0x65, 0x6c, 0x75, 0x3b, 0x73, 0x65, 0x71, 0x75, 
  0x65, 0x6e, 0x74, 0x69, 0x61, 0x6c, 0x5f, 0x33, 0x5f, 0x31, 0x2f, 0x64, 
  0x65, 0x6e, 0x73, 0x65, 0x5f, 0x31, 0x32, 0x5f, 0x31, 0x2f, 0x42, 0x69, 
  0x61, 0x73, 0x41, 0x64, 0x64, 0x00, 0x00, 0x00, 0x02, 0x00, 0x00, 0x00, 
  0x01, 0x00, 0x00, 0x00, 0x40, 0x00, 0x00, 0x00, 0x00, 0x00, 0x16, 0x00, 
  0x1c, 0x00, 0x18, 0x00, 0x17, 0x00, 0x10, 0x00, 0x0c, 0x00, 0x08, 0x00, 
  0x00, 0x00, 0x00, 0x00, 0x00, 0x00, 0x07, 0x00, 0x16, 0x00, 0x00, 0x00, 
  0x00, 0x00, 0x00, 0x01, 0x20, 0x00, 0x00, 0x00, 0xb4, 0x01, 0x00, 0x00, 
  0x09, 0x00, 0x00, 0x00, 0x00, 0x00, 0x00, 0x09, 0xc0, 0x01, 0x00, 0x00, 
  0x0c, 0x00, 0x0c, 0x00, 0x00, 0x00, 0x00, 0x00, 0x08, 0x00, 0x04, 0x00, 
  0x0c, 0x00, 0x00, 0x00, 0x08, 0x00, 0x00, 0x00, 0x0c, 0x01, 0x00, 0x00, 
  0x20, 0x00, 0x00, 0x00, 0x00, 0x00, 0x00, 0x00, 0x00, 0x00, 0x00, 0x00, 
  0x00, 0x00, 0x00, 0x00, 0x00, 0x00, 0x00, 0x00, 0x00, 0x00, 0x00, 0x00, 
  0x00, 0x00, 0x00, 0x00, 0x00, 0x00, 0x00, 0x00, 0x00, 0x00, 0x00, 0x00, 
  0x00, 0x00, 0x00, 0x00, 0x00, 0x00, 0x00, 0x00, 0x00, 0x00, 0x00, 0x00, 
  0x00, 0x00, 0x00, 0x00, 0x00, 0x00, 0x00, 0x00, 0x00, 0x00, 0x00, 0x00, 
  0x00, 0x00, 0x00, 0x00, 0x00, 0x00, 0x00, 0x00, 0x00, 0x00, 0x00, 0x00, 
  0x00, 0x00, 0x00, 0x00, 0x00, 0x00, 0x00, 0x00, 0x00, 0x00, 0x00, 0x00, 
  0x00, 0x00, 0x00, 0x00, 0x00, 0x00, 0x00, 0x00, 0x00, 0x00, 0x00, 0x00, 
  0x00, 0x00, 0x00, 0x00, 0x00, 0x00, 0x00, 0x00, 0x00, 0x00, 0x00, 0x00, 
  0x00, 0x00, 0x00, 0x00, 0x00, 0x00, 0x00, 0x00, 0x00, 0x00, 0x00, 0x00, 
  0x00, 0x00, 0x00, 0x00, 0x00, 0x00, 0x00, 0x00, 0x00, 0x00, 0x00, 0x00, 
  0x00, 0x00, 0x00, 0x00, 0x00, 0x00, 0x00, 0x00, 0x00, 0x00, 0x00, 0x00, 
  0x00, 0x00, 0x00, 0x00, 0x00, 0x00, 0x00, 0x00, 0x00, 0x00, 0x00, 0x00, 
  0x00, 0x00, 0x00, 0x00, 0x00, 0x00, 0x00, 0x00, 0x00, 0x00, 0x00, 0x00, 
  0x00, 0x00, 0x00, 0x00, 0x00, 0x00, 0x00, 0x00, 0x00, 0x00, 0x00, 0x00, 
  0x00, 0x00, 0x00, 0x00, 0x00, 0x00, 0x00, 0x00, 0x00, 0x00, 0x00, 0x00, 
  0x00, 0x00, 0x00, 0x00, 0x00, 0x00, 0x00, 0x00, 0x00, 0x00, 0x00, 0x00, 
  0x00, 0x00, 0x00, 0x00, 0x00, 0x00, 0x00, 0x00, 0x00, 0x00, 0x00, 0x00, 
  0x00, 0x00, 0x00, 0x00, 0x00, 0x00, 0x00, 0x00, 0x00, 0x00, 0x00, 0x00, 
  0x00, 0x00, 0x00, 0x00, 0x00, 0x00, 0x00, 0x00, 0x00, 0x00, 0x00, 0x00, 
  0x00, 0x00, 0x00, 0x00, 0x00, 0x00, 0x00, 0x00, 0x00, 0x00, 0x00, 0x00, 
  0x00, 0x00, 0x00, 0x00, 0x00, 0x00, 0x00, 0x00, 0x00, 0x00, 0x00, 0x00, 
  0x20, 0x00, 0x00, 0x00, 0x19, 0xc3, 0xe2, 0x3d, 0xa1, 0xf6, 0x93, 0x3d, 
  0x7f, 0xd4, 0x3f, 0x3e, 0x9a, 0xcb, 0xac, 0x3d, 0x6d, 0xaa, 0x5b, 0x3e, 
  0xdc, 0x27, 0xa5, 0x3d, 0xf2, 0x5c, 0xea, 0x3d, 0x7b, 0x01, 0xd2, 0x3d, 
  0x88, 0x40, 0xa9, 0x3d, 0x61, 0x16, 0xcd, 0x3d, 0x14, 0x91, 0x93, 0x3d, 
  0x82, 0x7e, 0x26, 0x3e, 0x37, 0xa3, 0xc0, 0x3d, 0x64, 0xf2, 0x57, 0x3d, 
  0x1f, 0x9c, 0x62, 0x3e, 0x9a, 0x81, 0xc0, 0x3d, 0x31, 0x6d, 0x30, 0x3e, 
  0x90, 0xc7, 0xcc, 0x3d, 0x2c, 0x1c, 0xa2, 0x3d, 0x08, 0xa6, 0x6a, 0x3e, 
  0x16, 0x6b, 0xae, 0x3d, 0x38, 0x53, 0x06, 0x3e, 0xa6, 0xa0, 0x73, 0x3d, 
  0xad, 0xb8, 0xcb, 0x3d, 0xa1, 0xd5, 0x67, 0x3e, 0xe6, 0x7d, 0xb4, 0x3d, 
  0x0f, 0x3a, 0xb6, 0x3d, 0xa6, 0xe1, 0x0f, 0x3e, 0x64, 0x92, 0x8d, 0x3d, 
  0x1a, 0x2c, 0x53, 0x3e, 0xe9, 0x32, 0xeb, 0x3d, 0x66, 0xb3, 0x8d, 0x3d, 
  0x11, 0x00, 0x00, 0x00, 0x74, 0x66, 0x6c, 0x2e, 0x70, 0x73, 0x65, 0x75, 
  0x64, 0x6f, 0x5f, 0x71, 0x63, 0x6f, 0x6e, 0x73, 0x74, 0x00, 0x00, 0x00, 
  0x02, 0x00, 0x00, 0x00, 0x20, 0x00, 0x00, 0x00, 0x40, 0x00, 0x00, 0x00, 
  0xa6, 0xfe, 0xff, 0xff, 0x00, 0x00, 0x00, 0x01, 0x10, 0x00, 0x00, 0x00, 
  0x10, 0x00, 0x00, 0x00, 0x08, 0x00, 0x00, 0x00, 0x1c, 0x00, 0x00, 0x00, 
  0x2c, 0xfe, 0xff, 0xff, 0x0f, 0x00, 0x00, 0x00, 0x61, 0x72, 0x69, 0x74, 
  0x68, 0x2e, 0x63, 0x6f, 0x6e, 0x73, 0x74, 0x61, 0x6e, 0x74, 0x36, 0x00, 
  0x01, 0x00, 0x00, 0x00, 0x20, 0x00, 0x00, 0x00, 0xde, 0xfe, 0xff, 0xff, 
  0x00, 0x00, 0x00, 0x01, 0x10, 0x00, 0x00, 0x00, 0x10, 0x00, 0x00, 0x00, 
  0x07, 0x00, 0x00, 0x00, 0x1c, 0x00, 0x00, 0x00, 0x64, 0xfe, 0xff, 0xff, 
  0x0f, 0x00, 0x00, 0x00, 0x61, 0x72, 0x69, 0x74, 0x68, 0x2e, 0x63, 0x6f, 
  0x6e, 0x73, 0x74, 0x61, 0x6e, 0x74, 0x35, 0x00, 0x02, 0x00, 0x00, 0x00, 
  0x01, 0x00, 0x00, 0x00, 0x10, 0x00, 0x00, 0x00, 0x1a, 0xff, 0xff, 0xff, 
  0x00, 0x00, 0x00, 0x01, 0x10, 0x00, 0x00, 0x00, 0x10, 0x00, 0x00, 0x00, 
  0x06, 0x00, 0x00, 0x00, 0x1c, 0x00, 0x00, 0x00, 0xa0, 0xfe, 0xff, 0xff, 
  0x0f, 0x00, 0x00, 0x00, 0x61, 0x72, 0x69, 0x74, 0x68, 0x2e, 0x63, 0x6f, 
  0x6e, 0x73, 0x74, 0x61, 0x6e, 0x74, 0x34, 0x00, 0x02, 0x00, 0x00, 0x00, 
  0x10, 0x00, 0x00, 0x00, 0x20, 0x00, 0x00, 0x00, 0x56, 0xff, 0xff, 0xff, 
  0x00, 0x00, 0x00, 0x01, 0x10, 0x00, 0x00, 0x00, 0x10, 0x00, 0x00, 0x00, 
  0x05, 0x00, 0x00, 0x00, 0x1c, 0x00, 0x00, 0x00, 0xdc, 0xfe, 0xff, 0xff, 
  0x0f, 0x00, 0x00, 0x00, 0x61, 0x72, 0x69, 0x74, 0x68, 0x2e, 0x63, 0x6f, 
  0x6e, 0x73, 0x74, 0x61, 0x6e, 0x74, 0x33, 0x00, 0x01, 0x00, 0x00, 0x00, 
  0x01, 0x00, 0x00, 0x00, 0x8e, 0xff, 0xff, 0xff, 0x00, 0x00, 0x00, 0x01, 
  0x10, 0x00, 0x00, 0x00, 0x10, 0x00, 0x00, 0x00, 0x04, 0x00, 0x00, 0x00, 
  0x1c, 0x00, 0x00, 0x00, 0x14, 0xff, 0xff, 0xff, 0x0f, 0x00, 0x00, 0x00, 
  0x61, 0x72, 0x69, 0x74, 0x68, 0x2e, 0x63, 0x6f, 0x6e, 0x73, 0x74, 0x61, 
  0x6e, 0x74, 0x32, 0x00, 0x01, 0x00, 0x00, 0x00, 0x10, 0x00, 0x00, 0x00, 
  0xc6, 0xff, 0xff, 0xff, 0x00, 0x00, 0x00, 0x01, 0x10, 0x00, 0x00, 0x00, 
  0x10, 0x00, 0x00, 0x00, 0x03, 0x00, 0x00, 0x00, 0x1c, 0x00, 0x00, 0x00, 
  0x4c, 0xff, 0xff, 0xff, 0x0f, 0x00, 0x00, 0x00, 0x61, 0x72, 0x69, 0x74, 
  0x68, 0x2e, 0x63, 0x6f, 0x6e, 0x73, 0x74, 0x61, 0x6e, 0x74, 0x31, 0x00, 
  0x01, 0x00, 0x00, 0x00, 0x40, 0x00, 0x00, 0x00, 0x00, 0x00, 0x16, 0x00, 
  0x18, 0x00, 0x14, 0x00, 0x00, 0x00, 0x10, 0x00, 0x0c, 0x00, 0x08, 0x00, 
  0x00, 0x00, 0x00, 0x00, 0x00, 0x00, 0x07, 0x00, 0x16, 0x00, 0x00, 0x00, 
  0x00, 0x00, 0x00, 0x01, 0x10, 0x00, 0x00, 0x00, 0x10, 0x00, 0x00, 0x00, 
  0x02, 0x00, 0x00, 0x00, 0x1c, 0x00, 0x00, 0x00, 0x9c, 0xff, 0xff, 0xff, 
  0x0e, 0x00, 0x00, 0x00, 0x61, 0x72, 0x69, 0x74, 0x68, 0x2e, 0x63, 0x6f, 
  0x6e, 0x73, 0x74, 0x61, 0x6e, 0x74, 0x00, 0x00, 0x02, 0x00, 0x00, 0x00, 
  0x40, 0x00, 0x00, 0x00, 0x08, 0x00, 0x00, 0x00, 0x00, 0x00, 0x16, 0x00, 
  0x1c, 0x00, 0x18, 0x00, 0x00, 0x00, 0x14, 0x00, 0x10, 0x00, 0x0c, 0x00, 
  0x00, 0x00, 0x00, 0x00, 0x08, 0x00, 0x07, 0x00, 0x16, 0x00, 0x00, 0x00, 
  0x00, 0x00, 0x00, 0x01, 0x14, 0x00, 0x00, 0x00, 0x20, 0x00, 0x00, 0x00, 
  0x20, 0x00, 0x00, 0x00, 0x01, 0x00, 0x00, 0x00, 0x3c, 0x00, 0x00, 0x00, 
  0x02, 0x00, 0x00, 0x00, 0xff, 0xff, 0xff, 0xff, 0x08, 0x00, 0x00, 0x00, 
  0x04, 0x00, 0x04, 0x00, 0x04, 0x00, 0x00, 0x00, 0x1f, 0x00, 0x00, 0x00, 
  0x73, 0x65, 0x72, 0x76, 0x69, 0x6e, 0x67, 0x5f, 0x64, 0x65, 0x66, 0x61, 
  0x75, 0x6c, 0x74, 0x5f, 0x69, 0x6e, 0x70, 0x75, 0x74, 0x5f, 0x6c, 0x61, 
  0x79, 0x65, 0x72, 0x5f, 0x33, 0x3a, 0x30, 0x00, 0x02, 0x00, 0x00, 0x00, 
  0x01, 0x00, 0x00, 0x00, 0x08, 0x00, 0x00, 0x00, 0x02, 0x00, 0x00, 0x00, 
  0x2c, 0x00, 0x00, 0x00, 0x10, 0x00, 0x00, 0x00, 0x0c, 0x00, 0x0c, 0x00, 
  0x0b, 0x00, 0x00, 0x00, 0x00, 0x00, 0x04, 0x00, 0x0c, 0x00, 0x00, 0x00, 
  0x0e, 0x00, 0x00, 0x00, 0x00, 0x00, 0x00, 0x0e, 0x0c, 0x00, 0x10, 0x00, 
  0x0f, 0x00, 0x00, 0x00, 0x08, 0x00, 0x04, 0x00, 0x0c, 0x00, 0x00, 0x00, 
  0x09, 0x00, 0x00, 0x00, 0x0c, 0x00, 0x00, 0x00, 0x00, 0x00, 0x00, 0x09, 
  
};
const int medical_model_len = 9672;

#endif // MODEL_DATA_H