#ifndef MODEL_DATA_H
#define MODEL_DATA_H

#if defined(__has_attribute) && __has_attribute(aligned)
#define DATA_ALIGN_ATTRIBUTE __attribute__((aligned(4)))
#else
#define DATA_ALIGN_ATTRIBUTE
#endif

const unsigned char medical_model[] DATA_ALIGN_ATTRIBUTE = {
  0x20, 0x00, 0x00, 0x00, 0x54, 0x46, 0x4c, 0x33, 0x00, 0x00, 0x00, 0x00, 
  0x14, 0x00, 0x20, 0x00, 0x1c, 0x00, 0x18, 0x00, 0x14, 0x00, 0x10, 0x00, 
  0x0c, 0x00, 0x00, 0x00, 0x08, 0x00, 0x04, 0x00, 0x14, 0x00, 0x00, 0x00, 
  0x1c, 0x00, 0x00, 0x00, 0x8c, 0x00, 0x00, 0x00, 0xe4, 0x00, 0x00, 0x00, 
  0x38, 0x1c, 0x00, 0x00, 0x48, 0x1c, 0x00, 0x00, 0x48, 0x25, 0x00, 0x00, 
  0x03, 0x00, 0x00, 0x00, 0x01, 0x00, 0x00, 0x00, 0x04, 0x00, 0x00, 0x00, 
  0x76, 0xe3, 0xff, 0xff, 0x0c, 0x00, 0x00, 0x00, 0x1c, 0x00, 0x00, 0x00, 
  0x3c, 0x00, 0x00, 0x00, 0x0f, 0x00, 0x00, 0x00, 0x73, 0x65, 0x72, 0x76, 
  0x69, 0x6e, 0x67, 0x5f, 0x64, 0x65, 0x66, 0x61, 0x75, 0x6c, 0x74, 0x00, 
  0x01, 0x00, 0x00, 0x00, 0x04, 0x00, 0x00, 0x00, 0x90, 0xff, 0xff, 0xff, 
  0x0d, 0x00, 0x00, 0x00, 0x04, 0x00, 0x00, 0x00, 0x08, 0x00, 0x00, 0x00, 
  0x6f, 0x75, 0x74, 0x70, 0x75, 0x74, 0x5f, 0x30, 0x00, 0x00, 0x00, 0x00, 
  0x01, 0x00, 0x00, 0x00, 0x04, 0x00, 0x00, 0x00, 0x4a, 0xec, 0xff, 0xff, 
  0x04, 0x00, 0x00, 0x00, 0x0d, 0x00, 0x00, 0x00, 0x69, 0x6e, 0x70, 0x75, 
  0x74, 0x5f, 0x6c, 0x61, 0x79, 0x65, 0x72, 0x5f, 0x31, 0x00, 0x00, 0x00, 
  0x02, 0x00, 0x00, 0x00, 0x34, 0x00, 0x00, 0x00, 0x04, 0x00, 0x00, 0x00, 
  0xdc, 0xff, 0xff, 0xff, 0x10, 0x00, 0x00, 0x00, 0x04, 0x00, 0x00, 0x00, 
  0x13, 0x00, 0x00, 0x00, 0x43, 0x4f, 0x4e, 0x56, 0x45, 0x52, 0x53, 0x49, 
  0x4f, 0x4e, 0x5f, 0x4d, 0x45, 0x54, 0x41, 0x44, 0x41, 0x54, 0x41, 0x00, 
  0x08, 0x00, 0x0c, 0x00, 0x08, 0x00, 0x04, 0x00, 0x08, 0x00, 0x00, 0x00, 
  0x0f, 0x00, 0x00, 0x00, 0x04, 0x00, 0x00, 0x00, 0x13, 0x00, 0x00, 0x00, 
  0x6d, 0x69, 0x6e, 0x5f, 0x72, 0x75, 0x6e, 0x74, 0x69, 0x6d, 0x65, 0x5f, 
  0x76, 0x65, 0x72, 0x73, 0x69, 0x6f, 0x6e, 0x00, 0x11, 0x00, 0x00, 0x00, 
  0x50, 0x1b, 0x00, 0x00, 0x48, 0x1b, 0x00, 0x00, 0x38, 0x13, 0x00, 0x00, 
  0x20, 0x12, 0x00, 0x00, 0xd0, 0x11, 0x00, 0x00, 0xbc, 0x11, 0x00, 0x00, 
  0xac, 0x09, 0x00, 0x00, 0x5c, 0x09, 0x00, 0x00, 0xcc, 0x08, 0x00, 0x00, 
  0xbc, 0x00, 0x00, 0x00, 0xb4, 0x00, 0x00, 0x00, 0xac, 0x00, 0x00, 0x00, 
  0xa4, 0x00, 0x00, 0x00, 0x9c, 0x00, 0x00, 0x00, 0x94, 0x00, 0x00, 0x00, 
  0x74, 0x00, 0x00, 0x00, 0x04, 0x00, 0x00, 0x00, 0x0a, 0xed, 0xff, 0xff, 
  0x04, 0x00, 0x00, 0x00, 0x60, 0x00, 0x00, 0x00, 0x0c, 0x00, 0x00, 0x00, 
  0x08, 0x00, 0x0e, 0x00, 0x08, 0x00, 0x04, 0x00, 0x08, 0x00, 0x00, 0x00, 
  0x10, 0x00, 0x00, 0x00, 0x28, 0x00, 0x00, 0x00, 0x00, 0x00, 0x06, 0x00, 
  0x08, 0x00, 0x04, 0x00, 0x06, 0x00, 0x00, 0x00, 0x04, 0x00, 0x00, 0x00, 
  0x01, 0x00, 0x00, 0x00, 0xea, 0x03, 0x00, 0x00, 0x0c, 0x00, 0x18, 0x00, 
  0x14, 0x00, 0x10, 0x00, 0x0c, 0x00, 0x04, 0x00, 0x0c, 0x00, 0x00, 0x00, 
  0x5a, 0xc0, 0x30, 0x68, 0x51, 0x95, 0xda, 0x2f, 0x02, 0x00, 0x00, 0x00, 
  0x02, 0x00, 0x00, 0x00, 0x04, 0x00, 0x00, 0x00, 0x06, 0x00, 0x00, 0x00, 
  0x32, 0x2e, 0x31, 0x39, 0x2e, 0x30, 0x00, 0x00, 0x76, 0xed, 0xff, 0xff, 
  0x04, 0x00, 0x00, 0x00, 0x10, 0x00, 0x00, 0x00, 0x32, 0x2e, 0x31, 0x37, 
  0x2e, 0x30, 0x00, 0x00, 0x00, 0x00, 0x00, 0x00, 0x00, 0x00, 0x00, 0x00, 
  0x98, 0xdc, 0xff, 0xff, 0x9c, 0xdc, 0xff, 0xff, 0xa0, 0xdc, 0xff, 0xff, 
  0xa4, 0xdc, 0xff, 0xff, 0xa8, 0xdc, 0xff, 0xff, 0xa6, 0xed, 0xff, 0xff, 
  0x04, 0x00, 0x00, 0x00, 0x00, 0x08, 0x00, 0x00, 0x00, 0x00, 0x00, 0x7f, 
  0x01, 0x00, 0xfe, 0x00, 0x03, 0x00, 0xfc, 0x11, 0xff, 0xfc, 0xff, 0x00, 
  0xfe, 0xfb, 0x18, 0x00, 0x1b, 0x16, 0x00, 0xee, 0x00, 0x00, 0x18, 0x00, 
  0xff, 0xfd, 0x04, 0x00, 0xff, 0x02, 0x01, 0xfe, 0xff, 0xe3, 0x00, 0x00, 
  0xfe, 0x00, 0x8b, 0xff, 0xee, 0x00, 0x00, 0x00, 0x00, 0xff, 0x00, 0xe6, 
  0x01, 0x00, 0x00, 0x00, 0x00, 0xfa, 0x00, 0x11, 0x0a, 0x04, 0x05, 0x00, 
  0x00, 0x00, 0x00, 0x7f, 0x00, 0x00, 0x00, 0x00, 0x00, 0x01, 0xff, 0x01, 
  0x00, 0xff, 0x00, 0x00, 0xfe, 0xfb, 0x05, 0xff, 0x06, 0x01, 0x00, 0x23, 
  0x00, 0x00, 0xfe, 0x00, 0x00, 0xff, 0xfe, 0xff, 0x00, 0xff, 0x00, 0x00, 
  0x00, 0x1c, 0x00, 0x00, 0x00, 0x00, 0xe8, 0x00, 0x11, 0x00, 0x00, 0x00, 
  0xff, 0x00, 0x00, 0xff, 0xff, 0x00, 0x00, 0xff, 0x00, 0xfd, 0x00, 0x00, 
  0x04, 0xfd, 0x03, 0x00, 0x01, 0x00, 0x00, 0x21, 0xff, 0x00, 0x01, 0x00, 
  0x02, 0xff, 0x05, 0x0c, 0x00, 0x01, 0x00, 0x00, 0xfd, 0x01, 0x10, 0x00, 
  0x07, 0x0f, 0x00, 0xf0, 0x00, 0x00, 0x7f, 0x00, 0x00, 0x03, 0x06, 0x00, 
  0x00, 0x00, 0x00, 0xff, 0x01, 0x4e, 0x00, 0x00, 0x00, 0x01, 0x31, 0x00, 
  0xd4, 0x00, 0x00, 0x00, 0x00, 0x01, 0x00, 0xfa, 0x01, 0x00, 0x00, 0x01, 
  0x00, 0xfd, 0x00, 0x20, 0x09, 0x02, 0x06, 0x00, 0x00, 0x01, 0x00, 0xb7, 
  0x00, 0x00, 0x00, 0x00, 0xff, 0x02, 0xfc, 0x12, 0x00, 0xfe, 0x00, 0x00, 
  0x08, 0xf6, 0x18, 0xff, 0x12, 0x16, 0xff, 0x09, 0x00, 0x00, 0xfd, 0x00, 
  0x00, 0xfb, 0xf6, 0x00, 0xfe, 0xfe, 0x01, 0x00, 0xff, 0x5e, 0x00, 0x00, 
  0xff, 0x00, 0x81, 0x01, 0xa0, 0xfe, 0x00, 0x00, 0x00, 0xff, 0x00, 0xdd, 
  0x00, 0x00, 0x01, 0xfe, 0xff, 0x0d, 0x01, 0x06, 0xfb, 0xe8, 0xfe, 0x00, 
  0x00, 0x00, 0x00, 0x22, 0x01, 0x00, 0xfe, 0x00, 0x0d, 0x03, 0xfa, 0x03, 
  0xff, 0xf5, 0xff, 0x00, 0x02, 0xf6, 0xfc, 0x04, 0xf5, 0xfb, 0x00, 0x01, 
  0x02, 0x00, 0x81, 0x00, 0xff, 0x01, 0xf4, 0x00, 0x00, 0x02, 0x03, 0x00, 
  0x02, 0xa6, 0x00, 0x00, 0xf9, 0x00, 0x2a, 0x01, 0xc3, 0x00, 0x00, 0x03, 
  0xfe, 0xff, 0xff, 0xfa, 0x00, 0x00, 0x06, 0xfc, 0xfd, 0x02, 0x00, 0xb2, 
  0x22, 0x02, 0xf0, 0x00, 0x00, 0x00, 0x00, 0x01, 0x01, 0x00, 0x05, 0x00, 
  0xfc, 0x00, 0x04, 0x09, 0x01, 0x04, 0x00, 0x00, 0x04, 0x00, 0x05, 0xfe, 
  0x03, 0x06, 0x02, 0x0a, 0xff, 0x00, 0xea, 0x00, 0x00, 0x06, 0x06, 0x00, 
  0x00, 0x05, 0x00, 0x00, 0x02, 0x7f, 0x01, 0xff, 0x00, 0xff, 0x10, 0x02, 
  0x7c, 0xfe, 0x00, 0xff, 0x00, 0x01, 0x01, 0xf1, 0x01, 0x00, 0x00, 0x03, 
  0x00, 0x04, 0x00, 0xf7, 0xfa, 0xf8, 0xf9, 0x01, 0x00, 0x00, 0x00, 0x7f, 
  0x00, 0x00, 0xfe, 0x00, 0xfd, 0x01, 0xfd, 0xfe, 0x00, 0xff, 0x00, 0x00, 
  0x07, 0xfd, 0xfc, 0x00, 0xfd, 0xfd, 0x00, 0xe4, 0x00, 0x00, 0xf5, 0x00, 
  0x00, 0x02, 0x00, 0x00, 0x00, 0x01, 0x00, 0x00, 0x00, 0xad, 0x00, 0x00, 
  0x00, 0x00, 0x0d, 0x00, 0x05, 0xff, 0x00, 0x00, 0x00, 0x01, 0x00, 0x0e, 
  0x00, 0x00, 0x00, 0xff, 0x00, 0x0b, 0x00, 0xfc, 0xfc, 0xf3, 0x00, 0x00, 
  0x01, 0xfe, 0x00, 0x35, 0x00, 0x00, 0xf7, 0x00, 0x23, 0x06, 0xe2, 0xfa, 
  0x00, 0xf6, 0xff, 0x00, 0x04, 0xf9, 0xe4, 0xfd, 0xeb, 0x07, 0xfe, 0xf2, 
  0xff, 0xff, 0x04, 0xff, 0xff, 0xe9, 0xee, 0x00, 0xff, 0xf8, 0x00, 0xfd, 
  0x01, 0xb4, 0xfe, 0xff, 0xf9, 0x00, 0x45, 0xfe, 0x18, 0x01, 0x00, 0x02, 
  0xff, 0xff, 0xff, 0xdd, 0xff, 0x00, 0x02, 0xf9, 0xfe, 0xf9, 0x00, 0x81, 
  0x59, 0x06, 0xea, 0x00, 0x00, 0x01, 0x00, 0xdc, 0xff, 0x00, 0x0b, 0x00, 
  0xbf, 0xf7, 0x3f, 0x13, 0xff, 0xfe, 0x00, 0x00, 0xfb, 0xf8, 0x0d, 0x01, 
  0x19, 0x16, 0xfc, 0xfe, 0x00, 0x00, 0x1f, 0x00, 0x00, 0x12, 0x26, 0x00, 
  0xfe, 0xfb, 0x00, 0xfe, 0xfd, 0x2a, 0x01, 0x00, 0x00, 0x00, 0x99, 0xfe, 
  0x1c, 0x01, 0x00, 0x01, 0xff, 0xfe, 0xff, 0xaf, 0x00, 0x00, 0x01, 0x09, 
  0x00, 0xff, 0x01, 0xf3, 0x81, 0x0e, 0xff, 0xff, 0x01, 0xff, 0x00, 0x6c, 
  0x01, 0x00, 0xf2, 0x00, 0x23, 0x05, 0xe0, 0x00, 0x00, 0xfd, 0x00, 0x00, 
  0x04, 0xfc, 0x06, 0xfb, 0x03, 0x06, 0x02, 0x1b, 0x00, 0x01, 0x2b, 0x00, 
  0x00, 0xe6, 0xe6, 0x00, 0xff, 0xf3, 0x00, 0x00, 0xff, 0x7f, 0x00, 0x00, 
  0xff, 0x00, 0xf4, 0x01, 0x1c, 0x00, 0x00, 0x01, 0x00, 0x00, 0x00, 0x04, 
  0x00, 0x00, 0xff, 0xfa, 0x00, 0xff, 0xff, 0xc1, 0x54, 0x01, 0xf9, 0x00, 
  0x00, 0x00, 0x00, 0xe7, 0x00, 0x00, 0x00, 0x00, 0x05, 0x01, 0x03, 0x02, 
  0x00, 0xff, 0x00, 0x00, 0xff, 0x00, 0x03, 0x01, 0x02, 0x04, 0x01, 0xeb, 
  0xff, 0x00, 0x2c, 0x00, 0x00, 0x02, 0x01, 0x00, 0x00, 0x03, 0x00, 0x00, 
  0x01, 0x15, 0x00, 0x00, 0x00, 0x00, 0x07, 0x00, 0x7f, 0x00, 0x00, 0x00, 
  0x00, 0x00, 0x00, 0xff, 0x00, 0x00, 0x00, 0xff, 0x00, 0xfe, 0x00, 0x1c, 
  0x0b, 0xff, 0x00, 0x00, 0x01, 0x01, 0x00, 0x43, 0x01, 0xff, 0xfc, 0x00, 
  0x0d, 0x02, 0x03, 0xf4, 0xff, 0xf3, 0xff, 0x00, 0xfe, 0x05, 0xf5, 0xf3, 
  0xe5, 0xf4, 0xff, 0xf8, 0xff, 0x00, 0x27, 0x00, 0x00, 0xf8, 0xfe, 0xff, 
  0x01, 0xff, 0x01, 0x01, 0x00, 0x81, 0x00, 0xfe, 0x00, 0xff, 0x5e, 0xff, 
  0xc9, 0x01, 0x00, 0xfe, 0xff, 0x02, 0xfe, 0x04, 0xff, 0x00, 0xfe, 0xfa, 
  0x00, 0x00, 0xff, 0x0b, 0x20, 0x08, 0xdd, 0xff, 0xfe, 0xff, 0x00, 0xc6, 
  0x01, 0x00, 0xf1, 0x00, 0x18, 0x06, 0xf0, 0xfd, 0xfe, 0xf4, 0xff, 0x00, 
  0xfd, 0x06, 0xe8, 0xfe, 0xd7, 0xfb, 0x01, 0xf3, 0xff, 0x00, 0x58, 0x00, 
  0xff, 0xef, 0xec, 0xff, 0x01, 0xf3, 0xfb, 0xfe, 0x00, 0xde, 0x00, 0x00, 
  0x00, 0xfe, 0x7f, 0xff, 0xe7, 0x01, 0x00, 0xfc, 0xfd, 0x00, 0x00, 0xe0, 
  0xff, 0x00, 0xfc, 0xfb, 0xff, 0x03, 0xff, 0x2b, 0x4d, 0x0f, 0x00, 0xff, 
  0x00, 0x00, 0x00, 0xe3, 0x01, 0x00, 0xfc, 0x00, 0x06, 0x01, 0x07, 0x11, 
  0x00, 0xfd, 0x00, 0x00, 0xf9, 0xf3, 0x1d, 0xff, 0x15, 0x0d, 0x00, 0x31, 
  0x00, 0x00, 0x0c, 0x00, 0xff, 0x03, 0x02, 0xff, 0xfe, 0xfe, 0x01, 0x00, 
  0x00, 0x01, 0x00, 0xff, 0xff, 0x00, 0x81, 0x00, 0x50, 0x00, 0x00, 0x00, 
  0xff, 0xff, 0x00, 0xd0, 0xff, 0x00, 0x01, 0xff, 0x00, 0xfd, 0x00, 0xfd, 
  0xff, 0xfb, 0x00, 0x00, 0x00, 0x00, 0x00, 0x7f, 0x00, 0x00, 0xfe, 0x00, 
  0x0d, 0x05, 0xfd, 0xfb, 0x00, 0xec, 0xff, 0x00, 0x05, 0x04, 0x00, 0xf1, 
  0xef, 0x01, 0xfe, 0xf1, 0x00, 0x00, 0x4e, 0x00, 0x00, 0x00, 0xfb, 0x00, 
  0xff, 0xe6, 0x02, 0xff, 0x00, 0x8b, 0x02, 0x00, 0x00, 0x00, 0x1e, 0xff, 
  0x91, 0x00, 0x00, 0xff, 0x00, 0x00, 0xfd, 0xf2, 0xfe, 0x00, 0xff, 0xf9, 
  0x00, 0xfb, 0xff, 0xe2, 0x1f, 0x0c, 0xe8, 0x00, 0x00, 0xff, 0x00, 0x03, 
  0x00, 0x00, 0xf6, 0x00, 0x41, 0x06, 0xd9, 0xf4, 0xff, 0xf8, 0xff, 0x00, 
  0x03, 0x07, 0xfd, 0x03, 0xee, 0xf4, 0x00, 0xf0, 0x00, 0x00, 0x1e, 0x00, 
  0xff, 0xde, 0xdd, 0x00, 0xff, 0xe5, 0xff, 0x00, 0xff, 0x96, 0x00, 0x00, 
  0x01, 0x00, 0x3e, 0xff, 0xc3, 0x00, 0x00, 0x01, 0xff, 0x00, 0xff, 0xde, 
  0xff, 0x00, 0x01, 0xf8, 0xff, 0xfd, 0x01, 0xbb, 0x7f, 0x05, 0xee, 0x00, 
  0x00, 0x00, 0x00, 0x81, 0x00, 0x00, 0xff, 0x00, 0x05, 0x03, 0xfb, 0x00, 
  0x00, 0xfd, 0x00, 0x00, 0x00, 0xf6, 0xfc, 0x01, 0xfd, 0xfd, 0x00, 0xf2, 
  0x00, 0x00, 0x13, 0x00, 0x00, 0xfc, 0xfd, 0x00, 0xfe, 0xfc, 0x00, 0x01, 
  0x00, 0xd1, 0x00, 0x00, 0x00, 0x00, 0x23, 0x01, 0xbc, 0x00, 0x00, 0x00, 
  0xff, 0x00, 0x00, 0xd8, 0xfd, 0x00, 0x00, 0xfe, 0xff, 0xff, 0x00, 0xfd, 
  0x1d, 0x07, 0x1a, 0x00, 0x00, 0x01, 0x00, 0x0a, 0x00, 0x00, 0x03, 0x00, 
  0x00, 0x00, 0xfe, 0x02, 0x00, 0xfb, 0x00, 0x00, 0x02, 0xee, 0x04, 0x0a, 
  0x02, 0xfe, 0xff, 0xfb, 0x00, 0x00, 0x81, 0x00, 0xfe, 0x04, 0x02, 0xff, 
  0x00, 0x03, 0x04, 0xff, 0x00, 0xb2, 0x00, 0x00, 0xff, 0xff, 0x11, 0x01, 
  0xfb, 0x00, 0x00, 0x01, 0xff, 0x01, 0x00, 0xf0, 0xff, 0x00, 0x05, 0x01, 
  0x00, 0xff, 0x00, 0x02, 0x03, 0xfb, 0xfc, 0x00, 0x00, 0x00, 0x00, 0x09, 
  0x00, 0x00, 0x00, 0x00, 0x01, 0x01, 0xfc, 0x02, 0x00, 0xfd, 0x00, 0x00, 
  0x00, 0xfe, 0x04, 0x02, 0x03, 0x02, 0x01, 0xee, 0xff, 0x00, 0x70, 0x00, 
  0x00, 0x00, 0xfe, 0x00, 0x01, 0x03, 0xff, 0xff, 0x01, 0xd5, 0x00, 0x00, 
  0xff, 0x00, 0x04, 0x00, 0x7f, 0x00, 0x00, 0xff, 0xff, 0x00, 0x00, 0x09, 
  0xff, 0x00, 0xff, 0xff, 0xff, 0x00, 0x00, 0x28, 0x06, 0x00, 0x01, 0x00, 
  0xff, 0x01, 0x00, 0xa6, 0x01, 0x00, 0xf5, 0x00, 0x25, 0x01, 0xef, 0xee, 
  0x00, 0xf4, 0x01, 0x00, 0x01, 0x15, 0xfb, 0xf8, 0xf0, 0xf8, 0xff, 0xea, 
  0x01, 0xff, 0x13, 0x01, 0x01, 0xe6, 0xf1, 0x01, 0x01, 0xe8, 0x04, 0x02, 
  0x01, 0x81, 0x02, 0x00, 0x04, 0x00, 0x35, 0xff, 0x89, 0x01, 0x00, 0x01, 
  0x00, 0x00, 0xfe, 0x14, 0x00, 0x00, 0xfc, 0xf8, 0xff, 0xff, 0x00, 0x97, 
  0x59, 0x0a, 0x13, 0x00, 0x00, 0x00, 0x00, 0xf2, 0xff, 0x00, 0xfe, 0x00, 
  0xfd, 0x00, 0xff, 0x01, 0x00, 0xfe, 0x00, 0x00, 0x04, 0xff, 0x02, 0x00, 
  0x02, 0xff, 0x00, 0x14, 0x00, 0x00, 0x20, 0x00, 0x00, 0xff, 0xfd, 0x00, 
  0x00, 0x02, 0x00, 0x00, 0x00, 0xfa, 0x00, 0x00, 0x00, 0x00, 0x06, 0x00, 
  0x81, 0x00, 0x00, 0xff, 0x00, 0x00, 0x00, 0x00, 0x00, 0x00, 0x00, 0x00, 
  0x00, 0x05, 0x00, 0x0c, 0xff, 0xf5, 0xfd, 0x00, 0x01, 0x01, 0x00, 0xfe, 
  0x01, 0xff, 0xfd, 0x00, 0x04, 0x01, 0x00, 0xf8, 0x00, 0xfe, 0x00, 0x00, 
  0xff, 0x0f, 0x01, 0x0b, 0x06, 0xff, 0xfe, 0xf9, 0x00, 0x00, 0x81, 0x00, 
  0xfe, 0x04, 0xfb, 0x00, 0x02, 0xff, 0x03, 0xff, 0xff, 0x9f, 0x01, 0x00, 
  0x03, 0x00, 0x01, 0x02, 0x01, 0x00, 0x00, 0x03, 0xff, 0x00, 0xff, 0x03, 
  0xfe, 0x00, 0x05, 0x00, 0x00, 0x03, 0x00, 0x09, 0x11, 0xfd, 0xf8, 0x00, 
  0x00, 0xff, 0x00, 0x05, 0xff, 0x00, 0xfd, 0x00, 0x15, 0x03, 0xf5, 0xff, 
  0x00, 0x00, 0xff, 0x00, 0xfe, 0x08, 0xf6, 0xfa, 0xfc, 0x06, 0x01, 0xf4, 
  0x00, 0x00, 0x7f, 0x00, 0x01, 0xf7, 0xf4, 0x00, 0x00, 0xf7, 0x00, 0x00, 
  0x02, 0xaf, 0x00, 0x00, 0xff, 0x00, 0x35, 0x00, 0xe3, 0x01, 0x00, 0xfe, 
  0xff, 0x00, 0x00, 0xf9, 0x00, 0x00, 0xfc, 0xfc, 0xfe, 0xff, 0xff, 0x02, 
  0x23, 0x0a, 0xf0, 0x00, 0x00, 0x00, 0x00, 0x7f, 0x01, 0x00, 0x00, 0x00, 
  0x0c, 0x02, 0xfb, 0x08, 0xff, 0xff, 0xff, 0x00, 0xfd, 0xf5, 0x0f, 0x00, 
  0x1b, 0x0c, 0xff, 0xf1, 0x00, 0x00, 0x03, 0x00, 0xff, 0xfe, 0xfb, 0xff, 
  0x00, 0xfd, 0x01, 0xfe, 0x00, 0xef, 0x00, 0x00, 0xfe, 0x00, 0x92, 0x00, 
  0xf6, 0x00, 0x00, 0x01, 0x00, 0x00, 0x00, 0xe9, 0x00, 0x00, 0xff, 0xfd, 
  0x00, 0xfe, 0x00, 0x06, 0x10, 0x03, 0x02, 0x00, 0x00, 0x00, 0x00, 0x8f, 
  0xff, 0x00, 0xf2, 0x00, 0x22, 0x04, 0xf0, 0xf3, 0x00, 0xee, 0xff, 0x00, 
  0x04, 0xef, 0xef, 0xef, 0xe5, 0xfd, 0xfe, 0x00, 0x00, 0xff, 0x7f, 0x01, 
  0xff, 0xf4, 0xed, 0x00, 0xff, 0xe8, 0x02, 0xff, 0xff, 0xda, 0xfe, 0x00, 
  0xfd, 0xff, 0x62, 0xff, 0xf2, 0x01, 0x00, 0x00, 0xfe, 0x00, 0x00, 0x04, 
  0xfe, 0x00, 0xfd, 0xfb, 0xff, 0x02, 0xff, 0xd4, 0x47, 0x07, 0x02, 0x00, 
  0x00, 0x01, 0x00, 0xce, 0x00, 0x00, 0xfa, 0x00, 0x0e, 0x03, 0xf5, 0xfc, 
  0x00, 0xfa, 0x00, 0x00, 0x01, 0x04, 0x03, 0x01, 0xff, 0xf7, 0x00, 0x08, 
  0x01, 0x00, 0x8b, 0x00, 0x00, 0xf6, 0xf3, 0x00, 0x01, 0x04, 0x01, 0x01, 
  0x00, 0x7f, 0x00, 0x00, 0x00, 0x00, 0x0e, 0x01, 0x15, 0xff, 0x00, 0x01, 
  0x00, 0x00, 0x00, 0x15, 0x01, 0x00, 0x02, 0xfe, 0x01, 0x03, 0x00, 0xf4, 
  0x28, 0xf4, 0x08, 0x00, 0x00, 0xff, 0x00, 0xc4, 0xfe, 0x00, 0x0c, 0x00, 
  0xc7, 0xf8, 0x2e, 0xf3, 0xff, 0x04, 0x01, 0x00, 0x02, 0xf5, 0xf0, 0xff, 
  0xe3, 0xe7, 0xff, 0xec, 0x00, 0x00, 0xdc, 0x00, 0xff, 0x17, 0x1e, 0xff, 
  0x00, 0xf5, 0xfe, 0xfd, 0xfe, 0x96, 0x00, 0x00, 0xfe, 0xff, 0x7f, 0xff, 
  0x3b, 0x01, 0x00, 0x02, 0xfd, 0x00, 0xff, 0xff, 0xff, 0x00, 0xfe, 0x09, 
  0xff, 0xfa, 0x00, 0xdc, 0x9c, 0x0c, 0xf6, 0x00, 0x00, 0xff, 0x00, 0x7f, 
  0xff, 0x00, 0x05, 0x00, 0xde, 0xf9, 0x1a, 0xfc, 0x00, 0x00, 0x00, 0x00, 
  0xff, 0x00, 0xf6, 0x01, 0xf6, 0xfb, 0xff, 0xf6, 0x00, 0x00, 0xe9, 0x00, 
  0x00, 0x0c, 0x1b, 0xff, 0x00, 0xfe, 0xff, 0xff, 0xff, 0x2f, 0x00, 0x00, 
  0xff, 0x00, 0x1c, 0xff, 0xea, 0x00, 0x00, 0x00, 0x00, 0x01, 0xff, 0x19, 
  0xfe, 0x00, 0x01, 0x06, 0xff, 0xff, 0x00, 0xec, 0xb5, 0x02, 0xfe, 0x00, 
  0x00, 0x00, 0x00, 0xce, 0x00, 0x00, 0x01, 0x00, 0x00, 0x02, 0xff, 0x0d, 
  0xff, 0xff, 0x00, 0x00, 0x09, 0xf6, 0x17, 0xff, 0x0f, 0x12, 0x00, 0xd9, 
  0x00, 0x00, 0x06, 0x00, 0xff, 0x05, 0xff, 0x00, 0xfe, 0x03, 0x01, 0x00, 
  0x00, 0xa7, 0x00, 0xff, 0xff, 0x00, 0x81, 0x00, 0x31, 0xff, 0x00, 0x01, 
  0x00, 0xff, 0x00, 0xe9, 0x00, 0x00, 0x00, 0xff, 0x00, 0x08, 0x00, 0xf9, 
  0x00, 0xf0, 0x01, 0x00, 0x01, 0xff, 0x00, 0xe7, 0xff, 0x00, 0x06, 0x00, 
  0xe5, 0xfd, 0x1e, 0xee, 0x00, 0xfc, 0x00, 0x00, 0x01, 0xfb, 0xf8, 0xfc, 
  0xf1, 0xed, 0xfe, 0xe1, 0x00, 0x00, 0x7f, 0x00, 0x00, 0x0a, 0x18, 0x00, 
  0x01, 0x00, 0x00, 0xff, 0xff, 0xee, 0x00, 0x01, 0x01, 0xff, 0x5b, 0xfe, 
  0x12, 0x02, 0x00, 0xff, 0xfd, 0x00, 0xff, 0xfb, 0xff, 0x00, 0x00, 0x01, 
  0xfe, 0xf9, 0xff, 0xec, 0xc3, 0x0d, 0xf1, 0x00, 0x01, 0x00, 0x00, 0xde, 
  0xff, 0x00, 0x09, 0x00, 0xc5, 0xf5, 0x3f, 0x05, 0x00, 0x00, 0x00, 0x00, 
  0x05, 0xfc, 0x07, 0x01, 0xfc, 0x0f, 0xff, 0x01, 0x00, 0xff, 0xcc, 0x00, 
  0x00, 0x1d, 0x1d, 0xff, 0xfe, 0xfd, 0x01, 0x00, 0xfe, 0x81, 0x00, 0x00, 
  0xff, 0x00, 0xd9, 0xfd, 0x14, 0x01, 0x00, 0x00, 0x00, 0x00, 0xff, 0xf1, 
  0x00, 0x00, 0x01, 0x0a, 0x00, 0x03, 0x01, 0xf8, 0x94, 0xfd, 0xfe, 0xff, 
  0x00, 0x00, 0x00, 0x2f, 0x00, 0x00, 0xfb, 0x00, 0x2f, 0x00, 0xc1, 0x06, 
  0xfe, 0xfb, 0x01, 0x00, 0xfc, 0x02, 0x0f, 0x01, 0xee, 0xfc, 0x01, 0xf2, 
  0x00, 0x00, 0x08, 0xff, 0x00, 0xeb, 0xd9, 0xff, 0x00, 0xf7, 0xfe, 0x01, 
  0x01, 0xf7, 0x01, 0x00, 0x02, 0x00, 0x10, 0x01, 0x3a, 0x00, 0x00, 0x02, 
  0xff, 0xff, 0x01, 0xf0, 0xfc, 0x00, 0x02, 0xf2, 0xff, 0x02, 0x00, 0x02, 
  0x7f, 0x0b, 0xf3, 0x00, 0xb2, 0xf5, 0xff, 0xff, 0x04, 0x00, 0x00, 0x00, 
  0x80, 0x00, 0x00, 0x00, 0xae, 0x00, 0xcd, 0x3d, 0x21, 0xad, 0x86, 0xbf, 
  0xce, 0x2f, 0xfa, 0xbf, 0x57, 0x23, 0x67, 0x3e, 0xfd, 0x92, 0x86, 0xbf, 
  0xa7, 0x31, 0x46, 0xc0, 0x9a, 0xd5, 0x1d, 0xbf, 0xb7, 0x2d, 0x3d, 0x3f, 
  0x13, 0x55, 0x59, 0x3f, 0x24, 0x95, 0x9c, 0x3d, 0x5f, 0x42, 0xeb, 0xbf, 
  0x7f, 0xbc, 0xcf, 0x3e, 0xec, 0xa5, 0xa4, 0x3e, 0x48, 0xdd, 0x12, 0x3a, 
  0xdd, 0x68, 0x73, 0x3f, 0x23, 0x36, 0xfb, 0x3e, 0x7a, 0x84, 0x2b, 0xbf, 
  0x22, 0xa8, 0xd6, 0xbf, 0xf9, 0x76, 0xb3, 0xbf, 0xa5, 0xbf, 0x14, 0x3f, 
  0x66, 0xfc, 0x2d, 0xbc, 0x50, 0x40, 0xcb, 0xbf, 0x8e, 0x44, 0x5e, 0x3e, 
  0xa6, 0xa2, 0xe2, 0x3d, 0xc1, 0x21, 0x6e, 0x3f, 0xcc, 0xaf, 0x2d, 0xbf, 
  0x87, 0x43, 0x80, 0x3f, 0x16, 0x72, 0x2a, 0x3f, 0x8d, 0x66, 0x69, 0x3e, 
  0xab, 0x80, 0x9d, 0x3f, 0xa7, 0x81, 0x30, 0x3f, 0x41, 0x08, 0x1c, 0x3c, 
  0x3e, 0xf6, 0xff, 0xff, 0x04, 0x00, 0x00, 0x00, 0x40, 0x00, 0x00, 0x00, 
  0x75, 0x7c, 0xe2, 0x3e, 0x0c, 0x72, 0x68, 0x3e, 0xc2, 0x08, 0x72, 0x3f, 
  0x78, 0x43, 0x51, 0xbf, 0x34, 0xd1, 0xcb, 0xbe, 0x9d, 0xc9, 0xa2, 0x3f, 
  0x08, 0x76, 0xa1, 0xbf, 0x85, 0x82, 0x5e, 0x3f, 0xea, 0x08, 0x6c, 0xbe, 
  0xba, 0xc7, 0x03, 0x3f, 0x29, 0xb0, 0x2b, 0xbf, 0x4f, 0xbb, 0x3e, 0x3f, 
  0xe4, 0xcb, 0x4d, 0x3f, 0x8c, 0x9a, 0x87, 0x3f, 0xe7, 0x6c, 0xb8, 0xbf, 
  0x7b, 0x46, 0x75, 0xbf, 0x8a, 0xf6, 0xff, 0xff, 0x04, 0x00, 0x00, 0x00, 
  0x00, 0x08, 0x00, 0x00, 0x19, 0x88, 0xb6, 0x3e, 0x8e, 0xa6, 0xba, 0x3e, 
  0x9d, 0x5c, 0x17, 0x3e, 0x00, 0x94, 0x1b, 0x3f, 0x28, 0x05, 0x27, 0xbe, 
  0x79, 0x58, 0x2b, 0xbf, 0x3e, 0x35, 0x87, 0x3d, 0xc1, 0x08, 0x3e, 0x3e, 
  0xdc, 0x23, 0x88, 0x3f, 0x9d, 0x50, 0x03, 0x3f, 0x48, 0xf5, 0x85, 0x3e, 
  0x26, 0xc0, 0x63, 0x3d, 0xdb, 0x9c, 0xf4, 0x3d, 0x04, 0xe0, 0xf6, 0x3e, 
  0xf2, 0x78, 0x92, 0x3e, 0x55, 0x7f, 0x11, 0x3f, 0xb5, 0x77, 0xb3, 0xbe, 
  0xcd, 0x7b, 0x25, 0xbe, 0xfb, 0x54, 0xce, 0x3e, 0x49, 0xc9, 0xf4, 0xbc, 
  0xcb, 0x87, 0x96, 0x3e, 0x78, 0x55, 0x87, 0xbe, 0xc6, 0x36, 0x14, 0x3f, 
  0xb3, 0x0a, 0xc1, 0x3e, 0x3b, 0xdb, 0xf0, 0x3d, 0x64, 0x43, 0x74, 0x3e, 
  0x3a, 0x10, 0xd5, 0xbf, 0x3f, 0x63, 0x06, 0x3f, 0x9e, 0xf6, 0xbd, 0x3e, 
  0x0b, 0x03, 0x0b, 0xbe, 0x52, 0x50, 0xb2, 0x3f, 0x14, 0x3b, 0x31, 0x3e, 
  0x36, 0x26, 0x4d, 0x3e, 0x4e, 0xfd, 0x7d, 0x3e, 0x17, 0xa7, 0xe7, 0x3e, 
  0x47, 0x3b, 0x00, 0x3f, 0x93, 0x33, 0x4b, 0x3e, 0xfd, 0x49, 0x73, 0xbf, 
  0x88, 0xde, 0x04, 0xbf, 0x4c, 0xec, 0x69, 0x3e, 0x58, 0x21, 0x80, 0x3e, 
  0x3e, 0x2a, 0xa9, 0xbd, 0x3d, 0xec, 0x89, 0xbe, 0xcc, 0x76, 0x6a, 0x3d, 
  0x0a, 0x7b, 0xd6, 0xbd, 0xe9, 0x95, 0xe2, 0x3e, 0x03, 0x54, 0x28, 0x3e, 
  0xa4, 0x99, 0xc4, 0xbd, 0x65, 0x93, 0x68, 0x3d, 0x22, 0xc7, 0xbc, 0xbe, 
  0x5b, 0xf0, 0xa6, 0xbe, 0x66, 0xaf, 0x84, 0x3d, 0x77, 0xc0, 0x29, 0x3f, 
  0x51, 0xb8, 0x0d, 0xbf, 0x5c, 0x20, 0xca, 0xbe, 0xcb, 0x28, 0x26, 0xbf, 
  0x6e, 0x9e, 0x9d, 0x3e, 0x8b, 0x7f, 0x41, 0xbd, 0xb9, 0x38, 0xc0, 0x3e, 
  0xe1, 0x35, 0x41, 0x3f, 0x74, 0x44, 0xc6, 0x3d, 0xdd, 0x5c, 0xce, 0x3d, 
  0x47, 0x12, 0x2d, 0x3e, 0x05, 0x07, 0x79, 0xbf, 0x58, 0x9a, 0x1a, 0xbf, 
  0x59, 0xe4, 0x2e, 0xbd, 0xc6, 0x3b, 0x36, 0xbe, 0xa6, 0x3c, 0xa4, 0xbf, 
  0x57, 0xe4, 0x23, 0xbe, 0xf7, 0x3e, 0x67, 0xbf, 0x5b, 0x26, 0x4b, 0x3f, 
  0x55, 0x4e, 0x5e, 0xbe, 0x75, 0x2f, 0x3f, 0x3f, 0xc7, 0xac, 0x75, 0xbf, 
  0x38, 0x86, 0xfc, 0xbd, 0xd9, 0x8c, 0x18, 0xbf, 0xf9, 0xba, 0x50, 0xbf, 
  0x25, 0x00, 0x04, 0x3f, 0x8e, 0x79, 0xb6, 0xbf, 0x30, 0x6d, 0x6a, 0xbe, 
  0xc7, 0x81, 0x48, 0x3e, 0xc8, 0x57, 0x04, 0xbe, 0xdf, 0x76, 0xb5, 0x3e, 
  0x2c, 0xb2, 0x17, 0xbf, 0x8d, 0x00, 0x2a, 0x3d, 0xfa, 0xb4, 0xd0, 0xbe, 
  0x36, 0x9d, 0x19, 0x3f, 0x30, 0x5d, 0x46, 0xbf, 0x3c, 0x64, 0x65, 0xbf, 
  0xfb, 0xeb, 0x18, 0xbf, 0xdd, 0x02, 0x13, 0x3f, 0x77, 0xf6, 0x49, 0xbe, 
  0x3b, 0x8e, 0xa1, 0xbf, 0x0e, 0xd4, 0x5c, 0x3f, 0x2d, 0xa6, 0xa1, 0x3e, 
  0x76, 0x8d, 0xea, 0xbe, 0xea, 0xcc, 0x3b, 0xbf, 0x36, 0xd5, 0x83, 0xbf, 
  0x21, 0x70, 0x86, 0xbf, 0xad, 0x70, 0x97, 0xbf, 0x47, 0xfb, 0x92, 0x3e, 
  0x37, 0xd3, 0x5a, 0x3d, 0xcd, 0xbe, 0x9c, 0xbf, 0xd4, 0x2d, 0xa9, 0x3e, 
  0xf6, 0x1c, 0x1e, 0x3d, 0x07, 0xce, 0xa2, 0x3d, 0x88, 0x7e, 0xb9, 0xbf, 
  0x7c, 0x67, 0x50, 0x3e, 0x0f, 0xd9, 0x0f, 0x3e, 0x79, 0x4d, 0xba, 0xbf, 
  0x1b, 0x22, 0x9a, 0xbe, 0xe5, 0x17, 0x18, 0x3f, 0x88, 0xdb, 0xc5, 0x3e, 
  0xe8, 0xdf, 0x5d, 0xbf, 0x70, 0x4d, 0x7e, 0xbf, 0xab, 0x94, 0xf5, 0x3e, 
  0xb7, 0x08, 0x0d, 0xbf, 0x76, 0xdb, 0xeb, 0xbe, 0x37, 0x73, 0x12, 0x3f, 
  0xa5, 0x90, 0x53, 0xbf, 0xd5, 0x64, 0x46, 0x3e, 0x13, 0x66, 0xe2, 0xbe, 
  0xb7, 0x0d, 0xab, 0x3e, 0x4f, 0x37, 0xa8, 0xbe, 0x4b, 0x7c, 0xa9, 0xbf, 
  0x6b, 0xad, 0xdb, 0xbd, 0xa8, 0xe9, 0xb5, 0x3e, 0x79, 0x7b, 0x07, 0x3e, 
  0xb1, 0xdb, 0x94, 0xbe, 0x70, 0xa2, 0x91, 0xbe, 0xe6, 0x92, 0x11, 0x3e, 
  0xfe, 0x1c, 0xc7, 0xbe, 0x63, 0x55, 0xbc, 0xbc, 0x61, 0x50, 0xca, 0xbc, 
  0x03, 0x83, 0x19, 0xbf, 0xa8, 0x0d, 0x4a, 0xbd, 0xcc, 0x45, 0x12, 0xbf, 
  0xca, 0xa9, 0x81, 0x3e, 0x28, 0x04, 0x60, 0x3e, 0x2b, 0x6b, 0xa0, 0x3e, 
  0x89, 0x45, 0xc2, 0x3e, 0x26, 0x37, 0x25, 0xbf, 0x81, 0xaf, 0x03, 0x3f, 
  0x70, 0xbf, 0xbc, 0x3d, 0x1d, 0x44, 0xea, 0x3e, 0xa2, 0xef, 0xe1, 0x3e, 
  0xf8, 0xd2, 0x44, 0xbd, 0x7d, 0xbe, 0x46, 0x3d, 0x1d, 0xb6, 0x9b, 0xbe, 
  0xef, 0x00, 0x2b, 0x3e, 0x47, 0x68, 0x91, 0xbe, 0x51, 0x2a, 0x82, 0xbe, 
  0x54, 0xa3, 0x98, 0x3e, 0xb2, 0x1f, 0x81, 0x3e, 0x52, 0x34, 0xc8, 0xbd, 
  0x2b, 0xe7, 0x6f, 0xbf, 0x94, 0x29, 0x58, 0xbf, 0x7e, 0x2b, 0xb3, 0x3e, 
  0xf9, 0x70, 0x28, 0xbf, 0x65, 0x4c, 0x2f, 0x3f, 0xe1, 0xf8, 0x53, 0xbf, 
  0x34, 0xce, 0x9e, 0xbd, 0xc7, 0xfd, 0x47, 0x3e, 0x75, 0x97, 0xa6, 0xbe, 
  0x38, 0x0b, 0x8c, 0xbe, 0xd2, 0x65, 0x37, 0xbd, 0x79, 0x65, 0x50, 0xbe, 
  0x50, 0xba, 0xa2, 0xbd, 0xc2, 0x1a, 0x31, 0x3f, 0x23, 0x2e, 0xd3, 0xbe, 
  0xb2, 0x06, 0xd6, 0xbd, 0x24, 0x47, 0x58, 0xbf, 0xb3, 0xfb, 0xbb, 0xbe, 
  0x06, 0x1b, 0x5b, 0x3e, 0xa7, 0x0a, 0xd3, 0xbe, 0xa2, 0x35, 0x93, 0x3e, 
  0x04, 0xe8, 0x4e, 0x3e, 0x87, 0xd4, 0x8d, 0xbf, 0x5d, 0xe2, 0xe7, 0x3c, 
  0xcd, 0x26, 0x9d, 0xbe, 0xdb, 0xa9, 0x99, 0x3d, 0x3f, 0x65, 0x96, 0xbf, 
  0xef, 0x52, 0xb7, 0x3e, 0x65, 0xdc, 0x4e, 0x3f, 0x63, 0xa2, 0x73, 0xbf, 
  0xad, 0xb7, 0x55, 0xbe, 0x90, 0x52, 0x01, 0xc0, 0x4f, 0xd9, 0xdb, 0x3e, 
  0xfa, 0xac, 0x33, 0x3f, 0xa0, 0xec, 0xd8, 0x3e, 0xd4, 0x4f, 0xaf, 0x3f, 
  0x87, 0xfc, 0x98, 0x3e, 0xd5, 0x89, 0x87, 0xbf, 0x68, 0x1f, 0x9d, 0xbf, 
  0x0e, 0x4a, 0x95, 0xbc, 0xe1, 0x99, 0x56, 0xbf, 0xc3, 0x75, 0x16, 0x3f, 
  0xdb, 0xd7, 0x00, 0xbf, 0x62, 0xa8, 0xa5, 0xbf, 0x17, 0x81, 0xed, 0x3e, 
  0x6d, 0x7e, 0x0d, 0xc0, 0xce, 0x0f, 0x88, 0xbd, 0x8a, 0x93, 0x35, 0x3d, 
  0xc8, 0xc6, 0x44, 0x3c, 0xb1, 0x34, 0x12, 0x3f, 0x19, 0x1d, 0xa9, 0xbf, 
  0xcb, 0x19, 0x9f, 0x3e, 0x6c, 0xbf, 0x2e, 0x3e, 0x62, 0x87, 0x36, 0xbd, 
  0x43, 0xd6, 0x5a, 0x3f, 0x6e, 0x6f, 0xcf, 0x3d, 0x9c, 0xf7, 0xa7, 0x3a, 
  0x99, 0x66, 0x0e, 0xbe, 0x08, 0xde, 0xb8, 0x3e, 0xe7, 0x21, 0x27, 0x3d, 
  0x8f, 0x3c, 0x39, 0xbf, 0xd8, 0xc2, 0xe5, 0x3e, 0x42, 0x2d, 0x34, 0xbc, 
  0xeb, 0xa7, 0x3b, 0xbe, 0xb6, 0xa6, 0x22, 0xc0, 0x50, 0xa1, 0x9f, 0xbf, 
  0xd9, 0x19, 0xa7, 0x3e, 0x8b, 0xed, 0x34, 0xc0, 0x3a, 0xe9, 0x9f, 0xbe, 
  0x05, 0x60, 0xd8, 0xbe, 0xf7, 0x27, 0x2b, 0xbd, 0x56, 0xd5, 0x4c, 0xbe, 
  0x62, 0xfb, 0xc4, 0xbf, 0x27, 0x97, 0x3d, 0xbe, 0x28, 0xc7, 0x0b, 0xbe, 
  0x40, 0x48, 0xfa, 0xbe, 0x6d, 0xb9, 0xd9, 0xbd, 0x87, 0xbe, 0xda, 0x3e, 
  0x77, 0xbb, 0x5b, 0xbf, 0x3f, 0x17, 0xa6, 0x3d, 0x84, 0x49, 0xc5, 0xbe, 
  0x4f, 0xbe, 0x05, 0xbf, 0xa0, 0x35, 0xa7, 0xbf, 0xf2, 0x54, 0xbe, 0xbf, 
  0x7e, 0xa7, 0xb8, 0xbd, 0x6a, 0xe9, 0x13, 0x3f, 0xa6, 0xb1, 0x4c, 0xbe, 
  0x06, 0xe0, 0xb3, 0x3e, 0x56, 0xc8, 0xaa, 0xbe, 0xd6, 0x9d, 0xaa, 0xbc, 
  0x1d, 0x08, 0x99, 0xbe, 0x2e, 0x7c, 0x12, 0x3f, 0x7c, 0x04, 0xdb, 0xbf, 
  0xa0, 0xc2, 0x62, 0xbf, 0xd3, 0x91, 0xdc, 0xbe, 0x24, 0x1e, 0x4a, 0x3f, 
  0xb7, 0x86, 0x0b, 0xbd, 0x92, 0x0e, 0xbc, 0xbf, 0x65, 0xb2, 0x16, 0x3f, 
  0xda, 0x62, 0x32, 0x3f, 0xf2, 0x13, 0x0f, 0xbf, 0x14, 0x92, 0x1e, 0x3e, 
  0xd8, 0x86, 0x1f, 0xbe, 0x5d, 0x08, 0x1b, 0x3e, 0x66, 0xb5, 0xc6, 0xbd, 
  0x22, 0x6a, 0xf8, 0x3e, 0x12, 0xa4, 0xac, 0xbc, 0x79, 0x76, 0x2a, 0x3e, 
  0x50, 0xbc, 0xd1, 0x3e, 0xb1, 0xa9, 0x1e, 0xbf, 0xa3, 0x6f, 0x71, 0xbb, 
  0xc9, 0xa3, 0x07, 0xbe, 0x21, 0xd5, 0x91, 0x3e, 0xec, 0xbd, 0xec, 0x3d, 
  0x81, 0xce, 0x48, 0xbd, 0x59, 0x3e, 0x9d, 0xbc, 0x39, 0x93, 0x61, 0x3e, 
  0x67, 0xef, 0xe5, 0x3e, 0xb3, 0x4c, 0xc3, 0x3e, 0x51, 0x1e, 0x84, 0xbd, 
  0xc2, 0x6d, 0x04, 0x3e, 0x36, 0x25, 0x3e, 0x3d, 0xa0, 0xae, 0xb1, 0x3e, 
  0x23, 0x3a, 0x92, 0xbe, 0xcf, 0xbe, 0x32, 0xbe, 0x18, 0x59, 0x01, 0x3f, 
  0x73, 0x73, 0x9f, 0x3e, 0x3e, 0x56, 0x14, 0xbe, 0x6b, 0xb9, 0xf4, 0xbe, 
  0x95, 0x51, 0x96, 0xbd, 0x67, 0x47, 0x82, 0x3e, 0x4e, 0xa0, 0x29, 0xbf, 
  0xb0, 0x6c, 0xb8, 0x3e, 0x1f, 0xcf, 0x8e, 0x3e, 0x94, 0xa3, 0xd0, 0x3e, 
  0xaa, 0xd2, 0xb2, 0x3e, 0x29, 0xc0, 0x57, 0x3e, 0x41, 0x1e, 0xb5, 0x3e, 
  0x73, 0xd8, 0xf5, 0x3e, 0x86, 0x85, 0x02, 0x3b, 0x1e, 0x42, 0x89, 0x3e, 
  0x56, 0x8d, 0x88, 0x3e, 0xc3, 0x16, 0x2c, 0x3f, 0x64, 0x79, 0xb4, 0xbe, 
  0x66, 0xdd, 0x3d, 0x3e, 0xbc, 0x93, 0x6f, 0x3e, 0x12, 0x96, 0x0f, 0x3f, 
  0xb8, 0xcc, 0x07, 0x3f, 0x66, 0xc5, 0x27, 0x3f, 0x20, 0x43, 0x14, 0xbf, 
  0x05, 0x8a, 0x52, 0x3e, 0xd1, 0x20, 0xfe, 0x3d, 0x17, 0x5d, 0x2e, 0x3d, 
  0x03, 0xf8, 0x4a, 0xbe, 0xba, 0xad, 0xda, 0x3d, 0x1f, 0x0e, 0x1e, 0x3f, 
  0x8a, 0x11, 0x31, 0x3f, 0x7a, 0x4d, 0xf4, 0x3c, 0x62, 0x93, 0x24, 0x3e, 
  0xf3, 0xe4, 0xa5, 0xbf, 0xdd, 0xe6, 0x7f, 0x3e, 0x84, 0x0c, 0xe4, 0x3e, 
  0x8c, 0xb8, 0x2c, 0xbf, 0x7f, 0x5e, 0xad, 0x3e, 0xda, 0x63, 0xa2, 0x3d, 
  0x3e, 0xd8, 0x1a, 0xbf, 0xbe, 0x32, 0x29, 0xbf, 0x71, 0xe2, 0x61, 0xbf, 
  0x44, 0x39, 0x07, 0xbd, 0x56, 0xc5, 0x3e, 0x3e, 0x9c, 0xd9, 0xa4, 0xbe, 
  0x52, 0x33, 0x8e, 0xbf, 0xe4, 0xa4, 0xf8, 0x3e, 0x74, 0xe9, 0x15, 0xbf, 
  0x9f, 0xee, 0x64, 0x3e, 0x0d, 0x8b, 0x46, 0xbf, 0x30, 0xf8, 0xa5, 0x3e, 
  0x90, 0xa4, 0x11, 0x3f, 0xd2, 0x69, 0x50, 0xbf, 0xdb, 0xa2, 0xdf, 0x3e, 
  0xb7, 0x7b, 0x8e, 0x3e, 0x5e, 0x18, 0xad, 0xbe, 0x1a, 0x3c, 0x86, 0x3c, 
  0x05, 0xbd, 0x32, 0xbf, 0x14, 0xdf, 0x77, 0xbd, 0x05, 0x15, 0x6a, 0xbf, 
  0xd2, 0x04, 0xaf, 0x3e, 0x23, 0x62, 0x3a, 0x3f, 0x51, 0x49, 0x9f, 0xbe, 
  0xa4, 0x49, 0x71, 0x3d, 0xfe, 0x4e, 0xd2, 0x3d, 0x41, 0x2f, 0xc3, 0x3d, 
  0x92, 0x36, 0x38, 0xbf, 0x25, 0x18, 0xd2, 0xbe, 0xbb, 0xce, 0x0f, 0x3e, 
  0xce, 0x66, 0x14, 0xbf, 0x15, 0xdf, 0x3b, 0x3f, 0x9d, 0x8a, 0xdf, 0x3e, 
  0x51, 0xc0, 0x00, 0x3f, 0x36, 0xd3, 0x45, 0x3f, 0x33, 0xa4, 0x4a, 0x3f, 
  0x85, 0x9e, 0x18, 0x3d, 0x82, 0xee, 0x81, 0xbf, 0xce, 0x9a, 0x40, 0x3e, 
  0x12, 0x57, 0x2f, 0x3e, 0x2c, 0x44, 0x3b, 0x3f, 0xba, 0x6b, 0xfc, 0x3d, 
  0xe6, 0x9b, 0xc5, 0x3c, 0x79, 0x42, 0x17, 0xbf, 0xc3, 0xbd, 0xbe, 0x3d, 
  0x5b, 0x3e, 0x04, 0x3f, 0x76, 0xb6, 0x8f, 0x3e, 0xe2, 0xf9, 0x96, 0xbe, 
  0x41, 0xf3, 0x76, 0xbf, 0x9e, 0x3e, 0x40, 0x3e, 0x31, 0x30, 0x0b, 0x3e, 
  0x5f, 0xfc, 0x0d, 0xbc, 0xb1, 0x11, 0x8e, 0xbf, 0x81, 0x28, 0xa0, 0x3d, 
  0x08, 0x04, 0xd8, 0xbe, 0xcb, 0x7e, 0x0a, 0x3e, 0x8d, 0xd2, 0x1a, 0xbc, 
  0x6c, 0xd5, 0x13, 0xbf, 0xc2, 0x6d, 0x2b, 0x3f, 0x5d, 0x56, 0x0e, 0x3f, 
  0x18, 0xe1, 0x1e, 0x3f, 0x28, 0x14, 0x52, 0xbd, 0x4d, 0x2c, 0x47, 0xbd, 
  0x71, 0x99, 0x93, 0xbb, 0x38, 0x63, 0x90, 0x3d, 0x3d, 0x75, 0x97, 0xbe, 
  0x52, 0xbb, 0x29, 0x3d, 0x09, 0x63, 0x3a, 0x3f, 0x27, 0x29, 0x77, 0xbd, 
  0x1e, 0xbf, 0x57, 0x3f, 0xc8, 0xcb, 0xd9, 0x3e, 0xf5, 0xcc, 0x07, 0x3f, 
  0x4f, 0xf2, 0x8e, 0x3e, 0x9a, 0x39, 0x50, 0x3f, 0xda, 0x22, 0x79, 0x3e, 
  0xe9, 0xf7, 0x63, 0x3d, 0x3e, 0xb6, 0xe8, 0x3e, 0x84, 0x4a, 0x01, 0x3f, 
  0x56, 0x44, 0x2e, 0x3f, 0xdb, 0x7a, 0x4a, 0x3f, 0x5a, 0xdc, 0xed, 0xbe, 
  0xc4, 0x62, 0x88, 0xbe, 0xb8, 0x00, 0x2f, 0x3d, 0x0e, 0x9e, 0x87, 0x3e, 
  0x06, 0x94, 0x6f, 0x3e, 0xb1, 0x5b, 0xb4, 0xbe, 0xa0, 0x66, 0x57, 0xbe, 
  0x83, 0x0b, 0xaf, 0x3e, 0x0f, 0xa0, 0xba, 0x3e, 0x39, 0x43, 0xed, 0x3e, 
  0x9a, 0xf3, 0x5f, 0xbf, 0x16, 0x84, 0x44, 0xbe, 0x37, 0x1d, 0x56, 0x3f, 
  0x84, 0x21, 0x76, 0xbf, 0xc4, 0x14, 0x19, 0xbf, 0x0e, 0x5b, 0x88, 0x3e, 
  0xb0, 0xf6, 0x61, 0x3f, 0x4b, 0x91, 0x7b, 0xbe, 0x1d, 0xe8, 0x29, 0x3f, 
  0x93, 0xa8, 0x06, 0xbf, 0xeb, 0x05, 0x5e, 0xbe, 0x8c, 0xae, 0x86, 0xbe, 
  0x79, 0x87, 0xb5, 0x3e, 0x75, 0x1e, 0x8e, 0xbe, 0xa1, 0x5d, 0x01, 0x3e, 
  0xeb, 0xcb, 0x76, 0xbe, 0xf4, 0x6e, 0xdf, 0x3e, 0x09, 0x0f, 0x11, 0xbe, 
  0x3e, 0xd7, 0x7f, 0xbe, 0xb6, 0x51, 0x57, 0x3f, 0x9a, 0x0b, 0x83, 0xbe, 
  0x69, 0x3d, 0xc5, 0xbe, 0xe0, 0x9c, 0x1d, 0xbe, 0xa8, 0x10, 0x67, 0x3e, 
  0x2f, 0x08, 0xa5, 0xbf, 0x22, 0x58, 0xcb, 0xbe, 0x0c, 0x87, 0x1e, 0xbc, 
  0xe2, 0xf5, 0x0b, 0x3e, 0x20, 0x7c, 0x90, 0x3e, 0x56, 0x98, 0x27, 0xbf, 
  0x27, 0xa2, 0xaf, 0xbe, 0x6a, 0xeb, 0xbe, 0xbe, 0x02, 0x42, 0x36, 0x3f, 
  0xa6, 0x46, 0xd2, 0x3d, 0xfa, 0x4b, 0x0d, 0x3f, 0x5a, 0x20, 0x0d, 0x3f, 
  0xd3, 0x67, 0xb0, 0x3e, 0xc0, 0x52, 0x8c, 0xbe, 0x23, 0xdc, 0x66, 0xbf, 
  0xa9, 0x06, 0x50, 0xbf, 0xa4, 0x7a, 0x69, 0xbf, 0x6e, 0xf2, 0x3a, 0xbf, 
  0xe3, 0xd7, 0x1c, 0x3e, 0x4f, 0xca, 0x7b, 0x3e, 0xac, 0x80, 0x13, 0xbf, 
  0xc6, 0x52, 0x06, 0x3f, 0x89, 0xbd, 0x29, 0xbd, 0xf2, 0x4f, 0x4a, 0x3e, 
  0xe8, 0xb9, 0x5e, 0xbf, 0x13, 0xa2, 0x8f, 0x3e, 0x72, 0x99, 0x74, 0x3e, 
  0x0d, 0xa3, 0xbb, 0xbf, 0x09, 0x5c, 0x32, 0x3f, 0xba, 0xb8, 0xeb, 0x3e, 
  0x61, 0x5c, 0x25, 0xbf, 0xbb, 0xf2, 0xd2, 0x3c, 0x12, 0x50, 0x4a, 0xbf, 
  0xe0, 0x5d, 0xa2, 0xbe, 0xe6, 0x3f, 0x39, 0xbf, 0xc7, 0xcc, 0x0d, 0xbf, 
  0xdb, 0x1a, 0x09, 0x3f, 0x10, 0xe6, 0x46, 0xbf, 0x66, 0xf0, 0x90, 0xbe, 
  0xfc, 0xdb, 0xdc, 0xbe, 0xa1, 0x70, 0xce, 0x3c, 0xb8, 0x14, 0xf2, 0xbd, 
  0xdf, 0xac, 0xaa, 0xbf, 0x02, 0x0b, 0xb9, 0x3d, 0xea, 0xf7, 0x6d, 0x3e, 
  0xac, 0xcd, 0x43, 0x3f, 0xc2, 0xb5, 0x0d, 0x3e, 0x91, 0x95, 0x11, 0x3e, 
  0x6f, 0x1a, 0x57, 0xbf, 0x9f, 0x36, 0xfa, 0xbe, 0x30, 0xd7, 0x34, 0x3e, 
  0x65, 0x57, 0x47, 0xbf, 0x09, 0xcf, 0x99, 0xbe, 0x60, 0xe8, 0xf3, 0xbd, 
  0x6f, 0xc5, 0x16, 0xbf, 0x71, 0xb5, 0x0a, 0x3e, 0x63, 0x80, 0xd2, 0xbe, 
  0xa8, 0x88, 0xc2, 0x3e, 0xcc, 0x72, 0xb5, 0x3e, 0x1a, 0x4f, 0xd2, 0x3d, 
  0x00, 0xf8, 0x40, 0x3d, 0xa5, 0xa7, 0x76, 0x3e, 0x0b, 0x22, 0x6a, 0x3f, 
  0x40, 0x4f, 0xae, 0xbe, 0x7f, 0x57, 0xc1, 0xbe, 0x37, 0xc4, 0x10, 0x3f, 
  0x39, 0x15, 0x17, 0xbf, 0x2c, 0x34, 0x09, 0x3f, 0xf1, 0x21, 0xb0, 0x3d, 
  0xb2, 0x27, 0x41, 0x3c, 0x6c, 0x86, 0x16, 0x3f, 0x62, 0x46, 0xa1, 0x3e, 
  0x63, 0xb6, 0x1f, 0x3d, 0x33, 0xf1, 0x2f, 0xbf, 0x88, 0xa4, 0x38, 0xbf, 
  0x5c, 0x53, 0x41, 0x3e, 0x2f, 0x79, 0x2d, 0xbf, 0x96, 0x2b, 0xd3, 0xbd, 
  0x96, 0xfe, 0xff, 0xff, 0x04, 0x00, 0x00, 0x00, 0x04, 0x00, 0x00, 0x00, 
  0xf9, 0x8b, 0xfc, 0xbe, 0xa6, 0xfe, 0xff, 0xff, 0x04, 0x00, 0x00, 0x00, 
  0x40, 0x00, 0x00, 0x00, 0x8a, 0x20, 0xb8, 0xbc, 0x4b, 0xfe, 0xa6, 0xbe, 
  0x09, 0x2c, 0x10, 0x3f, 0x85, 0x8a, 0xff, 0x3e, 0x14, 0xeb, 0x16, 0x3f, 
  0x6f, 0x90, 0xf5, 0x3e, 0x5a, 0x6f, 0x29, 0x3f, 0xde, 0x77, 0xfd, 0x3e, 
  0x55, 0x49, 0x1e, 0x3f, 0xdb, 0x59, 0x89, 0xbe, 0x41, 0x39, 0x47, 0x3f, 
  0x81, 0x29, 0x86, 0x3e, 0xa1, 0x07, 0x03, 0xbf, 0xc9, 0xdf, 0x6f, 0x3e, 
  0x20, 0x1b, 0x02, 0x3f, 0xe2, 0x95, 0x55, 0x3f, 0xf2, 0xfe, 0xff, 0xff, 
  0x04, 0x00, 0x00, 0x00, 0x00, 0x01, 0x00, 0x00, 0x08, 0x9b, 0x45, 0xbe, 
  0xe3, 0x4d, 0x21, 0xbe, 0xdd, 0x83, 0xca, 0xbe, 0x97, 0x87, 0x44, 0xbf, 
  0x66, 0xea, 0x59, 0x3f, 0x37, 0xce, 0x64, 0xbe, 0xd1, 0x22, 0x13, 0xbf, 
  0x8e, 0x65, 0x1f, 0xbe, 0x6c, 0xc6, 0x2b, 0xbf, 0xae, 0xd7, 0x51, 0x3f, 
  0xba, 0xbe, 0x1a, 0xbf, 0x35, 0x36, 0x3b, 0xbf, 0xb8, 0xc9, 0x36, 0xbe, 
  0x2a, 0xf2, 0x20, 0xbf, 0x04, 0x34, 0xe2, 0xbe, 0xe0, 0x1e, 0x0a, 0xbf, 
  0xc1, 0x29, 0xd4, 0xbe, 0x84, 0x53, 0x7e, 0xbf, 0x54, 0xe2, 0x37, 0xbf, 
  0x5f, 0xe5, 0x5a, 0xbf, 0xde, 0xd8, 0x37, 0xbf, 0x3a, 0xab, 0x34, 0xbf, 
  0x23, 0x7e, 0xbd, 0x3f, 0xce, 0xd8, 0x2e, 0xbf, 0x7c, 0x6c, 0x17, 0xbf, 
  0x2d, 0x6b, 0x39, 0xbf, 0xcc, 0xe7, 0x57, 0xbf, 0x6f, 0xb7, 0x02, 0x3f, 
  0x17, 0x38, 0x12, 0xbf, 0xf3, 0xcd, 0x1e, 0xbf, 0xfe, 0xf9, 0x0d, 0xbf, 
  0xee, 0xa7, 0x7a, 0x3e, 0x9d, 0xff, 0xcc, 0x3e, 0xe8, 0x26, 0x55, 0xbf, 
  0x34, 0xbe, 0x0b, 0xbf, 0x4c, 0x11, 0x2d, 0xbf, 0x1c, 0xf2, 0x5a, 0x3f, 
  0x62, 0xf6, 0x4d, 0xbf, 0xa6, 0x84, 0x2f, 0xbf, 0x63, 0xf8, 0x7d, 0xbd, 
  0x20, 0x98, 0x43, 0xbf, 0x5d, 0x5e, 0x85, 0xbe, 0x22, 0x73, 0x24, 0xbf, 
  0xa0, 0x2a, 0x90, 0x3f, 0xa4, 0x9a, 0x45, 0xbf, 0x87, 0x17, 0x32, 0x3f, 
  0xf2, 0x00, 0x1e, 0xbf, 0x25, 0x98, 0xe0, 0xbe, 0x55, 0x00, 0xa7, 0xbe, 
  0x00, 0x29, 0x22, 0x3f, 0xff, 0x46, 0xd6, 0xbe, 0x70, 0x1d, 0x58, 0xbf, 
  0x28, 0x97, 0xf0, 0xbe, 0x83, 0xa1, 0x8b, 0x3e, 0x43, 0x41, 0x3b, 0xbf, 
  0xea, 0x82, 0xf4, 0x3e, 0x72, 0x14, 0xcc, 0xbe, 0x24, 0x19, 0xf5, 0xbe, 
  0x01, 0x10, 0xd4, 0x3d, 0x67, 0x10, 0x4b, 0xbf, 0xe1, 0x1a, 0x07, 0xbf, 
  0x35, 0xec, 0x32, 0xbf, 0x21, 0xd6, 0x2d, 0xbf, 0xb3, 0xf1, 0x31, 0x3f, 
  0x00, 0x00, 0x06, 0x00, 0x08, 0x00, 0x04, 0x00, 0x06, 0x00, 0x00, 0x00, 
  0x04, 0x00, 0x00, 0x00, 0x00, 0x08, 0x00, 0x00, 0x07, 0xdd, 0x21, 0x3d, 
  0xf7, 0xeb, 0x66, 0x3f, 0xb1, 0x37, 0x9b, 0xbe, 0x7b, 0xb6, 0x9e, 0x3e, 
  0xf5, 0x68, 0x37, 0xbe, 0x88, 0xc5, 0x80, 0x3e, 0x6e, 0x3b, 0xda, 0xbd, 
  0x61, 0x9f, 0xbc, 0x3e, 0x46, 0x79, 0x00, 0xbe, 0x62, 0x94, 0x61, 0xbf, 
  0x0f, 0xf9, 0x1c, 0x3f, 0xf7, 0x7f, 0x84, 0xbe, 0xa6, 0xcd, 0x70, 0xbd, 
  0xbf, 0x09, 0xb3, 0x3e, 0xf4, 0x1d, 0x20, 0xbe, 0xef, 0x42, 0x89, 0x3e, 
  0x17, 0xae, 0x40, 0xbe, 0x7f, 0x03, 0x8c, 0xbe, 0xb1, 0xad, 0x15, 0x3f, 
  0x20, 0x8a, 0x08, 0xbc, 0xe6, 0x53, 0xfb, 0xbb, 0xf1, 0x66, 0x9f, 0xbd, 
  0x3b, 0xc2, 0x1b, 0xbf, 0x9c, 0xc5, 0x13, 0x3f, 0xfc, 0x48, 0x39, 0xbb, 
  0x1c, 0x28, 0xe7, 0xba, 0x2d, 0xcc, 0x84, 0x3b, 0xe3, 0x3a, 0x2f, 0x3f, 
  0xf0, 0x3c, 0x6e, 0xb8, 0x13, 0x6a, 0x42, 0xbb, 0x85, 0x6f, 0x84, 0xb8, 
  0xae, 0xab, 0x0c, 0xbc, 0x45, 0xe6, 0x76, 0x3b, 0x99, 0xa5, 0x39, 0xbf, 
  0xb1, 0x92, 0xf5, 0x3e, 0xe4, 0x0a, 0xa5, 0x3c, 0x79, 0xa6, 0x98, 0xbc, 
  0x67, 0xdb, 0xad, 0x3e, 0xe1, 0x62, 0x90, 0xbe, 0xa4, 0x73, 0x66, 0x3e, 
  0xb5, 0xaa, 0x92, 0xbe, 0x2b, 0x23, 0x29, 0xbf, 0x3e, 0x0c, 0x15, 0xbe, 
  0x58, 0x9e, 0xf7, 0xbd, 0x69, 0x67, 0xed, 0x3a, 0x2e, 0x9f, 0xbd, 0xbd, 
  0xf0, 0x0b, 0xbb, 0xbe, 0x24, 0xb3, 0x34, 0x3f, 0x59, 0x94, 0x8c, 0xbb, 
  0x7d, 0x1a, 0x83, 0x3f, 0xf3, 0x46, 0xaa, 0x3b, 0x5c, 0xe7, 0x42, 0xba, 
  0x18, 0x4e, 0xaa, 0xbb, 0x1b, 0x40, 0x79, 0x3d, 0xfb, 0xd6, 0x28, 0xbd, 
  0xd1, 0xfc, 0x8f, 0xbd, 0xc3, 0x3d, 0x88, 0xbd, 0x41, 0xbf, 0x10, 0xbf, 
  0x0a, 0xb1, 0x43, 0xbf, 0x8e, 0xad, 0x47, 0xbe, 0x57, 0xe4, 0x42, 0xbe, 
  0x40, 0x3a, 0xc4, 0x3d, 0x99, 0xcc, 0xa9, 0x3d, 0x4b, 0x62, 0x0b, 0xbf, 
  0x03, 0x33, 0xdd, 0x3c, 0x2a, 0x68, 0x62, 0x3f, 0x42, 0xa0, 0xd4, 0xbc, 
  0x48, 0xab, 0xa9, 0xbc, 0x81, 0x72, 0x7c, 0xba, 0x58, 0xa7, 0xea, 0x3a, 
  0x36, 0x31, 0x1e, 0x3a, 0x71, 0x63, 0x03, 0xbd, 0xb2, 0xd4, 0x92, 0xba, 
  0x51, 0x65, 0xa3, 0xbf, 0x14, 0x0f, 0xeb, 0x3b, 0x09, 0x42, 0xb8, 0xbb, 
  0x1c, 0x03, 0x8b, 0x3b, 0xdf, 0x0b, 0xd9, 0x3c, 0x48, 0xe8, 0xe3, 0xbc, 
  0xd8, 0xe2, 0x3e, 0xbd, 0xbe, 0x7b, 0xb7, 0x3b, 0x6e, 0x26, 0x87, 0x3f, 
  0xe5, 0x66, 0xa4, 0xba, 0xb2, 0xe2, 0xf2, 0x39, 0xee, 0x6d, 0xf1, 0x3b, 
  0xf7, 0x37, 0xf1, 0xbc, 0xfc, 0xc4, 0xdd, 0x3c, 0x69, 0x2d, 0x2c, 0x3d, 
  0x1c, 0xc8, 0x6b, 0xbb, 0x4c, 0x32, 0xf7, 0xba, 0xd7, 0xe8, 0xa9, 0x3b, 
  0x48, 0xfc, 0x0b, 0x3b, 0x27, 0x6c, 0xb1, 0x3b, 0x22, 0xb1, 0x5a, 0x3e, 
  0x5b, 0x6a, 0x42, 0xbe, 0xd1, 0x96, 0x4f, 0x3f, 0x93, 0x97, 0x0d, 0x3f, 
  0x6a, 0x6e, 0x4b, 0xbf, 0x5c, 0x9d, 0xa1, 0x3e, 0xcd, 0x55, 0x5e, 0xbe, 
  0x3f, 0x26, 0x9d, 0xbd, 0x75, 0xb6, 0xc9, 0xbd, 0x1c, 0x7e, 0x03, 0x3d, 
  0xa6, 0xd6, 0x01, 0xbf, 0x3f, 0x7d, 0xf5, 0xbc, 0x9b, 0x8b, 0xa8, 0x3f, 
  0x3c, 0xbb, 0xf2, 0x3d, 0x4e, 0xbb, 0x00, 0xbd, 0x73, 0xf9, 0x5e, 0xbc, 
  0x16, 0x92, 0x52, 0x3d, 0xae, 0xf2, 0x1f, 0xbd, 0x9f, 0x94, 0x22, 0xbe, 
  0x44, 0x9b, 0x9b, 0x3e, 0xdf, 0xab, 0x66, 0x3f, 0xc1, 0x3c, 0x2c, 0x3e, 
  0x79, 0x83, 0x1d, 0xbe, 0x54, 0xc1, 0xc3, 0xbd, 0x26, 0x61, 0xa7, 0xbe, 
  0x2c, 0xae, 0x21, 0x3e, 0xe3, 0x42, 0xd5, 0xbe, 0xa8, 0x04, 0xff, 0x3d, 
  0xb5, 0x6d, 0x0e, 0x3f, 0xb8, 0xbd, 0x6b, 0xbf, 0x03, 0xa8, 0x97, 0x3d, 
  0x44, 0xf7, 0x1e, 0xbc, 0x15, 0xca, 0x82, 0x3e, 0x0b, 0x60, 0x59, 0x3d, 
  0xbb, 0x69, 0xe3, 0xbd, 0x56, 0x97, 0x00, 0xbc, 0x76, 0xec, 0xf4, 0x3b, 
  0xf2, 0xba, 0x95, 0xbf, 0x3f, 0xbc, 0xa6, 0xbc, 0x88, 0xf2, 0x6d, 0xbb, 
  0xd8, 0xf6, 0xb0, 0xbc, 0xef, 0x8d, 0xba, 0xbb, 0x6c, 0xd8, 0x76, 0x3c, 
  0x08, 0x37, 0x80, 0xbd, 0xfe, 0x5c, 0x12, 0xbb, 0x12, 0xbc, 0x18, 0x3e, 
  0x86, 0xee, 0xfe, 0x3b, 0x1c, 0x45, 0x17, 0xbb, 0xeb, 0xf2, 0xad, 0x3e, 
  0x91, 0x25, 0x30, 0x3e, 0x1f, 0x01, 0xfa, 0x3e, 0x19, 0xbe, 0xa2, 0xbb, 
  0x61, 0x65, 0xc3, 0x3b, 0xc8, 0x63, 0xd0, 0x3b, 0x37, 0x82, 0xb8, 0x3b, 
  0x99, 0xe5, 0x55, 0x3c, 0xc0, 0x91, 0x9f, 0x3e, 0x83, 0xb9, 0x8d, 0xbe, 
  0x6a, 0xc5, 0x2d, 0x3f, 0x64, 0x3b, 0x49, 0xbd, 0x4f, 0xa5, 0x88, 0xbd, 
  0xba, 0xf2, 0x5e, 0x3d, 0x2b, 0xb9, 0x00, 0xbd, 0xe7, 0x2b, 0x67, 0x3c, 
  0xbf, 0xcf, 0x24, 0xbf, 0xcd, 0x5f, 0xda, 0x3e, 0x88, 0x59, 0x21, 0xbf, 
  0x6c, 0xe4, 0x13, 0xbc, 0x6e, 0xae, 0x10, 0x3b, 0x9e, 0x58, 0xb7, 0x3b, 
  0xe1, 0xba, 0x18, 0xbc, 0xb7, 0xae, 0x8b, 0x3b, 0x48, 0x18, 0xa0, 0x3e, 
  0x44, 0x2a, 0x91, 0xbe, 0x12, 0xc9, 0x2f, 0x3f, 0x21, 0x37, 0x16, 0xba, 
  0xba, 0x17, 0x86, 0xba, 0xc2, 0x88, 0x7c, 0x3b, 0x1e, 0xb0, 0x54, 0x3a, 
  0x72, 0x76, 0xf8, 0x3b, 0x99, 0x93, 0x44, 0x3e, 0x02, 0xad, 0x29, 0xbe, 
  0x0f, 0x83, 0x4e, 0x3f, 0x98, 0x6e, 0x77, 0xbc, 0xc3, 0xa9, 0xb9, 0x3f, 
  0x34, 0xc4, 0x55, 0x3d, 0x25, 0x1b, 0x26, 0x3c, 0xce, 0x1f, 0xf7, 0xbb, 
  0x07, 0xfb, 0x93, 0xbe, 0xcb, 0x1b, 0x2e, 0x3e, 0x95, 0xc8, 0x3d, 0xbd, 
  0xf6, 0x3a, 0x24, 0x3f, 0xab, 0x75, 0x1d, 0xbb, 0xab, 0x62, 0x0b, 0x3b, 
  0x30, 0xea, 0xe6, 0x3b, 0xc4, 0x17, 0x34, 0x3c, 0x84, 0xfe, 0x23, 0x3d, 
  0xc0, 0xba, 0x4d, 0xbd, 0x11, 0x79, 0x26, 0xbd, 0xcb, 0xb7, 0xa1, 0x3d, 
  0xcd, 0xad, 0xd4, 0xbc, 0xc0, 0x72, 0x2e, 0xbd, 0x1c, 0x43, 0xa8, 0xbd, 
  0x45, 0x21, 0xdd, 0xbb, 0x77, 0x56, 0x85, 0xbe, 0x33, 0xdc, 0x80, 0xbf, 
  0xad, 0x0f, 0xe2, 0x3e, 0x98, 0xc2, 0xbd, 0x3e, 0x09, 0xef, 0xaf, 0xbe, 
  0x20, 0x91, 0xf7, 0x3e, 0x0a, 0xad, 0x93, 0x3e, 0x3e, 0xad, 0x39, 0x3d, 
  0xf0, 0x6e, 0x04, 0x3e, 0xb9, 0x78, 0x7d, 0xbd, 0xd2, 0x5f, 0xc3, 0x3e, 
  0x8b, 0x64, 0x9d, 0x3b, 0xe6, 0x41, 0xcc, 0x39, 0x62, 0x97, 0x9d, 0xb8, 
  0x7e, 0xf7, 0x8c, 0x3b, 0x84, 0x6c, 0xaf, 0x3a, 0xe8, 0x3e, 0xf6, 0xbe, 
  0xc6, 0xf3, 0x8f, 0x3e, 0x99, 0x1f, 0x9b, 0xbe, 0x58, 0xb9, 0x15, 0xbd, 
  0x50, 0x16, 0x17, 0xbf, 0xbd, 0x29, 0x4f, 0x3e, 0x39, 0x83, 0x3f, 0xbe, 
  0x95, 0x1c, 0x0f, 0x3e, 0x9e, 0x97, 0xb2, 0xbe, 0xaf, 0xf5, 0x2d, 0xbe, 
  0x09, 0x67, 0x36, 0xbf, 0xcb, 0x55, 0xa6, 0xbd, 0x3d, 0xa0, 0xac, 0xbc, 
  0x0e, 0x06, 0xa8, 0x3d, 0xa6, 0xd2, 0x63, 0x3c, 0xa3, 0x48, 0xb8, 0xbd, 
  0xcf, 0x42, 0x5b, 0x3e, 0x4e, 0x76, 0x98, 0x3f, 0xf2, 0x1e, 0x9a, 0xbd, 
  0x70, 0x89, 0x9d, 0xba, 0x3b, 0xda, 0x8a, 0x3f, 0x93, 0x42, 0x3c, 0x3b, 
  0xd9, 0x6d, 0x76, 0xbb, 0xf4, 0x24, 0xc2, 0x3a, 0xef, 0x6c, 0xb5, 0x3d, 
  0x64, 0xdf, 0x6b, 0xbd, 0xb8, 0x7c, 0xda, 0xbd, 0xde, 0x1a, 0xa0, 0x3b, 
  0x1b, 0xa8, 0x7a, 0x3f, 0x98, 0x19, 0xa2, 0xbb, 0x2a, 0x5e, 0xac, 0xb9, 
  0x9d, 0x17, 0xd3, 0x3b, 0x79, 0x31, 0x0e, 0xbd, 0xad, 0xaa, 0x03, 0x3d, 
  0x1f, 0x0e, 0x3e, 0x3d, 0xa7, 0xfd, 0x70, 0xbe, 0x4b, 0x31, 0x42, 0xbf, 
  0x3c, 0x40, 0x6e, 0xbe, 0x98, 0x43, 0xb5, 0xbe, 0xfc, 0xf0, 0x4d, 0xbd, 
  0x7c, 0xc2, 0xcb, 0xbe, 0x17, 0x67, 0xc9, 0xbd, 0x55, 0x18, 0x02, 0xbf, 
  0xee, 0x6a, 0x88, 0xbd, 0x4f, 0x96, 0x02, 0xbe, 0xcb, 0xe6, 0x01, 0x3e, 
  0xed, 0x17, 0x97, 0xbd, 0xff, 0xa7, 0x44, 0xbc, 0xfa, 0xb4, 0x6f, 0x3e, 
  0x87, 0x3a, 0xaf, 0xbe, 0x4e, 0xc7, 0xea, 0x3f, 0xe1, 0x6d, 0x7a, 0xbc, 
  0x25, 0x8b, 0xca, 0xbd, 0x1d, 0x69, 0x0e, 0x3c, 0x7b, 0xc3, 0x1b, 0xbc, 
  0xb7, 0x95, 0x92, 0x3c, 0x6f, 0x8f, 0x15, 0xbf, 0x2c, 0xc3, 0xb6, 0x3e, 
  0xbe, 0x60, 0xa7, 0xbe, 0x0f, 0x5d, 0x0b, 0x3d, 0x06, 0x5c, 0xf5, 0xbd, 
  0x0e, 0xaf, 0xea, 0xbc, 0xb0, 0x11, 0x89, 0x3d, 0x69, 0xed, 0x0d, 0x3c, 
  0x0d, 0x98, 0xf7, 0xbe, 0x02, 0xad, 0xde, 0x3e, 0x39, 0x50, 0x95, 0xbf, 
  0x1f, 0x66, 0x39, 0x3d, 0xac, 0x25, 0xa9, 0xbe, 0xc7, 0xa2, 0x71, 0x3c, 
  0x7e, 0x36, 0x9a, 0xbd, 0x09, 0x60, 0x22, 0x3c, 0x32, 0xfd, 0xd8, 0x3e, 
  0x31, 0x24, 0xbd, 0x3e, 0x3d, 0xa6, 0x8d, 0xbe, 0x1d, 0xe6, 0x68, 0xbd, 
  0xa4, 0xc1, 0x60, 0xbf, 0x3f, 0x8a, 0x94, 0x3e, 0x0c, 0xed, 0xf9, 0x3c, 
  0xa7, 0x80, 0x95, 0xbc, 0x8a, 0x3b, 0x87, 0xbe, 0x89, 0xf2, 0xad, 0x3d, 
  0x8c, 0x78, 0xc6, 0xbe, 0xa3, 0xf9, 0x12, 0xbf, 0x8a, 0xe6, 0xb6, 0xbc, 
  0x6d, 0xb5, 0x47, 0xbb, 0x3f, 0x8e, 0x38, 0x3b, 0x22, 0xb7, 0x50, 0x3a, 
  0x42, 0x29, 0xb8, 0xbb, 0xc2, 0x6d, 0xa2, 0x3c, 0xee, 0x2b, 0xf2, 0xba, 
  0x73, 0x2f, 0x71, 0xbe, 0x30, 0x38, 0xde, 0xbd, 0x75, 0x32, 0x2d, 0x3e, 
  0x8e, 0x83, 0xa9, 0x3e, 0x44, 0x0e, 0x77, 0xbe, 0xed, 0x82, 0xe4, 0x3e, 
  0x85, 0xc9, 0xaf, 0x3e, 0x37, 0x33, 0x5b, 0x3d, 0xc9, 0x90, 0x54, 0xbe, 
  0x3c, 0x5e, 0xb5, 0x3d, 0xd4, 0x19, 0x23, 0x3f, 0x11, 0xc8, 0xed, 0x3d, 
  0x4c, 0x86, 0x23, 0xbd, 0xe6, 0x8e, 0x9e, 0xbf, 0xa0, 0xd8, 0x67, 0xbe, 
  0x98, 0x15, 0x91, 0xbe, 0x27, 0x5c, 0x41, 0x3e, 0x5e, 0x26, 0x92, 0xbc, 
  0xd7, 0x12, 0x80, 0xbe, 0x88, 0x4f, 0x34, 0x3c, 0xaf, 0xbd, 0xa8, 0xbb, 
  0xef, 0xa1, 0xb2, 0x3e, 0xed, 0x2b, 0xfc, 0x3e, 0x9f, 0x74, 0x5b, 0x3e, 
  0x22, 0xb9, 0xd6, 0x3e, 0x92, 0x88, 0x5b, 0x3e, 0xbd, 0xfd, 0x52, 0x3f, 
  0x73, 0x49, 0x35, 0x3e, 0x62, 0x20, 0x66, 0xbd, 0x17, 0x09, 0x3e, 0x3d, 
  0x87, 0x4d, 0x80, 0xbd, 0x4b, 0x22, 0x0e, 0x3f, 0x9f, 0xb8, 0x8c, 0xbb, 
  0x16, 0x41, 0xd6, 0xbb, 0xbe, 0x7c, 0x70, 0x3c, 0x4e, 0x15, 0x44, 0x39, 
  0x95, 0xc7, 0x33, 0x3c, 0x5e, 0x46, 0xa4, 0x3e, 0x1c, 0x86, 0x99, 0xbe, 
  0x99, 0xfd, 0xb6, 0x3e, 0x7b, 0xaf, 0x9e, 0xbd, 0x9c, 0x7b, 0xc3, 0x3f, 
  0x3c, 0x0d, 0x4b, 0xbd, 0x2f, 0x72, 0xf5, 0xbc, 0xf3, 0x8c, 0x6b, 0xbd, 
  0x74, 0x22, 0x3a, 0x3e, 0xc2, 0x60, 0x6d, 0xbd, 0xd2, 0xe0, 0xeb, 0xbd, 
  0x1b, 0xe8, 0x79, 0xbc, 0x34, 0x16, 0xf6, 0xbe, 0x89, 0x77, 0x86, 0xbb, 
  0xa4, 0xe0, 0x2d, 0xba, 0x0a, 0xc4, 0x82, 0x3c, 0x01, 0x8e, 0xce, 0xbc, 
  0x9f, 0x11, 0x08, 0x3c, 0xa8, 0x7a, 0xb0, 0x3c, 0x12, 0x66, 0x11, 0xbe, 
  0x56, 0xae, 0x46, 0xbc, 0xbe, 0x4e, 0x77, 0x3f, 0x17, 0x4f, 0x30, 0xbe, 
  0x95, 0xba, 0xa1, 0xbb, 0x44, 0xd0, 0xd2, 0x3b, 0xe9, 0xa1, 0xd9, 0x3d, 
  0xde, 0x62, 0x21, 0xbf, 0xa3, 0xd4, 0xcf, 0x3d, 0x95, 0x29, 0x2a, 0xbf, 
  0x75, 0x5e, 0x59, 0xbe, 0x60, 0x1d, 0x40, 0x3d, 0x86, 0xb1, 0xec, 0x3e, 
  0x72, 0x0c, 0x14, 0xbe, 0x5b, 0x90, 0x0d, 0xbd, 0xed, 0xbc, 0x1b, 0xbe, 
  0xb1, 0xc5, 0x8f, 0xbd, 0xdd, 0x78, 0x88, 0xbb, 0x89, 0x2f, 0xb6, 0x3c, 
  0x46, 0x0f, 0xfb, 0xbc, 0x9a, 0x8a, 0xf0, 0x39, 0xfd, 0x5a, 0x3c, 0xbf, 
  0x13, 0x50, 0x03, 0x3f, 0xd5, 0xf5, 0xa5, 0xbf, 0x73, 0x74, 0x89, 0xbb, 
  0x0e, 0x86, 0xcf, 0xbd, 0x96, 0xf0, 0xd8, 0xbf, 0x3b, 0x97, 0x00, 0xbd, 
  0xad, 0xb4, 0x57, 0xbd, 0x0d, 0x7f, 0x9c, 0x3e, 0xbc, 0x91, 0x11, 0xbe, 
  0x2b, 0x7c, 0x97, 0xbe, 0xbc, 0xac, 0x2c, 0xbd, 0x5e, 0xdd, 0xaa, 0xbe, 
  0xbb, 0xef, 0x1b, 0x3d, 0xcb, 0x1c, 0xa7, 0x3d, 0xd0, 0x91, 0x02, 0xbd, 
  0xbb, 0x85, 0x53, 0x3e, 0xd2, 0x59, 0x11, 0x3f, 0xde, 0xf5, 0x2c, 0xbf, 
  0x55, 0x8a, 0x7e, 0xbc, 0x01, 0x0e, 0x39, 0x40, 0x9b, 0xac, 0xf2, 0x3c, 
  0xf3, 0xaa, 0x12, 0xbe, 0x6d, 0xf7, 0x41, 0x39, 0xcc, 0xf6, 0x59, 0x3b, 
  0x91, 0x47, 0xc7, 0xbc, 0xf4, 0x4e, 0x0c, 0x3d, 0xad, 0x70, 0x9a, 0x3d, 
  0xf5, 0x93, 0x8b, 0x3d, 0x95, 0x16, 0xaf, 0xbc, 0x9a, 0xe7, 0x86, 0xbd, 
  0x38, 0xae, 0x68, 0xbd, 0x8b, 0x7f, 0x07, 0xbe, 0xd9, 0x68, 0x19, 0x3e, 
  0xa7, 0x55, 0x13, 0x3f, 0xf9, 0x2f, 0x11, 0xbd, 0x04, 0xac, 0x99, 0xbe, 
  0x96, 0xcd, 0xf6, 0xbe, 0x1c, 0x80, 0x2f, 0xbe, 0xce, 0xe6, 0xe2, 0x3d, 
  0x4c, 0x28, 0x45, 0x3e, 0x71, 0x30, 0x0d, 0xbd, 0x5f, 0x7b, 0x82, 0x3f, 
  0x13, 0x3a, 0x89, 0x3e, 0x91, 0xe7, 0xc8, 0xbd, 0x3f, 0x4c, 0x01, 0xbf, 
  0xd3, 0xa4, 0x8c, 0x3e, 0xa3, 0xec, 0x47, 0x3e, 0x78, 0x4b, 0x84, 0xbe, 
  0xa6, 0x8a, 0x22, 0xbf, 0x0a, 0xf8, 0x69, 0xbe, 0x2f, 0xa4, 0x46, 0xbb, 
  0x60, 0x66, 0xd9, 0xbc, 0xca, 0xf9, 0x4c, 0x3d, 0x07, 0xdf, 0x0f, 0xbd, 
  0xae, 0x8f, 0xec, 0xba, 0xbb, 0xab, 0x26, 0xbf, 0xac, 0x5e, 0xe2, 0x3e, 
  0xb6, 0x72, 0x76, 0xbf, 0xea, 0x80, 0xe7, 0x3c, 0x61, 0x96, 0x87, 0xbf, 
  0x2b, 0xc9, 0x45, 0x3b, 0x6a, 0x40, 0xd3, 0x3c, 0xf8, 0x12, 0xaa, 0xbb, 
  0xc3, 0xf5, 0x2b, 0xbe, 0x03, 0xb8, 0xfe, 0x3d, 0xf0, 0xe2, 0x6f, 0x3e, 
  0x0f, 0x16, 0x81, 0x3f, 0xc9, 0x6f, 0x27, 0xbd, 0x16, 0xae, 0x39, 0xbe, 
  0x68, 0xbc, 0xae, 0xbd, 0x8f, 0x8a, 0x19, 0x3d, 0xfe, 0x32, 0x8a, 0x3d, 
  0x73, 0xc4, 0x12, 0xbe, 0x0f, 0xe4, 0x88, 0x3e, 0xb4, 0x29, 0x89, 0x3c, 
  0x07, 0x9a, 0xaf, 0xb9, 0xde, 0xea, 0x9c, 0xbf, 0x2c, 0xa5, 0x46, 0x3b, 
  0x18, 0x03, 0xdf, 0xba, 0x6a, 0x0c, 0xe1, 0x3d, 0xd7, 0x55, 0xfe, 0xbd, 
  0x16, 0x34, 0x3e, 0xbe, 0x52, 0xdb, 0x75, 0xbe, 0x7d, 0x7f, 0x94, 0x3e, 
  0xae, 0x41, 0xba, 0x3f, 0x05, 0x76, 0xdd, 0xbd, 0xc3, 0xd4, 0xea, 0xbb, 
  0x99, 0x34, 0x05, 0x3d, 0xa7, 0xc0, 0x33, 0xbe, 0xba, 0xb9, 0x5b, 0x3e, 
  0x2a, 0x51, 0xc2, 0x3a, 0x57, 0x9b, 0x9c, 0x3b, 0x3f, 0x2f, 0x11, 0x3c, 
  0x1d, 0x2e, 0x9a, 0xba, 0x7a, 0x5a, 0x88, 0xba, 0xc7, 0x51, 0x88, 0xbe, 
  0x85, 0x86, 0x1c, 0x3e, 0xa9, 0xc6, 0x0a, 0xbf, 0xf3, 0xef, 0x1b, 0xbc, 
  0x7e, 0x6d, 0x3d, 0x3f, 0x39, 0x56, 0x71, 0x3a, 0x42, 0x99, 0xe4, 0xba, 
  0xe7, 0xf8, 0x8c, 0xbb, 0xff, 0xbb, 0x51, 0xbd, 0x98, 0xf5, 0x8a, 0x3d, 
  0x47, 0x0f, 0xaf, 0x3d, 0xc9, 0x9d, 0xd9, 0x3d, 0x92, 0x6e, 0x56, 0xbd, 
  0xbc, 0x66, 0x18, 0xbf, 0xc1, 0x83, 0x08, 0x3e, 0x25, 0xe2, 0xac, 0x3c, 
  0x68, 0x18, 0xf1, 0x3c, 0xb7, 0xf1, 0x44, 0x3b, 0x53, 0x41, 0x51, 0x3c, 
  0x34, 0x41, 0x32, 0x3a, 0x84, 0xac, 0xab, 0xbc, 0xa2, 0xc9, 0x49, 0x3d, 
  0x01, 0x7a, 0x5c, 0x3f, 0xa0, 0xb0, 0x2f, 0x3c, 0x22, 0xfa, 0xc5, 0x3d, 
  0x8c, 0x72, 0x8e, 0xbd, 0x9d, 0x02, 0xd5, 0xbd, 0x4e, 0x07, 0x96, 0xbd, 
  0x0f, 0x79, 0x0c, 0xbf, 0x2b, 0x91, 0x16, 0x3e, 0x7a, 0x83, 0x2f, 0x3e, 
  0x4c, 0x24, 0xcb, 0x3c, 0x7c, 0x4a, 0xeb, 0xbe, 0x1c, 0x44, 0x98, 0xbe, 
  0x00, 0x2f, 0x01, 0xbf, 0x18, 0xf7, 0xff, 0xff, 0x1c, 0xf7, 0xff, 0xff, 
  0x0f, 0x00, 0x00, 0x00, 0x4d, 0x4c, 0x49, 0x52, 0x20, 0x43, 0x6f, 0x6e, 
  0x76, 0x65, 0x72, 0x74, 0x65, 0x64, 0x2e, 0x00, 0x01, 0x00, 0x00, 0x00, 
  0x14, 0x00, 0x00, 0x00, 0x00, 0x00, 0x0e, 0x00, 0x18, 0x00, 0x14, 0x00, 
  0x10, 0x00, 0x0c, 0x00, 0x08, 0x00, 0x04, 0x00, 0x0e, 0x00, 0x00, 0x00, 
  0x14, 0x00, 0x00, 0x00, 0x1c, 0x00, 0x00, 0x00, 0x5c, 0x01, 0x00, 0x00, 
  0x60, 0x01, 0x00, 0x00, 0x64, 0x01, 0x00, 0x00, 0x04, 0x00, 0x00, 0x00, 
  0x6d, 0x61, 0x69, 0x6e, 0x00, 0x00, 0x00, 0x00, 0x05, 0x00, 0x00, 0x00, 
  0x04, 0x01, 0x00, 0x00, 0xb0, 0x00, 0x00, 0x00, 0x68, 0x00, 0x00, 0x00, 
  0x34, 0x00, 0x00, 0x00, 0x10, 0x00, 0x00, 0x00, 0x00, 0x00, 0x0a, 0x00, 
  0x10, 0x00, 0x0c, 0x00, 0x08, 0x00, 0x04, 0x00, 0x0a, 0x00, 0x00, 0x00, 
  0x0c, 0x00, 0x00, 0x00, 0x10, 0x00, 0x00, 0x00, 0x01, 0x00, 0x00, 0x00, 
  0x01, 0x00, 0x00, 0x00, 0x0d, 0x00, 0x00, 0x00, 0x01, 0x00, 0x00, 0x00, 
  0x0c, 0x00, 0x00, 0x00, 0x9a, 0xff, 0xff, 0xff, 0x10, 0x00, 0x00, 0x00, 
  0x00, 0x00, 0x00, 0x08, 0x0c, 0x00, 0x00, 0x00, 0x10, 0x00, 0x00, 0x00, 
  0xc8, 0xf7, 0xff, 0xff, 0x01, 0x00, 0x00, 0x00, 0x0c, 0x00, 0x00, 0x00, 
  0x03, 0x00, 0x00, 0x00, 0x0b, 0x00, 0x00, 0x00, 0x06, 0x00, 0x00, 0x00, 
  0x04, 0x00, 0x00, 0x00, 0xca, 0xff, 0xff, 0xff, 0x10, 0x00, 0x00, 0x00, 
  0x00, 0x00, 0x00, 0x08, 0x10, 0x00, 0x00, 0x00, 0x14, 0x00, 0x00, 0x00, 
  0x6a, 0xff, 0xff, 0xff, 0x00, 0x00, 0x00, 0x01, 0x01, 0x00, 0x00, 0x00, 
  0x0b, 0x00, 0x00, 0x00, 0x03, 0x00, 0x00, 0x00, 0x0a, 0x00, 0x00, 0x00, 
  0x05, 0x00, 0x00, 0x00, 0x03, 0x00, 0x00, 0x00, 0x00, 0x00, 0x0e, 0x00, 
  0x14, 0x00, 0x00, 0x00, 0x10, 0x00, 0x0c, 0x00, 0x0b, 0x00, 0x04, 0x00, 
  0x0e, 0x00, 0x00, 0x00, 0x1c, 0x00, 0x00, 0x00, 0x00, 0x00, 0x00, 0x08, 
  0x1c, 0x00, 0x00, 0x00, 0x20, 0x00, 0x00, 0x00, 0x0c, 0x00, 0x08, 0x00, 
  0x07, 0x00, 0x00, 0x00, 0x00, 0x00, 0x06, 0x00, 0x0c, 0x00, 0x00, 0x00, 
  0x00, 0x00, 0x01, 0x01, 0x01, 0x00, 0x00, 0x00, 0x0a, 0x00, 0x00, 0x00, 
  0x03, 0x00, 0x00, 0x00, 0x09, 0x00, 0x00, 0x00, 0x08, 0x00, 0x00, 0x00, 
  0x07, 0x00, 0x00, 0x00, 0x00, 0x00, 0x0e, 0x00, 0x16, 0x00, 0x00, 0x00, 
  0x10, 0x00, 0x0c, 0x00, 0x0b, 0x00, 0x04, 0x00, 0x0e, 0x00, 0x00, 0x00, 
  0x18, 0x00, 0x00, 0x00, 0x00, 0x00, 0x00, 0x08, 0x18, 0x00, 0x00, 0x00, 
  0x1c, 0x00, 0x00, 0x00, 0x00, 0x00, 0x06, 0x00, 0x08, 0x00, 0x07, 0x00, 
  0x06, 0x00, 0x00, 0x00, 0x00, 0x00, 0x00, 0x01, 0x01, 0x00, 0x00, 0x00, 
  0x09, 0x00, 0x00, 0x00, 0x03, 0x00, 0x00, 0x00, 0x00, 0x00, 0x00, 0x00, 
  0x01, 0x00, 0x00, 0x00, 0x02, 0x00, 0x00, 0x00, 0x01, 0x00, 0x00, 0x00, 
  0x0d, 0x00, 0x00, 0x00, 0x01, 0x00, 0x00, 0x00, 0x00, 0x00, 0x00, 0x00, 
  0x0e, 0x00, 0x00, 0x00, 0x10, 0x07, 0x00, 0x00, 0xb8, 0x06, 0x00, 0x00, 
  0x64, 0x06, 0x00, 0x00, 0x28, 0x06, 0x00, 0x00, 0xec, 0x05, 0x00, 0x00, 
  0xac, 0x05, 0x00, 0x00, 0x6c, 0x05, 0x00, 0x00, 0x30, 0x05, 0x00, 0x00, 
  0x48, 0x03, 0x00, 0x00, 0x90, 0x02, 0x00, 0x00, 0x80, 0x01, 0x00, 0x00, 
  0xe0, 0x00, 0x00, 0x00, 0x60, 0x00, 0x00, 0x00, 0x04, 0x00, 0x00, 0x00, 
  0x3e, 0xf9, 0xff, 0xff, 0x00, 0x00, 0x00, 0x01, 0x14, 0x00, 0x00, 0x00, 
  0x1c, 0x00, 0x00, 0x00, 0x1c, 0x00, 0x00, 0x00, 0x0e, 0x00, 0x00, 0x00, 
  0x34, 0x00, 0x00, 0x00, 0x02, 0x00, 0x00, 0x00, 0xff, 0xff, 0xff, 0xff, 
  0x01, 0x00, 0x00, 0x00, 0x28, 0xf9, 0xff, 0xff, 0x1b, 0x00, 0x00, 0x00, 
  0x53, 0x74, 0x61, 0x74, 0x65, 0x66, 0x75, 0x6c, 0x50, 0x61, 0x72, 0x74, 
  0x69, 0x74, 0x69, 0x6f, 0x6e, 0x65, 0x64, 0x43, 0x61, 0x6c, 0x6c, 0x5f, 
  0x31, 0x3a, 0x30, 0x00, 0x02, 0x00, 0x00, 0x00, 0x01, 0x00, 0x00, 0x00, 
  0x01, 0x00, 0x00, 0x00, 0x96, 0xf9, 0xff, 0xff, 0x00, 0x00, 0x00, 0x01, 
  0x14, 0x00, 0x00, 0x00, 0x1c, 0x00, 0x00, 0x00, 0x1c, 0x00, 0x00, 0x00, 
  0x0d, 0x00, 0x00, 0x00, 0x58, 0x00, 0x00, 0x00, 0x02, 0x00, 0x00, 0x00, 
  0xff, 0xff, 0xff, 0xff, 0x01, 0x00, 0x00, 0x00, 0x80, 0xf9, 0xff, 0xff, 
  0x3c, 0x00, 0x00, 0x00, 0x73, 0x65, 0x71, 0x75, 0x65, 0x6e, 0x74, 0x69, 
  0x61, 0x6c, 0x5f, 0x31, 0x5f, 0x31, 0x2f, 0x64, 0x65, 0x6e, 0x73, 0x65, 
  0x5f, 0x37, 0x5f, 0x31, 0x2f, 0x4d, 0x61, 0x74, 0x4d, 0x75, 0x6c, 0x3b, 
  0x73, 0x65, 0x71, 0x75, 0x65, 0x6e, 0x74, 0x69, 0x61, 0x6c, 0x5f, 0x31, 
  0x5f, 0x31, 0x2f, 0x64, 0x65, 0x6e, 0x73, 0x65, 0x5f, 0x37, 0x5f, 0x31, 
  0x2f, 0x41, 0x64, 0x64, 0x00, 0x00, 0x00, 0x00, 0x02, 0x00, 0x00, 0x00, 
  0x01, 0x00, 0x00, 0x00, 0x01, 0x00, 0x00, 0x00, 0x12, 0xfa, 0xff, 0xff, 
  0x00, 0x00, 0x00, 0x01, 0x14, 0x00, 0x00, 0x00, 0x1c, 0x00, 0x00, 0x00, 
  0x1c, 0x00, 0x00, 0x00, 0x0c, 0x00, 0x00, 0x00, 0x78, 0x00, 0x00, 0x00, 
  0x02, 0x00, 0x00, 0x00, 0xff, 0xff, 0xff, 0xff, 0x10, 0x00, 0x00, 0x00, 
  0xfc, 0xf9, 0xff, 0xff, 0x5e, 0x00, 0x00, 0x00, 0x73, 0x65, 0x71, 0x75, 
  0x65, 0x6e, 0x74, 0x69, 0x61, 0x6c, 0x5f, 0x31, 0x5f, 0x31, 0x2f, 0x64, 
  0x65, 0x6e, 0x73, 0x65, 0x5f, 0x36, 0x5f, 0x31, 0x2f, 0x4d, 0x61, 0x74, 
  0x4d, 0x75, 0x6c, 0x3b, 0x73, 0x65, 0x71, 0x75, 0x65, 0x6e, 0x74, 0x69, 
  0x61, 0x6c, 0x5f, 0x31, 0x5f, 0x31, 0x2f, 0x64, 0x65, 0x6e, 0x73, 0x65, 
  0x5f, 0x36, 0x5f, 0x31, 0x2f, 0x52, 0x65, 0x6c, 0x75, 0x3b, 0x73, 0x65, 
  0x71, 0x75, 0x65, 0x6e, 0x74, 0x69, 0x61, 0x6c, 0x5f, 0x31, 0x5f, 0x31, 
  0x2f, 0x64, 0x65, 0x6e, 0x73, 0x65, 0x5f, 0x36, 0x5f, 0x31, 0x2f, 0x42, 
  0x69, 0x61, 0x73, 0x41, 0x64, 0x64, 0x00, 0x00, 0x02, 0x00, 0x00, 0x00, 
  0x01, 0x00, 0x00, 0x00, 0x10, 0x00, 0x00, 0x00, 0xae, 0xfa, 0xff, 0xff, 
  0x00, 0x00, 0x00, 0x01, 0x14, 0x00, 0x00, 0x00, 0x1c, 0x00, 0x00, 0x00, 
  0x1c, 0x00, 0x00, 0x00, 0x0b, 0x00, 0x00, 0x00, 0xe8, 0x00, 0x00, 0x00, 
  0x02, 0x00, 0x00, 0x00, 0xff, 0xff, 0xff, 0xff, 0x20, 0x00, 0x00, 0x00, 
  0x98, 0xfa, 0xff, 0xff, 0xcc, 0x00, 0x00, 0x00, 0x73, 0x65, 0x71, 0x75, 
  0x65, 0x6e, 0x74, 0x69, 0x61, 0x6c, 0x5f, 0x31, 0x5f, 0x31, 0x2f, 0x62, 
  0x61, 0x74, 0x63, 0x68, 0x5f, 0x6e, 0x6f, 0x72, 0x6d, 0x61, 0x6c, 0x69, 
  0x7a, 0x61, 0x74, 0x69, 0x6f, 0x6e, 0x5f, 0x31, 0x5f, 0x31, 0x2f, 0x62, 
  0x61, 0x74, 0x63, 0x68, 0x6e, 0x6f, 0x72, 0x6d, 0x2f, 0x6d, 0x75, 0x6c, 
  0x5f, 0x31, 0x3b, 0x73, 0x65, 0x71, 0x75, 0x65, 0x6e, 0x74, 0x69, 0x61, 
  0x6c, 0x5f, 0x31, 0x5f, 0x31, 0x2f, 0x62, 0x61, 0x74, 0x63, 0x68, 0x5f, 
  0x6e, 0x6f, 0x72, 0x6d, 0x61, 0x6c, 0x69, 0x7a, 0x61, 0x74, 0x69, 0x6f, 
  0x6e, 0x5f, 0x31, 0x5f, 0x31, 0x2f, 0x62, 0x61, 0x74, 0x63, 0x68, 0x6e, 
  0x6f, 0x72, 0x6d, 0x2f, 0x61, 0x64, 0x64, 0x5f, 0x31, 0x3b, 0x73, 0x65, 
  0x71, 0x75, 0x65, 0x6e, 0x74, 0x69, 0x61, 0x6c, 0x5f, 0x31, 0x5f, 0x31, 
  0x2f, 0x64, 0x65, 0x6e, 0x73, 0x65, 0x5f, 0x35, 0x5f, 0x31, 0x2f, 0x4d, 
  0x61, 0x74, 0x4d, 0x75, 0x6c, 0x3b, 0x73, 0x65, 0x71, 0x75, 0x65, 0x6e, 
  0x74, 0x69, 0x61, 0x6c, 0x5f, 0x31, 0x5f, 0x31, 0x2f, 0x64, 0x65, 0x6e, 
  0x73, 0x65, 0x5f, 0x35, 0x5f, 0x31, 0x2f, 0x52, 0x65, 0x6c, 0x75, 0x3b, 
  0x73, 0x65, 0x71, 0x75, 0x65, 0x6e, 0x74, 0x69, 0x61, 0x6c, 0x5f, 0x31, 
  0x5f, 0x31, 0x2f, 0x64, 0x65, 0x6e, 0x73, 0x65, 0x5f, 0x35, 0x5f, 0x31, 
  0x2f, 0x42, 0x69, 0x61, 0x73, 0x41, 0x64, 0x64, 0x00, 0x00, 0x00, 0x00, 
  0x02, 0x00, 0x00, 0x00, 0x01, 0x00, 0x00, 0x00, 0x20, 0x00, 0x00, 0x00, 
  0xba, 0xfb, 0xff, 0xff, 0x00, 0x00, 0x00, 0x01, 0x14, 0x00, 0x00, 0x00, 
  0x1c, 0x00, 0x00, 0x00, 0x1c, 0x00, 0x00, 0x00, 0x0a, 0x00, 0x00, 0x00, 
  0x78, 0x00, 0x00, 0x00, 0x02, 0x00, 0x00, 0x00, 0xff, 0xff, 0xff, 0xff, 
  0x40, 0x00, 0x00, 0x00, 0xa4, 0xfb, 0xff, 0xff, 0x5e, 0x00, 0x00, 0x00, 
  0x73, 0x65, 0x71, 0x75, 0x65, 0x6e, 0x74, 0x69, 0x61, 0x6c, 0x5f, 0x31, 
  0x5f, 0x31, 0x2f, 0x64, 0x65, 0x6e, 0x73, 0x65, 0x5f, 0x34, 0x5f, 0x31, 
  0x2f, 0x4d, 0x61, 0x74, 0x4d, 0x75, 0x6c, 0x3b, 0x73, 0x65, 0x71, 0x75, 
  0x65, 0x6e, 0x74, 0x69, 0x61, 0x6c, 0x5f, 0x31, 0x5f, 0x31, 0x2f, 0x64, 
  0x65, 0x6e, 0x73, 0x65, 0x5f, 0x34, 0x5f, 0x31, 0x2f, 0x52, 0x65, 0x6c, 
  0x75, 0x3b, 0x73, 0x65, 0x71, 0x75, 0x65, 0x6e, 0x74, 0x69, 0x61, 0x6c, 
  0x5f, 0x31, 0x5f, 0x31, 0x2f, 0x64, 0x65, 0x6e, 0x73, 0x65, 0x5f, 0x34, 
  0x5f, 0x31, 0x2f, 0x42, 0x69, 0x61, 0x73, 0x41, 0x64, 0x64, 0x00, 0x00, 
  0x02, 0x00, 0x00, 0x00, 0x01, 0x00, 0x00, 0x00, 0x40, 0x00, 0x00, 0x00, 
  0x00, 0x00, 0x16, 0x00, 0x1c, 0x00, 0x18, 0x00, 0x17, 0x00, 0x10, 0x00, 
  0x0c, 0x00, 0x08, 0x00, 0x00, 0x00, 0x00, 0x00, 0x00, 0x00, 0x07, 0x00, 
  0x16, 0x00, 0x00, 0x00, 0x00, 0x00, 0x00, 0x01, 0x20, 0x00, 0x00, 0x00, 
  0xb4, 0x01, 0x00, 0x00, 0x09, 0x00, 0x00, 0x00, 0x00, 0x00, 0x00, 0x09, 
  0xc0, 0x01, 0x00, 0x00, 0x0c, 0x00, 0x0c, 0x00, 0x00, 0x00, 0x00, 0x00, 
  0x08, 0x00, 0x04, 0x00, 0x0c, 0x00, 0x00, 0x00, 0x08, 0x00, 0x00, 0x00, 
  0x0c, 0x01, 0x00, 0x00, 0x20, 0x00, 0x00, 0x00, 0x00, 0x00, 0x00, 0x00, 
  0x00, 0x00, 0x00, 0x00, 0x00, 0x00, 0x00, 0x00, 0x00, 0x00, 0x00, 0x00, 
  0x00, 0x00, 0x00, 0x00, 0x00, 0x00, 0x00, 0x00, 0x00, 0x00, 0x00, 0x00, 
  0x00, 0x00, 0x00, 0x00, 0x00, 0x00, 0x00, 0x00, 0x00, 0x00, 0x00, 0x00, 
  0x00, 0x00, 0x00, 0x00, 0x00, 0x00, 0x00, 0x00, 0x00, 0x00, 0x00, 0x00, 
  0x00, 0x00, 0x00, 0x00, 0x00, 0x00, 0x00, 0x00, 0x00, 0x00, 0x00, 0x00, 
  0x00, 0x00, 0x00, 0x00, 0x00, 0x00, 0x00, 0x00, 0x00, 0x00, 0x00, 0x00, 
  0x00, 0x00, 0x00, 0x00, 0x00, 0x00, 0x00, 0x00, 0x00, 0x00, 0x00, 0x00, 
  0x00, 0x00, 0x00, 0x00, 0x00, 0x00, 0x00, 0x00, 0x00, 0x00, 0x00, 0x00, 
  0x00, 0x00, 0x00, 0x00, 0x00, 0x00, 0x00, 0x00, 0x00, 0x00, 0x00, 0x00, 
  0x00, 0x00, 0x00, 0x00, 0x00, 0x00, 0x00, 0x00, 0x00, 0x00, 0x00, 0x00, 
  0x00, 0x00, 0x00, 0x00, 0x00, 0x00, 0x00, 0x00, 0x00, 0x00, 0x00, 0x00, 
  0x00, 0x00, 0x00, 0x00, 0x00, 0x00, 0x00, 0x00, 0x00, 0x00, 0x00, 0x00, 
  0x00, 0x00, 0x00, 0x00, 0x00, 0x00, 0x00, 0x00, 0x00, 0x00, 0x00, 0x00, 
  0x00, 0x00, 0x00, 0x00, 0x00, 0x00, 0x00, 0x00, 0x00, 0x00, 0x00, 0x00, 
  0x00, 0x00, 0x00, 0x00, 0x00, 0x00, 0x00, 0x00, 0x00, 0x00, 0x00, 0x00, 
  0x00, 0x00, 0x00, 0x00, 0x00, 0x00, 0x00, 0x00, 0x00, 0x00, 0x00, 0x00, 
  0x00, 0x00, 0x00, 0x00, 0x00, 0x00, 0x00, 0x00, 0x00, 0x00, 0x00, 0x00, 
  0x00, 0x00, 0x00, 0x00, 0x00, 0x00, 0x00, 0x00, 0x00, 0x00, 0x00, 0x00, 
  0x00, 0x00, 0x00, 0x00, 0x00, 0x00, 0x00, 0x00, 0x00, 0x00, 0x00, 0x00, 
  0x00, 0x00, 0x00, 0x00, 0x00, 0x00, 0x00, 0x00, 0x00, 0x00, 0x00, 0x00, 
  0x00, 0x00, 0x00, 0x00, 0x00, 0x00, 0x00, 0x00, 0x00, 0x00, 0x00, 0x00, 
  0x00, 0x00, 0x00, 0x00, 0x20, 0x00, 0x00, 0x00, 0xc1, 0x21, 0xf6, 0x3d, 
  0x7b, 0x13, 0xa7, 0x3e, 0xac, 0x7e, 0x4b, 0x3e, 0x29, 0x3e, 0x03, 0x3e, 
  0x41, 0xd3, 0xe1, 0x3d, 0x07, 0xc1, 0x56, 0x3e, 0x03, 0x71, 0x87, 0x3e, 
  0x07, 0xc7, 0x92, 0x3d, 0xee, 0x54, 0x88, 0x3d, 0x0e, 0xc6, 0xd3, 0x3d, 
  0x1d, 0x8e, 0xaa, 0x3e, 0x92, 0x79, 0xc2, 0x3d, 0x55, 0xfa, 0x9a, 0x3d, 
  0x5b, 0x70, 0x06, 0x3e, 0x68, 0x57, 0xe9, 0x3d, 0xed, 0x8a, 0x8c, 0x3d, 
  0x38, 0x73, 0x1f, 0x3e, 0xe1, 0xf8, 0x14, 0x3e, 0x95, 0x46, 0x81, 0x3e, 
  0x61, 0x1c, 0x98, 0x3d, 0x0e, 0xc1, 0xd2, 0x3e, 0xf9, 0xda, 0x00, 0x3e, 
  0xe8, 0xa0, 0x1b, 0x3e, 0x97, 0x36, 0x10, 0x3e, 0xbd, 0x48, 0x99, 0x3d, 
  0x66, 0x2f, 0x27, 0x3e, 0xef, 0xf8, 0xa7, 0x3d, 0x68, 0x83, 0xf0, 0x3d, 
  0x11, 0x70, 0x0e, 0x3e, 0xd0, 0x8f, 0xd8, 0x3d, 0x0b, 0x0b, 0x9a, 0x3d, 
  0x71, 0x8c, 0x92, 0x3d, 0x11, 0x00, 0x00, 0x00, 0x74, 0x66, 0x6c, 0x2e, 
  0x70, 0x73, 0x65, 0x75, 0x64, 0x6f, 0x5f, 0x71, 0x63, 0x6f, 0x6e, 0x73, 
  0x74, 0x00, 0x00, 0x00, 0x02, 0x00, 0x00, 0x00, 0x20, 0x00, 0x00, 0x00, 
  0x40, 0x00, 0x00, 0x00, 0xa6, 0xfe, 0xff, 0xff, 0x00, 0x00, 0x00, 0x01, 
  0x10, 0x00, 0x00, 0x00, 0x10, 0x00, 0x00, 0x00, 0x08, 0x00, 0x00, 0x00, 
  0x1c, 0x00, 0x00, 0x00, 0x2c, 0xfe, 0xff, 0xff, 0x0f, 0x00, 0x00, 0x00, 
  0x61, 0x72, 0x69, 0x74, 0x68, 0x2e, 0x63, 0x6f, 0x6e, 0x73, 0x74, 0x61, 
  0x6e, 0x74, 0x36, 0x00, 0x01, 0x00, 0x00, 0x00, 0x20, 0x00, 0x00, 0x00, 
  0xde, 0xfe, 0xff, 0xff, 0x00, 0x00, 0x00, 0x01, 0x10, 0x00, 0x00, 0x00, 
  0x10, 0x00, 0x00, 0x00, 0x07, 0x00, 0x00, 0x00, 0x1c, 0x00, 0x00, 0x00, 
  0x64, 0xfe, 0xff, 0xff, 0x0f, 0x00, 0x00, 0x00, 0x61, 0x72, 0x69, 0x74, 
  0x68, 0x2e, 0x63, 0x6f, 0x6e, 0x73, 0x74, 0x61, 0x6e, 0x74, 0x35, 0x00, 
  0x02, 0x00, 0x00, 0x00, 0x01, 0x00, 0x00, 0x00, 0x10, 0x00, 0x00, 0x00, 
  0x1a, 0xff, 0xff, 0xff, 0x00, 0x00, 0x00, 0x01, 0x10, 0x00, 0x00, 0x00, 
  0x10, 0x00, 0x00, 0x00, 0x06, 0x00, 0x00, 0x00, 0x1c, 0x00, 0x00, 0x00, 
  0xa0, 0xfe, 0xff, 0xff, 0x0f, 0x00, 0x00, 0x00, 0x61, 0x72, 0x69, 0x74, 
  0x68, 0x2e, 0x63, 0x6f, 0x6e, 0x73, 0x74, 0x61, 0x6e, 0x74, 0x34, 0x00, 
  0x02, 0x00, 0x00, 0x00, 0x10, 0x00, 0x00, 0x00, 0x20, 0x00, 0x00, 0x00, 
  0x56, 0xff, 0xff, 0xff, 0x00, 0x00, 0x00, 0x01, 0x10, 0x00, 0x00, 0x00, 
  0x10, 0x00, 0x00, 0x00, 0x05, 0x00, 0x00, 0x00, 0x1c, 0x00, 0x00, 0x00, 
  0xdc, 0xfe, 0xff, 0xff, 0x0f, 0x00, 0x00, 0x00, 0x61, 0x72, 0x69, 0x74, 
  0x68, 0x2e, 0x63, 0x6f, 0x6e, 0x73, 0x74, 0x61, 0x6e, 0x74, 0x33, 0x00, 
  0x01, 0x00, 0x00, 0x00, 0x01, 0x00, 0x00, 0x00, 0x8e, 0xff, 0xff, 0xff, 
  0x00, 0x00, 0x00, 0x01, 0x10, 0x00, 0x00, 0x00, 0x10, 0x00, 0x00, 0x00, 
  0x04, 0x00, 0x00, 0x00, 0x1c, 0x00, 0x00, 0x00, 0x14, 0xff, 0xff, 0xff, 
  0x0f, 0x00, 0x00, 0x00, 0x61, 0x72, 0x69, 0x74, 0x68, 0x2e, 0x63, 0x6f, 
  0x6e, 0x73, 0x74, 0x61, 0x6e, 0x74, 0x32, 0x00, 0x01, 0x00, 0x00, 0x00, 
  0x10, 0x00, 0x00, 0x00, 0xc6, 0xff, 0xff, 0xff, 0x00, 0x00, 0x00, 0x01, 
  0x10, 0x00, 0x00, 0x00, 0x10, 0x00, 0x00, 0x00, 0x03, 0x00, 0x00, 0x00, 
  0x1c, 0x00, 0x00, 0x00, 0x4c, 0xff, 0xff, 0xff, 0x0f, 0x00, 0x00, 0x00, 
  0x61, 0x72, 0x69, 0x74, 0x68, 0x2e, 0x63, 0x6f, 0x6e, 0x73, 0x74, 0x61, 
  0x6e, 0x74, 0x31, 0x00, 0x01, 0x00, 0x00, 0x00, 0x40, 0x00, 0x00, 0x00, 
  0x00, 0x00, 0x16, 0x00, 0x18, 0x00, 0x14, 0x00, 0x00, 0x00, 0x10, 0x00, 
  0x0c, 0x00, 0x08, 0x00, 0x00, 0x00, 0x00, 0x00, 0x00, 0x00, 0x07, 0x00, 
  0x16, 0x00, 0x00, 0x00, 0x00, 0x00, 0x00, 0x01, 0x10, 0x00, 0x00, 0x00, 
  0x10, 0x00, 0x00, 0x00, 0x02, 0x00, 0x00, 0x00, 0x1c, 0x00, 0x00, 0x00, 
  0x9c, 0xff, 0xff, 0xff, 0x0e, 0x00, 0x00, 0x00, 0x61, 0x72, 0x69, 0x74, 
  0x68, 0x2e, 0x63, 0x6f, 0x6e, 0x73, 0x74, 0x61, 0x6e, 0x74, 0x00, 0x00, 
  0x02, 0x00, 0x00, 0x00, 0x40, 0x00, 0x00, 0x00, 0x08, 0x00, 0x00, 0x00, 
  0x00, 0x00, 0x16, 0x00, 0x1c, 0x00, 0x18, 0x00, 0x00, 0x00, 0x14, 0x00, 
  0x10, 0x00, 0x0c, 0x00, 0x00, 0x00, 0x00, 0x00, 0x08, 0x00, 0x07, 0x00, 
  0x16, 0x00, 0x00, 0x00, 0x00, 0x00, 0x00, 0x01, 0x14, 0x00, 0x00, 0x00, 
  0x20, 0x00, 0x00, 0x00, 0x20, 0x00, 0x00, 0x00, 0x01, 0x00, 0x00, 0x00, 
  0x3c, 0x00, 0x00, 0x00, 0x02, 0x00, 0x00, 0x00, 0xff, 0xff, 0xff, 0xff, 
  0x08, 0x00, 0x00, 0x00, 0x04, 0x00, 0x04, 0x00, 0x04, 0x00, 0x00, 0x00, 
  0x1f, 0x00, 0x00, 0x00, 0x73, 0x65, 0x72, 0x76, 0x69, 0x6e, 0x67, 0x5f, 
  0x64, 0x65, 0x66, 0x61, 0x75, 0x6c, 0x74, 0x5f, 0x69, 0x6e, 0x70, 0x75, 
  0x74, 0x5f, 0x6c, 0x61, 0x79, 0x65, 0x72, 0x5f, 0x31, 0x3a, 0x30, 0x00, 
  0x02, 0x00, 0x00, 0x00, 0x01, 0x00, 0x00, 0x00, 0x08, 0x00, 0x00, 0x00, 
  0x02, 0x00, 0x00, 0x00, 0x2c, 0x00, 0x00, 0x00, 0x10, 0x00, 0x00, 0x00, 
  0x0c, 0x00, 0x0c, 0x00, 0x0b, 0x00, 0x00, 0x00, 0x00, 0x00, 0x04, 0x00, 
  0x0c, 0x00, 0x00, 0x00, 0x0e, 0x00, 0x00, 0x00, 0x00, 0x00, 0x00, 0x0e, 
  0x0c, 0x00, 0x10, 0x00, 0x0f, 0x00, 0x00, 0x00, 0x08, 0x00, 0x04, 0x00, 
  0x0c, 0x00, 0x00, 0x00, 0x09, 0x00, 0x00, 0x00, 0x0c, 0x00, 0x00, 0x00, 
  0x00, 0x00, 0x00, 0x09, 
};
const int medical_model_len = 9664;

#endif // MODEL_DATA_H