#ifndef MODEL_DATA_H
#define MODEL_DATA_H

#ifdef __has_attribute
#define ALIGN __attribute__((aligned(4)))
#else
#define ALIGN
#endif

const unsigned char medical_model[] ALIGN = {
  0x1c, 0x00, 0x00, 0x00, 0x54, 0x46, 0x4c, 0x33, 0x14, 0x00, 0x20, 0x00, 0x1c, 0x00, 0x18, 0x00,
  0x14, 0x00, 0x10, 0x00, 0x0c, 0x00, 0x00, 0x00, 0x08, 0x00, 0x04, 0x00, 0x14, 0x00, 0x00, 0x00,
  0x1c, 0x00, 0x00, 0x00, 0x8c, 0x00, 0x00, 0x00, 0xe4, 0x00, 0x00, 0x00, 0x38, 0x34, 0x00, 0x00,
  0x48, 0x34, 0x00, 0x00, 0x8c, 0x3b, 0x00, 0x00, 0x03, 0x00, 0x00, 0x00, 0x01, 0x00, 0x00, 0x00,
  0x04, 0x00, 0x00, 0x00, 0x76, 0xcb, 0xff, 0xff, 0x0c, 0x00, 0x00, 0x00, 0x1c, 0x00, 0x00, 0x00,
  0x3c, 0x00, 0x00, 0x00, 0x0f, 0x00, 0x00, 0x00, 0x73, 0x65, 0x72, 0x76, 0x69, 0x6e, 0x67, 0x5f,
  0x64, 0x65, 0x66, 0x61, 0x75, 0x6c, 0x74, 0x00, 0x01, 0x00, 0x00, 0x00, 0x04, 0x00, 0x00, 0x00,
  0x90, 0xff, 0xff, 0xff, 0x0d, 0x00, 0x00, 0x00, 0x04, 0x00, 0x00, 0x00, 0x08, 0x00, 0x00, 0x00,
  0x6f, 0x75, 0x74, 0x70, 0x75, 0x74, 0x5f, 0x30, 0x00, 0x00, 0x00, 0x00, 0x01, 0x00, 0x00, 0x00,
  0x04, 0x00, 0x00, 0x00, 0x4a, 0xec, 0xff, 0xff, 0x04, 0x00, 0x00, 0x00, 0x0d, 0x00, 0x00, 0x00,
  0x69, 0x6e, 0x70, 0x75, 0x74, 0x5f, 0x6c, 0x61, 0x79, 0x65, 0x72, 0x5f, 0x31, 0x00, 0x00, 0x00,
  0x02, 0x00, 0x00, 0x00, 0x34, 0x00, 0x00, 0x00, 0x04, 0x00, 0x00, 0x00, 0xdc, 0xff, 0xff, 0xff,
  0x10, 0x00, 0x00, 0x00, 0x04, 0x00, 0x00, 0x00, 0x13, 0x00, 0x00, 0x00, 0x43, 0x4f, 0x4e, 0x56,
  0x45, 0x52, 0x53, 0x49, 0x4f, 0x4e, 0x5f, 0x4d, 0x45, 0x54, 0x41, 0x44, 0x41, 0x54, 0x41, 0x00,
  0x08, 0x00, 0x0c, 0x00, 0x08, 0x00, 0x04, 0x00, 0x08, 0x00, 0x00, 0x00, 0x0f, 0x00, 0x00, 0x00,
  0x04, 0x00, 0x00, 0x00, 0x13, 0x00, 0x00, 0x00, 0x6d, 0x69, 0x6e, 0x5f, 0x72, 0x75, 0x6e, 0x74,
  0x69, 0x6d, 0x65, 0x5f, 0x76, 0x65, 0x72, 0x73, 0x69, 0x6f, 0x6e, 0x00, 0x11, 0x00, 0x00, 0x00,
  0x50, 0x33, 0x00, 0x00, 0x48, 0x33, 0x00, 0x00, 0x38, 0x13, 0x00, 0x00, 0xa0, 0x12, 0x00, 0x00,
  0x50, 0x12, 0x00, 0x00, 0x40, 0x0a, 0x00, 0x00, 0x2c, 0x0a, 0x00, 0x00, 0xdc, 0x09, 0x00, 0x00,
  0xcc, 0x08, 0x00, 0x00, 0xbc, 0x00, 0x00, 0x00, 0xb4, 0x00, 0x00, 0x00, 0xac, 0x00, 0x00, 0x00,
  0xa4, 0x00, 0x00, 0x00, 0x9c, 0x00, 0x00, 0x00, 0x94, 0x00, 0x00, 0x00, 0x74, 0x00, 0x00, 0x00,
  0x04, 0x00, 0x00, 0x00, 0x0a, 0xed, 0xff, 0xff, 0x04, 0x00, 0x00, 0x00, 0x60, 0x00, 0x00, 0x00,
  0x10, 0x00, 0x00, 0x00, 0x00, 0x00, 0x00, 0x00, 0x08, 0x00, 0x0e, 0x00, 0x08, 0x00, 0x04, 0x00,
  0x08, 0x00, 0x00, 0x00, 0x10, 0x00, 0x00, 0x00, 0x24, 0x00, 0x00, 0x00, 0x00, 0x00, 0x06, 0x00,
  0x08, 0x00, 0x04, 0x00, 0x06, 0x00, 0x00, 0x00, 0x04, 0x00, 0x00, 0x00, 0x00, 0x00, 0x00, 0x00,
  0x0c, 0x00, 0x18, 0x00, 0x14, 0x00, 0x10, 0x00, 0x0c, 0x00, 0x04, 0x00, 0x0c, 0x00, 0x00, 0x00,
  0x06, 0xc8, 0xe2, 0xa5, 0xe3, 0x0c, 0x0c, 0xfc, 0x02, 0x00, 0x00, 0x00, 0x02, 0x00, 0x00, 0x00,
  0x04, 0x00, 0x00, 0x00, 0x06, 0x00, 0x00, 0x00, 0x32, 0x2e, 0x31, 0x39, 0x2e, 0x30, 0x00, 0x00,
  0x76, 0xed, 0xff, 0xff, 0x04, 0x00, 0x00, 0x00, 0x10, 0x00, 0x00, 0x00, 0x31, 0x2e, 0x31, 0x34,
  0x2e, 0x30, 0x00, 0x00, 0x00, 0x00, 0x00, 0x00, 0x00, 0x00, 0x00, 0x00, 0x54, 0xc6, 0xff, 0xff,
  0x58, 0xc6, 0xff, 0xff, 0x5c, 0xc6, 0xff, 0xff, 0x60, 0xc6, 0xff, 0xff, 0x64, 0xc6, 0xff, 0xff,
  0xa6, 0xed, 0xff, 0xff, 0x04, 0x00, 0x00, 0x00, 0x00, 0x08, 0x00, 0x00, 0x07, 0xdd, 0x21, 0x3d,
  0xf7, 0xeb, 0x66, 0x3f, 0xb1, 0x37, 0x9b, 0xbe, 0x7b, 0xb6, 0x9e, 0x3e, 0xf5, 0x68, 0x37, 0xbe,
  0x88, 0xc5, 0x80, 0x3e, 0x6e, 0x3b, 0xda, 0xbd, 0x61, 0x9f, 0xbc, 0x3e, 0x46, 0x79, 0x00, 0xbe,
  0x62, 0x94, 0x61, 0xbf, 0x0f, 0xf9, 0x1c, 0x3f, 0xf7, 0x7f, 0x84, 0xbe, 0xa6, 0xcd, 0x70, 0xbd,
  0xbf, 0x09, 0xb3, 0x3e, 0xf4, 0x1d, 0x20, 0xbe, 0xef, 0x42, 0x89, 0x3e, 0x17, 0xae, 0x40, 0xbe,
  0x7f, 0x03, 0x8c, 0xbe, 0xb1, 0xad, 0x15, 0x3f, 0x20, 0x8a, 0x08, 0xbc, 0xe6, 0x53, 0xfb, 0xbb,
  0xf1, 0x66, 0x9f, 0xbd, 0x3b, 0xc2, 0x1b, 0xbf, 0x9c, 0xc5, 0x13, 0x3f, 0xfc, 0x48, 0x39, 0xbb,
  0x1c, 0x28, 0xe7, 0xba, 0x2d, 0xcc, 0x84, 0x3b, 0xe3, 0x3a, 0x2f, 0x3f, 0xf0, 0x3c, 0x6e, 0xb8,
  0x13, 0x6a, 0x42, 0xbb, 0x85, 0x6f, 0x84, 0xb8, 0xae, 0xab, 0x0c, 0xbc, 0x45, 0xe6, 0x76, 0x3b,
  0x99, 0xa5, 0x39, 0xbf, 0xb1, 0x92, 0xf5, 0x3e, 0xe4, 0x0a, 0xa5, 0x3c, 0x79, 0xa6, 0x98, 0xbc,
  0x67, 0xdb, 0xad, 0x3e, 0xe1, 0x62, 0x90, 0xbe, 0xa4, 0x73, 0x66, 0x3e, 0xb5, 0xaa, 0x92, 0xbe,
  0x2b, 0x23, 0x29, 0xbf, 0x3e, 0x0c, 0x15, 0xbe, 0x58, 0x9e, 0xf7, 0xbd, 0x69, 0x67, 0xed, 0x3a,
  0x2e, 0x9f, 0xbd, 0xbd, 0xf0, 0x0b, 0xbb, 0xbe, 0x24, 0xb3, 0x34, 0x3f, 0x59, 0x94, 0x8c, 0xbb,
  0x7d, 0x1a, 0x83, 0x3f, 0xf3, 0x46, 0xaa, 0x3b, 0x5c, 0xe7, 0x42, 0xba, 0x18, 0x4e, 0xaa, 0xbb,
  0x1b, 0x40, 0x79, 0x3d, 0xfb, 0xd6, 0x28, 0xbd, 0xd1, 0xfc, 0x8f, 0xbd, 0xc3, 0x3d, 0x88, 0xbd,
  0x41, 0xbf, 0x10, 0xbf, 0x0a, 0xb1, 0x43, 0xbf, 0x8e, 0xad, 0x47, 0xbe, 0x57, 0xe4, 0x42, 0xbe,
  0x40, 0x3a, 0xc4, 0x3d, 0x99, 0xcc, 0xa9, 0x3d, 0x4b, 0x62, 0x0b, 0xbf, 0x03, 0x33, 0xdd, 0x3c,
  0x2a, 0x68, 0x62, 0x3f, 0x42, 0xa0, 0xd4, 0xbc, 0x48, 0xab, 0xa9, 0xbc, 0x81, 0x72, 0x7c, 0xba,
  0x58, 0xa7, 0xea, 0x3a, 0x36, 0x31, 0x1e, 0x3a, 0x71, 0x63, 0x03, 0xbd, 0xb2, 0xd4, 0x92, 0xba,
  0x51, 0x65, 0xa3, 0xbf, 0x14, 0x0f, 0xeb, 0x3b, 0x09, 0x42, 0xb8, 0xbb, 0x1c, 0x03, 0x8b, 0x3b,
  0xdf, 0x0b, 0xd9, 0x3c, 0x48, 0xe8, 0xe3, 0xbc, 0xd8, 0xe2, 0x3e, 0xbd, 0xbe, 0x7b, 0xb7, 0x3b,
  0x6e, 0x26, 0x87, 0x3f, 0xe5, 0x66, 0xa4, 0xba, 0xb2, 0xe2, 0xf2, 0x39, 0xee, 0x6d, 0xf1, 0x3b,
  0xf7, 0x37, 0xf1, 0xbc, 0xfc, 0xc4, 0xdd, 0x3c, 0x69, 0x2d, 0x2c, 0x3d, 0x1c, 0xc8, 0x6b, 0xbb,
  0x4c, 0x32, 0xf7, 0xba, 0xd7, 0xe8, 0xa9, 0x3b, 0x48, 0xfc, 0x0b, 0x3b, 0x27, 0x6c, 0xb1, 0x3b,
  0x22, 0xb1, 0x5a, 0x3e, 0x5b, 0x6a, 0x42, 0xbe, 0xd1, 0x96, 0x4f, 0x3f, 0x93, 0x97, 0x0d, 0x3f,
  0x6a, 0x6e, 0x4b, 0xbf, 0x5c, 0x9d, 0xa1, 0x3e, 0xcd, 0x55, 0x5e, 0xbe, 0x3f, 0x26, 0x9d, 0xbd,
  0x75, 0xb6, 0xc9, 0xbd, 0x1c, 0x7e, 0x03, 0x3d, 0xa6, 0xd6, 0x01, 0xbf, 0x3f, 0x7d, 0xf5, 0xbc,
  0x9b, 0x8b, 0xa8, 0x3f, 0x3c, 0xbb, 0xf2, 0x3d, 0x4e, 0xbb, 0x00, 0xbd, 0x73, 0xf9, 0x5e, 0xbc,
  0x16, 0x92, 0x52, 0x3d, 0xae, 0xf2, 0x1f, 0xbd, 0x9f, 0x94, 0x22, 0xbe, 0x44, 0x9b, 0x9b, 0x3e,
  0xdf, 0xab, 0x66, 0x3f, 0xc1, 0x3c, 0x2c, 0x3e, 0x79, 0x83, 0x1d, 0xbe, 0x54, 0xc1, 0xc3, 0xbd,
  0x26, 0x61, 0xa7, 0xbe, 0x2c, 0xae, 0x21, 0x3e, 0xe3, 0x42, 0xd5, 0xbe, 0xa8, 0x04, 0xff, 0x3d,
  0xb5, 0x6d, 0x0e, 0x3f, 0xb8, 0xbd, 0x6b, 0xbf, 0x03, 0xa8, 0x97, 0x3d, 0x44, 0xf7, 0x1e, 0xbc,
  0x15, 0xca, 0x82, 0x3e, 0x0b, 0x60, 0x59, 0x3d, 0xbb, 0x69, 0xe3, 0xbd, 0x56, 0x97, 0x00, 0xbc,
  0x76, 0xec, 0xf4, 0x3b, 0xf2, 0xba, 0x95, 0xbf, 0x3f, 0xbc, 0xa6, 0xbc, 0x88, 0xf2, 0x6d, 0xbb,
  0xd8, 0xf6, 0xb0, 0xbc, 0xef, 0x8d, 0xba, 0xbb, 0x6c, 0xd8, 0x76, 0x3c, 0x08, 0x37, 0x80, 0xbd,
  0xfe, 0x5c, 0x12, 0xbb, 0x12, 0xbc, 0x18, 0x3e, 0x86, 0xee, 0xfe, 0x3b, 0x1c, 0x45, 0x17, 0xbb,
  0xeb, 0xf2, 0xad, 0x3e, 0x91, 0x25, 0x30, 0x3e, 0x1f, 0x01, 0xfa, 0x3e, 0x19, 0xbe, 0xa2, 0xbb,
  0x61, 0x65, 0xc3, 0x3b, 0xc8, 0x63, 0xd0, 0x3b, 0x37, 0x82, 0xb8, 0x3b, 0x99, 0xe5, 0x55, 0x3c,
  0xc0, 0x91, 0x9f, 0x3e, 0x83, 0xb9, 0x8d, 0xbe, 0x6a, 0xc5, 0x2d, 0x3f, 0x64, 0x3b, 0x49, 0xbd,
  0x4f, 0xa5, 0x88, 0xbd, 0xba, 0xf2, 0x5e, 0x3d, 0x2b, 0xb9, 0x00, 0xbd, 0xe7, 0x2b, 0x67, 0x3c,
  0xbf, 0xcf, 0x24, 0xbf, 0xcd, 0x5f, 0xda, 0x3e, 0x88, 0x59, 0x21, 0xbf, 0x6c, 0xe4, 0x13, 0xbc,
  0x6e, 0xae, 0x10, 0x3b, 0x9e, 0x58, 0xb7, 0x3b, 0xe1, 0xba, 0x18, 0xbc, 0xb7, 0xae, 0x8b, 0x3b,
  0x48, 0x18, 0xa0, 0x3e, 0x44, 0x2a, 0x91, 0xbe, 0x12, 0xc9, 0x2f, 0x3f, 0x21, 0x37, 0x16, 0xba,
  0xba, 0x17, 0x86, 0xba, 0xc2, 0x88, 0x7c, 0x3b, 0x1e, 0xb0, 0x54, 0x3a, 0x72, 0x76, 0xf8, 0x3b,
  0x99, 0x93, 0x44, 0x3e, 0x02, 0xad, 0x29, 0xbe, 0x0f, 0x83, 0x4e, 0x3f, 0x98, 0x6e, 0x77, 0xbc,
  0xc3, 0xa9, 0xb9, 0x3f, 0x34, 0xc4, 0x55, 0x3d, 0x25, 0x1b, 0x26, 0x3c, 0xce, 0x1f, 0xf7, 0xbb,
  0x07, 0xfb, 0x93, 0xbe, 0xcb, 0x1b, 0x2e, 0x3e, 0x95, 0xc8, 0x3d, 0xbd, 0xf6, 0x3a, 0x24, 0x3f,
  0xab, 0x75, 0x1d, 0xbb, 0xab, 0x62, 0x0b, 0x3b, 0x30, 0xea, 0xe6, 0x3b, 0xc4, 0x17, 0x34, 0x3c,
  0x84, 0xfe, 0x23, 0x3d, 0xc0, 0xba, 0x4d, 0xbd, 0x11, 0x79, 0x26, 0xbd, 0xcb, 0xb7, 0xa1, 0x3d,
  0xcd, 0xad, 0xd4, 0xbc, 0xc0, 0x72, 0x2e, 0xbd, 0x1c, 0x43, 0xa8, 0xbd, 0x45, 0x21, 0xdd, 0xbb,
  0x77, 0x56, 0x85, 0xbe, 0x33, 0xdc, 0x80, 0xbf, 0xad, 0x0f, 0xe2, 0x3e, 0x98, 0xc2, 0xbd, 0x3e,
  0x09, 0xef, 0xaf, 0xbe, 0x20, 0x91, 0xf7, 0x3e, 0x0a, 0xad, 0x93, 0x3e, 0x3e, 0xad, 0x39, 0x3d,
  0xf0, 0x6e, 0x04, 0x3e, 0xb9, 0x78, 0x7d, 0xbd, 0xd2, 0x5f, 0xc3, 0x3e, 0x8b, 0x64, 0x9d, 0x3b,
  0xe6, 0x41, 0xcc, 0x39, 0x62, 0x97, 0x9d, 0xb8, 0x7e, 0xf7, 0x8c, 0x3b, 0x84, 0x6c, 0xaf, 0x3a,
  0xe8, 0x3e, 0xf6, 0xbe, 0xc6, 0xf3, 0x8f, 0x3e, 0x99, 0x1f, 0x9b, 0xbe, 0x58, 0xb9, 0x15, 0xbd,
  0x50, 0x16, 0x17, 0xbf, 0xbd, 0x29, 0x4f, 0x3e, 0x39, 0x83, 0x3f, 0xbe, 0x95, 0x1c, 0x0f, 0x3e,
  0x9e, 0x97, 0xb2, 0xbe, 0xaf, 0xf5, 0x2d, 0xbe, 0x09, 0x67, 0x36, 0xbf, 0xcb, 0x55, 0xa6, 0xbd,
  0x3d, 0xa0, 0xac, 0xbc, 0x0e, 0x06, 0xa8, 0x3d, 0xa6, 0xd2, 0x63, 0x3c, 0xa3, 0x48, 0xb8, 0xbd,
  0xcf, 0x42, 0x5b, 0x3e, 0x4e, 0x76, 0x98, 0x3f, 0xf2, 0x1e, 0x9a, 0xbd, 0x70, 0x89, 0x9d, 0xba,
  0x3b, 0xda, 0x8a, 0x3f, 0x93, 0x42, 0x3c, 0x3b, 0xd9, 0x6d, 0x76, 0xbb, 0xf4, 0x24, 0xc2, 0x3a,
  0xef, 0x6c, 0xb5, 0x3d, 0x64, 0xdf, 0x6b, 0xbd, 0xb8, 0x7c, 0xda, 0xbd, 0xde, 0x1a, 0xa0, 0x3b,
  0x1b, 0xa8, 0x7a, 0x3f, 0x98, 0x19, 0xa2, 0xbb, 0x2a, 0x5e, 0xac, 0xb9, 0x9d, 0x17, 0xd3, 0x3b,
  0x79, 0x31, 0x0e, 0xbd, 0xad, 0xaa, 0x03, 0x3d, 0x1f, 0x0e, 0x3e, 0x3d, 0xa7, 0xfd, 0x70, 0xbe,
  0x4b, 0x31, 0x42, 0xbf, 0x3c, 0x40, 0x6e, 0xbe, 0x98, 0x43, 0xb5, 0xbe, 0xfc, 0xf0, 0x4d, 0xbd,
  0x7c, 0xc2, 0xcb, 0xbe, 0x17, 0x67, 0xc9, 0xbd, 0x55, 0x18, 0x02, 0xbf, 0xee, 0x6a, 0x88, 0xbd,
  0x4f, 0x96, 0x02, 0xbe, 0xcb, 0xe6, 0x01, 0x3e, 0xed, 0x17, 0x97, 0xbd, 0xff, 0xa7, 0x44, 0xbc,
  0xfa, 0xb4, 0x6f, 0x3e, 0x87, 0x3a, 0xaf, 0xbe, 0x4e, 0xc7, 0xea, 0x3f, 0xe1, 0x6d, 0x7a, 0xbc,
  0x25, 0x8b, 0xca, 0xbd, 0x1d, 0x69, 0x0e, 0x3c, 0x7b, 0xc3, 0x1b, 0xbc, 0xb7, 0x95, 0x92, 0x3c,
  0x6f, 0x8f, 0x15, 0xbf, 0x2c, 0xc3, 0xb6, 0x3e, 0xbe, 0x60, 0xa7, 0xbe, 0x0f, 0x5d, 0x0b, 0x3d,
  0x06, 0x5c, 0xf5, 0xbd, 0x0e, 0xaf, 0xea, 0xbc, 0xb0, 0x11, 0x89, 0x3d, 0x69, 0xed, 0x0d, 0x3c,
  0x0d, 0x98, 0xf7, 0xbe, 0x02, 0xad, 0xde, 0x3e, 0x39, 0x50, 0x95, 0xbf, 0x1f, 0x66, 0x39, 0x3d,
  0xac, 0x25, 0xa9, 0xbe, 0xc7, 0xa2, 0x71, 0x3c, 0x7e, 0x36, 0x9a, 0xbd, 0x09, 0x60, 0x22, 0x3c,
  0x32, 0xfd, 0xd8, 0x3e, 0x31, 0x24, 0xbd, 0x3e, 0x3d, 0xa6, 0x8d, 0xbe, 0x1d, 0xe6, 0x68, 0xbd,
  0xa4, 0xc1, 0x60, 0xbf, 0x3f, 0x8a, 0x94, 0x3e, 0x0c, 0xed, 0xf9, 0x3c, 0xa7, 0x80, 0x95, 0xbc,
  0x8a, 0x3b, 0x87, 0xbe, 0x89, 0xf2, 0xad, 0x3d, 0x8c, 0x78, 0xc6, 0xbe, 0xa3, 0xf9, 0x12, 0xbf,
  0x8a, 0xe6, 0xb6, 0xbc, 0x6d, 0xb5, 0x47, 0xbb, 0x3f, 0x8e, 0x38, 0x3b, 0x22, 0xb7, 0x50, 0x3a,
  0x42, 0x29, 0xb8, 0xbb, 0xc2, 0x6d, 0xa2, 0x3c, 0xee, 0x2b, 0xf2, 0xba, 0x73, 0x2f, 0x71, 0xbe,
  0x30, 0x38, 0xde, 0xbd, 0x75, 0x32, 0x2d, 0x3e, 0x8e, 0x83, 0xa9, 0x3e, 0x44, 0x0e, 0x77, 0xbe,
  0xed, 0x82, 0xe4, 0x3e, 0x85, 0xc9, 0xaf, 0x3e, 0x37, 0x33, 0x5b, 0x3d, 0xc9, 0x90, 0x54, 0xbe,
  0x3c, 0x5e, 0xb5, 0x3d, 0xd4, 0x19, 0x23, 0x3f, 0x11, 0xc8, 0xed, 0x3d, 0x4c, 0x86, 0x23, 0xbd,
  0xe6, 0x8e, 0x9e, 0xbf, 0xa0, 0xd8, 0x67, 0xbe, 0x98, 0x15, 0x91, 0xbe, 0x27, 0x5c, 0x41, 0x3e,
  0x5e, 0x26, 0x92, 0xbc, 0xd7, 0x12, 0x80, 0xbe, 0x88, 0x4f, 0x34, 0x3c, 0xaf, 0xbd, 0xa8, 0xbb,
  0xef, 0xa1, 0xb2, 0x3e, 0xed, 0x2b, 0xfc, 0x3e, 0x9f, 0x74, 0x5b, 0x3e, 0x22, 0xb9, 0xd6, 0x3e,
  0x92, 0x88, 0x5b, 0x3e, 0xbd, 0xfd, 0x52, 0x3f, 0x73, 0x49, 0x35, 0x3e, 0x62, 0x20, 0x66, 0xbd,
  0x17, 0x09, 0x3e, 0x3d, 0x87, 0x4d, 0x80, 0xbd, 0x4b, 0x22, 0x0e, 0x3f, 0x9f, 0xb8, 0x8c, 0xbb,
  0x16, 0x41, 0xd6, 0xbb, 0xbe, 0x7c, 0x70, 0x3c, 0x4e, 0x15, 0x44, 0x39, 0x95, 0xc7, 0x33, 0x3c,
  0x5e, 0x46, 0xa4, 0x3e, 0x1c, 0x86, 0x99, 0xbe, 0x99, 0xfd, 0xb6, 0x3e, 0x7b, 0xaf, 0x9e, 0xbd,
  0x9c, 0x7b, 0xc3, 0x3f, 0x3c, 0x0d, 0x4b, 0xbd, 0x2f, 0x72, 0xf5, 0xbc, 0xf3, 0x8c, 0x6b, 0xbd,
  0x74, 0x22, 0x3a, 0x3e, 0xc2, 0x60, 0x6d, 0xbd, 0xd2, 0xe0, 0xeb, 0xbd, 0x1b, 0xe8, 0x79, 0xbc,
  0x34, 0x16, 0xf6, 0xbe, 0x89, 0x77, 0x86, 0xbb, 0xa4, 0xe0, 0x2d, 0xba, 0x0a, 0xc4, 0x82, 0x3c,
  0x01, 0x8e, 0xce, 0xbc, 0x9f, 0x11, 0x08, 0x3c, 0xa8, 0x7a, 0xb0, 0x3c, 0x12, 0x66, 0x11, 0xbe,
  0x56, 0xae, 0x46, 0xbc, 0xbe, 0x4e, 0x77, 0x3f, 0x17, 0x4f, 0x30, 0xbe, 0x95, 0xba, 0xa1, 0xbb,
  0x44, 0xd0, 0xd2, 0x3b, 0xe9, 0xa1, 0xd9, 0x3d, 0xde, 0x62, 0x21, 0xbf, 0xa3, 0xd4, 0xcf, 0x3d,
  0x95, 0x29, 0x2a, 0xbf, 0x75, 0x5e, 0x59, 0xbe, 0x60, 0x1d, 0x40, 0x3d, 0x86, 0xb1, 0xec, 0x3e,
  0x72, 0x0c, 0x14, 0xbe, 0x5b, 0x90, 0x0d, 0xbd, 0xed, 0xbc, 0x1b, 0xbe, 0xb1, 0xc5, 0x8f, 0xbd,
  0xdd, 0x78, 0x88, 0xbb, 0x89, 0x2f, 0xb6, 0x3c, 0x46, 0x0f, 0xfb, 0xbc, 0x9a, 0x8a, 0xf0, 0x39,
  0xfd, 0x5a, 0x3c, 0xbf, 0x13, 0x50, 0x03, 0x3f, 0xd5, 0xf5, 0xa5, 0xbf, 0x73, 0x74, 0x89, 0xbb,
  0x0e, 0x86, 0xcf, 0xbd, 0x96, 0xf0, 0xd8, 0xbf, 0x3b, 0x97, 0x00, 0xbd, 0xad, 0xb4, 0x57, 0xbd,
  0x0d, 0x7f, 0x9c, 0x3e, 0xbc, 0x91, 0x11, 0xbe, 0x2b, 0x7c, 0x97, 0xbe, 0xbc, 0xac, 0x2c, 0xbd,
  0x5e, 0xdd, 0xaa, 0xbe, 0xbb, 0xef, 0x1b, 0x3d, 0xcb, 0x1c, 0xa7, 0x3d, 0xd0, 0x91, 0x02, 0xbd,
  0xbb, 0x85, 0x53, 0x3e, 0xd2, 0x59, 0x11, 0x3f, 0xde, 0xf5, 0x2c, 0xbf, 0x55, 0x8a, 0x7e, 0xbc,
  0x01, 0x0e, 0x39, 0x40, 0x9b, 0xac, 0xf2, 0x3c, 0xf3, 0xaa, 0x12, 0xbe, 0x6d, 0xf7, 0x41, 0x39,
  0xcc, 0xf6, 0x59, 0x3b, 0x91, 0x47, 0xc7, 0xbc, 0xf4, 0x4e, 0x0c, 0x3d, 0xad, 0x70, 0x9a, 0x3d,
  0xf5, 0x93, 0x8b, 0x3d, 0x95, 0x16, 0xaf, 0xbc, 0x9a, 0xe7, 0x86, 0xbd, 0x38, 0xae, 0x68, 0xbd,
  0x8b, 0x7f, 0x07, 0xbe, 0xd9, 0x68, 0x19, 0x3e, 0xa7, 0x55, 0x13, 0x3f, 0xf9, 0x2f, 0x11, 0xbd,
  0x04, 0xac, 0x99, 0xbe, 0x96, 0xcd, 0xf6, 0xbe, 0x1c, 0x80, 0x2f, 0xbe, 0xce, 0xe6, 0xe2, 0x3d,
  0x4c, 0x28, 0x45, 0x3e, 0x71, 0x30, 0x0d, 0xbd, 0x5f, 0x7b, 0x82, 0x3f, 0x13, 0x3a, 0x89, 0x3e,
  0x91, 0xe7, 0xc8, 0xbd, 0x3f, 0x4c, 0x01, 0xbf, 0xd3, 0xa4, 0x8c, 0x3e, 0xa3, 0xec, 0x47, 0x3e,
  0x78, 0x4b, 0x84, 0xbe, 0xa6, 0x8a, 0x22, 0xbf, 0x0a, 0xf8, 0x69, 0xbe, 0x2f, 0xa4, 0x46, 0xbb,
  0x60, 0x66, 0xd9, 0xbc, 0xca, 0xf9, 0x4c, 0x3d, 0x07, 0xdf, 0x0f, 0xbd, 0xae, 0x8f, 0xec, 0xba,
  0xbb, 0xab, 0x26, 0xbf, 0xac, 0x5e, 0xe2, 0x3e, 0xb6, 0x72, 0x76, 0xbf, 0xea, 0x80, 0xe7, 0x3c,
  0x61, 0x96, 0x87, 0xbf, 0x2b, 0xc9, 0x45, 0x3b, 0x6a, 0x40, 0xd3, 0x3c, 0xf8, 0x12, 0xaa, 0xbb,
  0xc3, 0xf5, 0x2b, 0xbe, 0x03, 0xb8, 0xfe, 0x3d, 0xf0, 0xe2, 0x6f, 0x3e, 0x0f, 0x16, 0x81, 0x3f,
  0xc9, 0x6f, 0x27, 0xbd, 0x16, 0xae, 0x39, 0xbe, 0x68, 0xbc, 0xae, 0xbd, 0x8f, 0x8a, 0x19, 0x3d,
  0xfe, 0x32, 0x8a, 0x3d, 0x73, 0xc4, 0x12, 0xbe, 0x0f, 0xe4, 0x88, 0x3e, 0xb4, 0x29, 0x89, 0x3c,
  0x07, 0x9a, 0xaf, 0xb9, 0xde, 0xea, 0x9c, 0xbf, 0x2c, 0xa5, 0x46, 0x3b, 0x18, 0x03, 0xdf, 0xba,
  0x6a, 0x0c, 0xe1, 0x3d, 0xd7, 0x55, 0xfe, 0xbd, 0x16, 0x34, 0x3e, 0xbe, 0x52, 0xdb, 0x75, 0xbe,
  0x7d, 0x7f, 0x94, 0x3e, 0xae, 0x41, 0xba, 0x3f, 0x05, 0x76, 0xdd, 0xbd, 0xc3, 0xd4, 0xea, 0xbb,
  0x99, 0x34, 0x05, 0x3d, 0xa7, 0xc0, 0x33, 0xbe, 0xba, 0xb9, 0x5b, 0x3e, 0x2a, 0x51, 0xc2, 0x3a,
  0x57, 0x9b, 0x9c, 0x3b, 0x3f, 0x2f, 0x11, 0x3c, 0x1d, 0x2e, 0x9a, 0xba, 0x7a, 0x5a, 0x88, 0xba,
  0xc7, 0x51, 0x88, 0xbe, 0x85, 0x86, 0x1c, 0x3e, 0xa9, 0xc6, 0x0a, 0xbf, 0xf3, 0xef, 0x1b, 0xbc,
  0x7e, 0x6d, 0x3d, 0x3f, 0x39, 0x56, 0x71, 0x3a, 0x42, 0x99, 0xe4, 0xba, 0xe7, 0xf8, 0x8c, 0xbb,
  0xff, 0xbb, 0x51, 0xbd, 0x98, 0xf5, 0x8a, 0x3d, 0x47, 0x0f, 0xaf, 0x3d, 0xc9, 0x9d, 0xd9, 0x3d,
  0x92, 0x6e, 0x56, 0xbd, 0xbc, 0x66, 0x18, 0xbf, 0xc1, 0x83, 0x08, 0x3e, 0x25, 0xe2, 0xac, 0x3c,
  0x68, 0x18, 0xf1, 0x3c, 0xb7, 0xf1, 0x44, 0x3b, 0x53, 0x41, 0x51, 0x3c, 0x34, 0x41, 0x32, 0x3a,
  0x84, 0xac, 0xab, 0xbc, 0xa2, 0xc9, 0x49, 0x3d, 0x01, 0x7a, 0x5c, 0x3f, 0xa0, 0xb0, 0x2f, 0x3c,
  0x22, 0xfa, 0xc5, 0x3d, 0x8c, 0x72, 0x8e, 0xbd, 0x9d, 0x02, 0xd5, 0xbd, 0x4e, 0x07, 0x96, 0xbd,
  0x0f, 0x79, 0x0c, 0xbf, 0x2b, 0x91, 0x16, 0x3e, 0x7a, 0x83, 0x2f, 0x3e, 0x4c, 0x24, 0xcb, 0x3c,
  0x7c, 0x4a, 0xeb, 0xbe, 0x1c, 0x44, 0x98, 0xbe, 0x00, 0x2f, 0x01, 0xbf, 0xb2, 0xf5, 0xff, 0xff,
  0x04, 0x00, 0x00, 0x00, 0x00, 0x01, 0x00, 0x00, 0x08, 0x9b, 0x45, 0xbe, 0xe3, 0x4d, 0x21, 0xbe,
  0xdd, 0x83, 0xca, 0xbe, 0x97, 0x87, 0x44, 0xbf, 0x66, 0xea, 0x59, 0x3f, 0x37, 0xce, 0x64, 0xbe,
  0xd1, 0x22, 0x13, 0xbf, 0x8e, 0x65, 0x1f, 0xbe, 0x6c, 0xc6, 0x2b, 0xbf, 0xae, 0xd7, 0x51, 0x3f,
  0xba, 0xbe, 0x1a, 0xbf, 0x35, 0x36, 0x3b, 0xbf, 0xb8, 0xc9, 0x36, 0xbe, 0x2a, 0xf2, 0x20, 0xbf,
  0x04, 0x34, 0xe2, 0xbe, 0xe0, 0x1e, 0x0a, 0xbf, 0xc1, 0x29, 0xd4, 0xbe, 0x84, 0x53, 0x7e, 0xbf,
  0x54, 0xe2, 0x37, 0xbf, 0x5f, 0xe5, 0x5a, 0xbf, 0xde, 0xd8, 0x37, 0xbf, 0x3a, 0xab, 0x34, 0xbf,
  0x23, 0x7e, 0xbd, 0x3f, 0xce, 0xd8, 0x2e, 0xbf, 0x7c, 0x6c, 0x17, 0xbf, 0x2d, 0x6b, 0x39, 0xbf,
  0xcc, 0xe7, 0x57, 0xbf, 0x6f, 0xb7, 0x02, 0x3f, 0x17, 0x38, 0x12, 0xbf, 0xf3, 0xcd, 0x1e, 0xbf,
  0xfe, 0xf9, 0x0d, 0xbf, 0xee, 0xa7, 0x7a, 0x3e, 0x9d, 0xff, 0xcc, 0x3e, 0xe8, 0x26, 0x55, 0xbf,
  0x34, 0xbe, 0x0b, 0xbf, 0x4c, 0x11, 0x2d, 0xbf, 0x1c, 0xf2, 0x5a, 0x3f, 0x62, 0xf6, 0x4d, 0xbf,
  0xa6, 0x84, 0x2f, 0xbf, 0x63, 0xf8, 0x7d, 0xbd, 0x20, 0x98, 0x43, 0xbf, 0x5d, 0x5e, 0x85, 0xbe,
  0x22, 0x73, 0x24, 0xbf, 0xa0, 0x2a, 0x90, 0x3f, 0xa4, 0x9a, 0x45, 0xbf, 0x87, 0x17, 0x32, 0x3f,
  0xf2, 0x00, 0x1e, 0xbf, 0x25, 0x98, 0xe0, 0xbe, 0x55, 0x00, 0xa7, 0xbe, 0x00, 0x29, 0x22, 0x3f,
  0xff, 0x46, 0xd6, 0xbe, 0x70, 0x1d, 0x58, 0xbf, 0x28, 0x97, 0xf0, 0xbe, 0x83, 0xa1, 0x8b, 0x3e,
  0x43, 0x41, 0x3b, 0xbf, 0xea, 0x82, 0xf4, 0x3e, 0x72, 0x14, 0xcc, 0xbe, 0x24, 0x19, 0xf5, 0xbe,
  0x01, 0x10, 0xd4, 0x3d, 0x67, 0x10, 0x4b, 0xbf, 0xe1, 0x1a, 0x07, 0xbf, 0x35, 0xec, 0x32, 0xbf,
  0x21, 0xd6, 0x2d, 0xbf, 0xb3, 0xf1, 0x31, 0x3f, 0xbe, 0xf6, 0xff, 0xff, 0x04, 0x00, 0x00, 0x00,
  0x40, 0x00, 0x00, 0x00, 0x8a, 0x20, 0xb8, 0xbc, 0x4b, 0xfe, 0xa6, 0xbe, 0x09, 0x2c, 0x10, 0x3f,
  0x85, 0x8a, 0xff, 0x3e, 0x14, 0xeb, 0x16, 0x3f, 0x6f, 0x90, 0xf5, 0x3e, 0x5a, 0x6f, 0x29, 0x3f,
  0xde, 0x77, 0xfd, 0x3e, 0x55, 0x49, 0x1e, 0x3f, 0xdb, 0x59, 0x89, 0xbe, 0x41, 0x39, 0x47, 0x3f,
  0x81, 0x29, 0x86, 0x3e, 0xa1, 0x07, 0x03, 0xbf, 0xc9, 0xdf, 0x6f, 0x3e, 0x20, 0x1b, 0x02, 0x3f,
  0xe2, 0x95, 0x55, 0x3f, 0x0a, 0xf7, 0xff, 0xff, 0x04, 0x00, 0x00, 0x00, 0x04, 0x00, 0x00, 0x00,
  0xf9, 0x8b, 0xfc, 0xbe, 0x1a, 0xf7, 0xff, 0xff, 0x04, 0x00, 0x00, 0x00, 0x00, 0x08, 0x00, 0x00,
  0x19, 0x88, 0xb6, 0x3e, 0x8e, 0xa6, 0xba, 0x3e, 0x9d, 0x5c, 0x17, 0x3e, 0x00, 0x94, 0x1b, 0x3f,
  0x28, 0x05, 0x27, 0xbe, 0x79, 0x58, 0x2b, 0xbf, 0x3e, 0x35, 0x87, 0x3d, 0xc1, 0x08, 0x3e, 0x3e,
  0xdc, 0x23, 0x88, 0x3f, 0x9d, 0x50, 0x03, 0x3f, 0x48, 0xf5, 0x85, 0x3e, 0x26, 0xc0, 0x63, 0x3d,
  0xdb, 0x9c, 0xf4, 0x3d, 0x04, 0xe0, 0xf6, 0x3e, 0xf2, 0x78, 0x92, 0x3e, 0x55, 0x7f, 0x11, 0x3f,
  0xb5, 0x77, 0xb3, 0xbe, 0xcd, 0x7b, 0x25, 0xbe, 0xfb, 0x54, 0xce, 0x3e, 0x49, 0xc9, 0xf4, 0xbc,
  0xcb, 0x87, 0x96, 0x3e, 0x78, 0x55, 0x87, 0xbe, 0xc6, 0x36, 0x14, 0x3f, 0xb3, 0x0a, 0xc1, 0x3e,
  0x3b, 0xdb, 0xf0, 0x3d, 0x64, 0x43, 0x74, 0x3e, 0x3a, 0x10, 0xd5, 0xbf, 0x3f, 0x63, 0x06, 0x3f,
  0x9e, 0xf6, 0xbd, 0x3e, 0x0b, 0x03, 0x0b, 0xbe, 0x52, 0x50, 0xb2, 0x3f, 0x14, 0x3b, 0x31, 0x3e,
  0x36, 0x26, 0x4d, 0x3e, 0x4e, 0xfd, 0x7d, 0x3e, 0x17, 0xa7, 0xe7, 0x3e, 0x47, 0x3b, 0x00, 0x3f,
  0x93, 0x33, 0x4b, 0x3e, 0xfd, 0x49, 0x73, 0xbf, 0x88, 0xde, 0x04, 0xbf, 0x4c, 0xec, 0x69, 0x3e,
  0x58, 0x21, 0x80, 0x3e, 0x3e, 0x2a, 0xa9, 0xbd, 0x3d, 0xec, 0x89, 0xbe, 0xcc, 0x76, 0x6a, 0x3d,
  0x0a, 0x7b, 0xd6, 0xbd, 0xe9, 0x95, 0xe2, 0x3e, 0x03, 0x54, 0x28, 0x3e, 0xa4, 0x99, 0xc4, 0xbd,
  0x65, 0x93, 0x68, 0x3d, 0x22, 0xc7, 0xbc, 0xbe, 0x5b, 0xf0, 0xa6, 0xbe, 0x66, 0xaf, 0x84, 0x3d,
  0x77, 0xc0, 0x29, 0x3f, 0x51, 0xb8, 0x0d, 0xbf, 0x5c, 0x20, 0xca, 0xbe, 0xcb, 0x28, 0x26, 0xbf,
  0x6e, 0x9e, 0x9d, 0x3e, 0x8b, 0x7f, 0x41, 0xbd, 0xb9, 0x38, 0xc0, 0x3e, 0xe1, 0x35, 0x41, 0x3f,
  0x74, 0x44, 0xc6, 0x3d, 0xdd, 0x5c, 0xce, 0x3d, 0x47, 0x12, 0x2d, 0x3e, 0x05, 0x07, 0x79, 0xbf,
  0x58, 0x9a, 0x1a, 0xbf, 0x59, 0xe4, 0x2e, 0xbd, 0xc6, 0x3b, 0x36, 0xbe, 0xa6, 0x3c, 0xa4, 0xbf,
  0x57, 0xe4, 0x23, 0xbe, 0xf7, 0x3e, 0x67, 0xbf, 0x5b, 0x26, 0x4b, 0x3f, 0x55, 0x4e, 0x5e, 0xbe,
  0x75, 0x2f, 0x3f, 0x3f, 0xc7, 0xac, 0x75, 0xbf, 0x38, 0x86, 0xfc, 0xbd, 0xd9, 0x8c, 0x18, 0xbf,
  0xf9, 0xba, 0x50, 0xbf, 0x25, 0x00, 0x04, 0x3f, 0x8e, 0x79, 0xb6, 0xbf, 0x30, 0x6d, 0x6a, 0xbe,
  0xc7, 0x81, 0x48, 0x3e, 0xc8, 0x57, 0x04, 0xbe, 0xdf, 0x76, 0xb5, 0x3e, 0x2c, 0xb2, 0x17, 0xbf,
  0x8d, 0x00, 0x2a, 0x3d, 0xfa, 0xb4, 0xd0, 0xbe, 0x36, 0x9d, 0x19, 0x3f, 0x30, 0x5d, 0x46, 0xbf,
  0x3c, 0x64, 0x65, 0xbf, 0xfb, 0xeb, 0x18, 0xbf, 0xdd, 0x02, 0x13, 0x3f, 0x77, 0xf6, 0x49, 0xbe,
  0x3b, 0x8e, 0xa1, 0xbf, 0x0e, 0xd4, 0x5c, 0x3f, 0x2d, 0xa6, 0xa1, 0x3e, 0x76, 0x8d, 0xea, 0xbe,
  0xea, 0xcc, 0x3b, 0xbf, 0x36, 0xd5, 0x83, 0xbf, 0x21, 0x70, 0x86, 0xbf, 0xad, 0x70, 0x97, 0xbf,
  0x47, 0xfb, 0x92, 0x3e, 0x37, 0xd3, 0x5a, 0x3d, 0xcd, 0xbe, 0x9c, 0xbf, 0xd4, 0x2d, 0xa9, 0x3e,
  0xf6, 0x1c, 0x1e, 0x3d, 0x07, 0xce, 0xa2, 0x3d, 0x88, 0x7e, 0xb9, 0xbf, 0x7c, 0x67, 0x50, 0x3e,
  0x0f, 0xd9, 0x0f, 0x3e, 0x79, 0x4d, 0xba, 0xbf, 0x1b, 0x22, 0x9a, 0xbe, 0xe5, 0x17, 0x18, 0x3f,
  0x88, 0xdb, 0xc5, 0x3e, 0xe8, 0xdf, 0x5d, 0xbf, 0x70, 0x4d, 0x7e, 0xbf, 0xab, 0x94, 0xf5, 0x3e,
  0xb7, 0x08, 0x0d, 0xbf, 0x76, 0xdb, 0xeb, 0xbe, 0x37, 0x73, 0x12, 0x3f, 0xa5, 0x90, 0x53, 0xbf,
  0xd5, 0x64, 0x46, 0x3e, 0x13, 0x66, 0xe2, 0xbe, 0xb7, 0x0d, 0xab, 0x3e, 0x4f, 0x37, 0xa8, 0xbe,
  0x4b, 0x7c, 0xa9, 0xbf, 0x6b, 0xad, 0xdb, 0xbd, 0xa8, 0xe9, 0xb5, 0x3e, 0x79, 0x7b, 0x07, 0x3e,
  0xb1, 0xdb, 0x94, 0xbe, 0x70, 0xa2, 0x91, 0xbe, 0xe6, 0x92, 0x11, 0x3e, 0xfe, 0x1c, 0xc7, 0xbe,
  0x63, 0x55, 0xbc, 0xbc, 0x61, 0x50, 0xca, 0xbc, 0x03, 0x83, 0x19, 0xbf, 0xa8, 0x0d, 0x4a, 0xbd,
  0xcc, 0x45, 0x12, 0xbf, 0xca, 0xa9, 0x81, 0x3e, 0x28, 0x04, 0x60, 0x3e, 0x2b, 0x6b, 0xa0, 0x3e,
  0x89, 0x45, 0xc2, 0x3e, 0x26, 0x37, 0x25, 0xbf, 0x81, 0xaf, 0x03, 0x3f, 0x70, 0xbf, 0xbc, 0x3d,
  0x1d, 0x44, 0xea, 0x3e, 0xa2, 0xef, 0xe1, 0x3e, 0xf8, 0xd2, 0x44, 0xbd, 0x7d, 0xbe, 0x46, 0x3d,
  0x1d, 0xb6, 0x9b, 0xbe, 0xef, 0x00, 0x2b, 0x3e, 0x47, 0x68, 0x91, 0xbe, 0x51, 0x2a, 0x82, 0xbe,
  0x54, 0xa3, 0x98, 0x3e, 0xb2, 0x1f, 0x81, 0x3e, 0x52, 0x34, 0xc8, 0xbd, 0x2b, 0xe7, 0x6f, 0xbf,
  0x94, 0x29, 0x58, 0xbf, 0x7e, 0x2b, 0xb3, 0x3e, 0xf9, 0x70, 0x28, 0xbf, 0x65, 0x4c, 0x2f, 0x3f,
  0xe1, 0xf8, 0x53, 0xbf, 0x34, 0xce, 0x9e, 0xbd, 0xc7, 0xfd, 0x47, 0x3e, 0x75, 0x97, 0xa6, 0xbe,
  0x38, 0x0b, 0x8c, 0xbe, 0xd2, 0x65, 0x37, 0xbd, 0x79, 0x65, 0x50, 0xbe, 0x50, 0xba, 0xa2, 0xbd,
  0xc2, 0x1a, 0x31, 0x3f, 0x23, 0x2e, 0xd3, 0xbe, 0xb2, 0x06, 0xd6, 0xbd, 0x24, 0x47, 0x58, 0xbf,
  0xb3, 0xfb, 0xbb, 0xbe, 0x06, 0x1b, 0x5b, 0x3e, 0xa7, 0x0a, 0xd3, 0xbe, 0xa2, 0x35, 0x93, 0x3e,
  0x04, 0xe8, 0x4e, 0x3e, 0x87, 0xd4, 0x8d, 0xbf, 0x5d, 0xe2, 0xe7, 0x3c, 0xcd, 0x26, 0x9d, 0xbe,
  0xdb, 0xa9, 0x99, 0x3d, 0x3f, 0x65, 0x96, 0xbf, 0xef, 0x52, 0xb7, 0x3e, 0x65, 0xdc, 0x4e, 0x3f,
  0x63, 0xa2, 0x73, 0xbf, 0xad, 0xb7, 0x55, 0xbe, 0x90, 0x52, 0x01, 0xc0, 0x4f, 0xd9, 0xdb, 0x3e,
  0xfa, 0xac, 0x33, 0x3f, 0xa0, 0xec, 0xd8, 0x3e, 0xd4, 0x4f, 0xaf, 0x3f, 0x87, 0xfc, 0x98, 0x3e,
  0xd5, 0x89, 0x87, 0xbf, 0x68, 0x1f, 0x9d, 0xbf, 0x0e, 0x4a, 0x95, 0xbc, 0xe1, 0x99, 0x56, 0xbf,
  0xc3, 0x75, 0x16, 0x3f, 0xdb, 0xd7, 0x00, 0xbf, 0x62, 0xa8, 0xa5, 0xbf, 0x17, 0x81, 0xed, 0x3e,
  0x6d, 0x7e, 0x0d, 0xc0, 0xce, 0x0f, 0x88, 0xbd, 0x8a, 0x93, 0x35, 0x3d, 0xc8, 0xc6, 0x44, 0x3c,
  0xb1, 0x34, 0x12, 0x3f, 0x19, 0x1d, 0xa9, 0xbf, 0xcb, 0x19, 0x9f, 0x3e, 0x6c, 0xbf, 0x2e, 0x3e,
  0x62, 0x87, 0x36, 0xbd, 0x43, 0xd6, 0x5a, 0x3f, 0x6e, 0x6f, 0xcf, 0x3d, 0x9c, 0xf7, 0xa7, 0x3a,
  0x99, 0x66, 0x0e, 0xbe, 0x08, 0xde, 0xb8, 0x3e, 0xe7, 0x21, 0x27, 0x3d, 0x8f, 0x3c, 0x39, 0xbf,
  0xd8, 0xc2, 0xe5, 0x3e, 0x42, 0x2d, 0x34, 0xbc, 0xeb, 0xa7, 0x3b, 0xbe, 0xb6, 0xa6, 0x22, 0xc0,
  0x50, 0xa1, 0x9f, 0xbf, 0xd9, 0x19, 0xa7, 0x3e, 0x8b, 0xed, 0x34, 0xc0, 0x3a, 0xe9, 0x9f, 0xbe,
  0x05, 0x60, 0xd8, 0xbe, 0xf7, 0x27, 0x2b, 0xbd, 0x56, 0xd5, 0x4c, 0xbe, 0x62, 0xfb, 0xc4, 0xbf,
  0x27, 0x97, 0x3d, 0xbe, 0x28, 0xc7, 0x0b, 0xbe, 0x40, 0x48, 0xfa, 0xbe, 0x6d, 0xb9, 0xd9, 0xbd,
  0x87, 0xbe, 0xda, 0x3e, 0x77, 0xbb, 0x5b, 0xbf, 0x3f, 0x17, 0xa6, 0x3d, 0x84, 0x49, 0xc5, 0xbe,
  0x4f, 0xbe, 0x05, 0xbf, 0xa0, 0x35, 0xa7, 0xbf, 0xf2, 0x54, 0xbe, 0xbf, 0x7e, 0xa7, 0xb8, 0xbd,
  0x6a, 0xe9, 0x13, 0x3f, 0xa6, 0xb1, 0x4c, 0xbe, 0x06, 0xe0, 0xb3, 0x3e, 0x56, 0xc8, 0xaa, 0xbe,
  0xd6, 0x9d, 0xaa, 0xbc, 0x1d, 0x08, 0x99, 0xbe, 0x2e, 0x7c, 0x12, 0x3f, 0x7c, 0x04, 0xdb, 0xbf,
  0xa0, 0xc2, 0x62, 0xbf, 0xd3, 0x91, 0xdc, 0xbe, 0x24, 0x1e, 0x4a, 0x3f, 0xb7, 0x86, 0x0b, 0xbd,
  0x92, 0x0e, 0xbc, 0xbf, 0x65, 0xb2, 0x16, 0x3f, 0xda, 0x62, 0x32, 0x3f, 0xf2, 0x13, 0x0f, 0xbf,
  0x14, 0x92, 0x1e, 0x3e, 0xd8, 0x86, 0x1f, 0xbe, 0x5d, 0x08, 0x1b, 0x3e, 0x66, 0xb5, 0xc6, 0xbd,
  0x22, 0x6a, 0xf8, 0x3e, 0x12, 0xa4, 0xac, 0xbc, 0x79, 0x76, 0x2a, 0x3e, 0x50, 0xbc, 0xd1, 0x3e,
  0xb1, 0xa9, 0x1e, 0xbf, 0xa3, 0x6f, 0x71, 0xbb, 0xc9, 0xa3, 0x07, 0xbe, 0x21, 0xd5, 0x91, 0x3e,
  0xec, 0xbd, 0xec, 0x3d, 0x81, 0xce, 0x48, 0xbd, 0x59, 0x3e, 0x9d, 0xbc, 0x39, 0x93, 0x61, 0x3e,
  0x67, 0xef, 0xe5, 0x3e, 0xb3, 0x4c, 0xc3, 0x3e, 0x51, 0x1e, 0x84, 0xbd, 0xc2, 0x6d, 0x04, 0x3e,
  0x36, 0x25, 0x3e, 0x3d, 0xa0, 0xae, 0xb1, 0x3e, 0x23, 0x3a, 0x92, 0xbe, 0xcf, 0xbe, 0x32, 0xbe,
  0x18, 0x59, 0x01, 0x3f, 0x73, 0x73, 0x9f, 0x3e, 0x3e, 0x56, 0x14, 0xbe, 0x6b, 0xb9, 0xf4, 0xbe,
  0x95, 0x51, 0x96, 0xbd, 0x67, 0x47, 0x82, 0x3e, 0x4e, 0xa0, 0x29, 0xbf, 0xb0, 0x6c, 0xb8, 0x3e,
  0x1f, 0xcf, 0x8e, 0x3e, 0x94, 0xa3, 0xd0, 0x3e, 0xaa, 0xd2, 0xb2, 0x3e, 0x29, 0xc0, 0x57, 0x3e,
  0x41, 0x1e, 0xb5, 0x3e, 0x73, 0xd8, 0xf5, 0x3e, 0x86, 0x85, 0x02, 0x3b, 0x1e, 0x42, 0x89, 0x3e,
  0x56, 0x8d, 0x88, 0x3e, 0xc3, 0x16, 0x2c, 0x3f, 0x64, 0x79, 0xb4, 0xbe, 0x66, 0xdd, 0x3d, 0x3e,
  0xbc, 0x93, 0x6f, 0x3e, 0x12, 0x96, 0x0f, 0x3f, 0xb8, 0xcc, 0x07, 0x3f, 0x66, 0xc5, 0x27, 0x3f,
  0x20, 0x43, 0x14, 0xbf, 0x05, 0x8a, 0x52, 0x3e, 0xd1, 0x20, 0xfe, 0x3d, 0x17, 0x5d, 0x2e, 0x3d,
  0x03, 0xf8, 0x4a, 0xbe, 0xba, 0xad, 0xda, 0x3d, 0x1f, 0x0e, 0x1e, 0x3f, 0x8a, 0x11, 0x31, 0x3f,
  0x7a, 0x4d, 0xf4, 0x3c, 0x62, 0x93, 0x24, 0x3e, 0xf3, 0xe4, 0xa5, 0xbf, 0xdd, 0xe6, 0x7f, 0x3e,
  0x84, 0x0c, 0xe4, 0x3e, 0x8c, 0xb8, 0x2c, 0xbf, 0x7f, 0x5e, 0xad, 0x3e, 0xda, 0x63, 0xa2, 0x3d,
  0x3e, 0xd8, 0x1a, 0xbf, 0xbe, 0x32, 0x29, 0xbf, 0x71, 0xe2, 0x61, 0xbf, 0x44, 0x39, 0x07, 0xbd,
  0x56, 0xc5, 0x3e, 0x3e, 0x9c, 0xd9, 0xa4, 0xbe, 0x52, 0x33, 0x8e, 0xbf, 0xe4, 0xa4, 0xf8, 0x3e,
  0x74, 0xe9, 0x15, 0xbf, 0x9f, 0xee, 0x64, 0x3e, 0x0d, 0x8b, 0x46, 0xbf, 0x30, 0xf8, 0xa5, 0x3e,
  0x90, 0xa4, 0x11, 0x3f, 0xd2, 0x69, 0x50, 0xbf, 0xdb, 0xa2, 0xdf, 0x3e, 0xb7, 0x7b, 0x8e, 0x3e,
  0x5e, 0x18, 0xad, 0xbe, 0x1a, 0x3c, 0x86, 0x3c, 0x05, 0xbd, 0x32, 0xbf, 0x14, 0xdf, 0x77, 0xbd,
  0x05, 0x15, 0x6a, 0xbf, 0xd2, 0x04, 0xaf, 0x3e, 0x23, 0x62, 0x3a, 0x3f, 0x51, 0x49, 0x9f, 0xbe,
  0xa4, 0x49, 0x71, 0x3d, 0xfe, 0x4e, 0xd2, 0x3d, 0x41, 0x2f, 0xc3, 0x3d, 0x92, 0x36, 0x38, 0xbf,
  0x25, 0x18, 0xd2, 0xbe, 0xbb, 0xce, 0x0f, 0x3e, 0xce, 0x66, 0x14, 0xbf, 0x15, 0xdf, 0x3b, 0x3f,
  0x9d, 0x8a, 0xdf, 0x3e, 0x51, 0xc0, 0x00, 0x3f, 0x36, 0xd3, 0x45, 0x3f, 0x33, 0xa4, 0x4a, 0x3f,
  0x85, 0x9e, 0x18, 0x3d, 0x82, 0xee, 0x81, 0xbf, 0xce, 0x9a, 0x40, 0x3e, 0x12, 0x57, 0x2f, 0x3e,
  0x2c, 0x44, 0x3b, 0x3f, 0xba, 0x6b, 0xfc, 0x3d, 0xe6, 0x9b, 0xc5, 0x3c, 0x79, 0x42, 0x17, 0xbf,
  0xc3, 0xbd, 0xbe, 0x3d, 0x5b, 0x3e, 0x04, 0x3f, 0x76, 0xb6, 0x8f, 0x3e, 0xe2, 0xf9, 0x96, 0xbe,
  0x41, 0xf3, 0x76, 0xbf, 0x9e, 0x3e, 0x40, 0x3e, 0x31, 0x30, 0x0b, 0x3e, 0x5f, 0xfc, 0x0d, 0xbc,
  0xb1, 0x11, 0x8e, 0xbf, 0x81, 0x28, 0xa0, 0x3d, 0x08, 0x04, 0xd8, 0xbe, 0xcb, 0x7e, 0x0a, 0x3e,
  0x8d, 0xd2, 0x1a, 0xbc, 0x6c, 0xd5, 0x13, 0xbf, 0xc2, 0x6d, 0x2b, 0x3f, 0x5d, 0x56, 0x0e, 0x3f,
  0x18, 0xe1, 0x1e, 0x3f, 0x28, 0x14, 0x52, 0xbd, 0x4d, 0x2c, 0x47, 0xbd, 0x71, 0x99, 0x93, 0xbb,
  0x38, 0x63, 0x90, 0x3d, 0x3d, 0x75, 0x97, 0xbe, 0x52, 0xbb, 0x29, 0x3d, 0x09, 0x63, 0x3a, 0x3f,
  0x27, 0x29, 0x77, 0xbd, 0x1e, 0xbf, 0x57, 0x3f, 0xc8, 0xcb, 0xd9, 0x3e, 0xf5, 0xcc, 0x07, 0x3f,
  0x4f, 0xf2, 0x8e, 0x3e, 0x9a, 0x39, 0x50, 0x3f, 0xda, 0x22, 0x79, 0x3e, 0xe9, 0xf7, 0x63, 0x3d,
  0x3e, 0xb6, 0xe8, 0x3e, 0x84, 0x4a, 0x01, 0x3f, 0x56, 0x44, 0x2e, 0x3f, 0xdb, 0x7a, 0x4a, 0x3f,
  0x5a, 0xdc, 0xed, 0xbe, 0xc4, 0x62, 0x88, 0xbe, 0xb8, 0x00, 0x2f, 0x3d, 0x0e, 0x9e, 0x87, 0x3e,
  0x06, 0x94, 0x6f, 0x3e, 0xb1, 0x5b, 0xb4, 0xbe, 0xa0, 0x66, 0x57, 0xbe, 0x83, 0x0b, 0xaf, 0x3e,
  0x0f, 0xa0, 0xba, 0x3e, 0x39, 0x43, 0xed, 0x3e, 0x9a, 0xf3, 0x5f, 0xbf, 0x16, 0x84, 0x44, 0xbe,
  0x37, 0x1d, 0x56, 0x3f, 0x84, 0x21, 0x76, 0xbf, 0xc4, 0x14, 0x19, 0xbf, 0x0e, 0x5b, 0x88, 0x3e,
  0xb0, 0xf6, 0x61, 0x3f, 0x4b, 0x91, 0x7b, 0xbe, 0x1d, 0xe8, 0x29, 0x3f, 0x93, 0xa8, 0x06, 0xbf,
  0xeb, 0x05, 0x5e, 0xbe, 0x8c, 0xae, 0x86, 0xbe, 0x79, 0x87, 0xb5, 0x3e, 0x75, 0x1e, 0x8e, 0xbe,
  0xa1, 0x5d, 0x01, 0x3e, 0xeb, 0xcb, 0x76, 0xbe, 0xf4, 0x6e, 0xdf, 0x3e, 0x09, 0x0f, 0x11, 0xbe,
  0x3e, 0xd7, 0x7f, 0xbe, 0xb6, 0x51, 0x57, 0x3f, 0x9a, 0x0b, 0x83, 0xbe, 0x69, 0x3d, 0xc5, 0xbe,
  0xe0, 0x9c, 0x1d, 0xbe, 0xa8, 0x10, 0x67, 0x3e, 0x2f, 0x08, 0xa5, 0xbf, 0x22, 0x58, 0xcb, 0xbe,
  0x0c, 0x87, 0x1e, 0xbc, 0xe2, 0xf5, 0x0b, 0x3e, 0x20, 0x7c, 0x90, 0x3e, 0x56, 0x98, 0x27, 0xbf,
  0x27, 0xa2, 0xaf, 0xbe, 0x6a, 0xeb, 0xbe, 0xbe, 0x02, 0x42, 0x36, 0x3f, 0xa6, 0x46, 0xd2, 0x3d,
  0xfa, 0x4b, 0x0d, 0x3f, 0x5a, 0x20, 0x0d, 0x3f, 0xd3, 0x67, 0xb0, 0x3e, 0xc0, 0x52, 0x8c, 0xbe,
  0x23, 0xdc, 0x66, 0xbf, 0xa9, 0x06, 0x50, 0xbf, 0xa4, 0x7a, 0x69, 0xbf, 0x6e, 0xf2, 0x3a, 0xbf,
  0xe3, 0xd7, 0x1c, 0x3e, 0x4f, 0xca, 0x7b, 0x3e, 0xac, 0x80, 0x13, 0xbf, 0xc6, 0x52, 0x06, 0x3f,
  0x89, 0xbd, 0x29, 0xbd, 0xf2, 0x4f, 0x4a, 0x3e, 0xe8, 0xb9, 0x5e, 0xbf, 0x13, 0xa2, 0x8f, 0x3e,
  0x72, 0x99, 0x74, 0x3e, 0x0d, 0xa3, 0xbb, 0xbf, 0x09, 0x5c, 0x32, 0x3f, 0xba, 0xb8, 0xeb, 0x3e,
  0x61, 0x5c, 0x25, 0xbf, 0xbb, 0xf2, 0xd2, 0x3c, 0x12, 0x50, 0x4a, 0xbf, 0xe0, 0x5d, 0xa2, 0xbe,
  0xe6, 0x3f, 0x39, 0xbf, 0xc7, 0xcc, 0x0d, 0xbf, 0xdb, 0x1a, 0x09, 0x3f, 0x10, 0xe6, 0x46, 0xbf,
  0x66, 0xf0, 0x90, 0xbe, 0xfc, 0xdb, 0xdc, 0xbe, 0xa1, 0x70, 0xce, 0x3c, 0xb8, 0x14, 0xf2, 0xbd,
  0xdf, 0xac, 0xaa, 0xbf, 0x02, 0x0b, 0xb9, 0x3d, 0xea, 0xf7, 0x6d, 0x3e, 0xac, 0xcd, 0x43, 0x3f,
  0xc2, 0xb5, 0x0d, 0x3e, 0x91, 0x95, 0x11, 0x3e, 0x6f, 0x1a, 0x57, 0xbf, 0x9f, 0x36, 0xfa, 0xbe,
  0x30, 0xd7, 0x34, 0x3e, 0x65, 0x57, 0x47, 0xbf, 0x09, 0xcf, 0x99, 0xbe, 0x60, 0xe8, 0xf3, 0xbd,
  0x6f, 0xc5, 0x16, 0xbf, 0x71, 0xb5, 0x0a, 0x3e, 0x63, 0x80, 0xd2, 0xbe, 0xa8, 0x88, 0xc2, 0x3e,
  0xcc, 0x72, 0xb5, 0x3e, 0x1a, 0x4f, 0xd2, 0x3d, 0x00, 0xf8, 0x40, 0x3d, 0xa5, 0xa7, 0x76, 0x3e,
  0x0b, 0x22, 0x6a, 0x3f, 0x40, 0x4f, 0xae, 0xbe, 0x7f, 0x57, 0xc1, 0xbe, 0x37, 0xc4, 0x10, 0x3f,
  0x39, 0x15, 0x17, 0xbf, 0x2c, 0x34, 0x09, 0x3f, 0xf1, 0x21, 0xb0, 0x3d, 0xb2, 0x27, 0x41, 0x3c,
  0x6c, 0x86, 0x16, 0x3f, 0x62, 0x46, 0xa1, 0x3e, 0x63, 0xb6, 0x1f, 0x3d, 0x33, 0xf1, 0x2f, 0xbf,
  0x88, 0xa4, 0x38, 0xbf, 0x5c, 0x53, 0x41, 0x3e, 0x2f, 0x79, 0x2d, 0xbf, 0x96, 0x2b, 0xd3, 0xbd,
  0x26, 0xff, 0xff, 0xff, 0x04, 0x00, 0x00, 0x00, 0x40, 0x00, 0x00, 0x00, 0x75, 0x7c, 0xe2, 0x3e,
  0x0c, 0x72, 0x68, 0x3e, 0xc2, 0x08, 0x72, 0x3f, 0x78, 0x43, 0x51, 0xbf, 0x34, 0xd1, 0xcb, 0xbe,
  0x9d, 0xc9, 0xa2, 0x3f, 0x08, 0x76, 0xa1, 0xbf, 0x85, 0x82, 0x5e, 0x3f, 0xea, 0x08, 0x6c, 0xbe,
  0xba, 0xc7, 0x03, 0x3f, 0x29, 0xb0, 0x2b, 0xbf, 0x4f, 0xbb, 0x3e, 0x3f, 0xe4, 0xcb, 0x4d, 0x3f,
  0x8c, 0x9a, 0x87, 0x3f, 0xe7, 0x6c, 0xb8, 0xbf, 0x7b, 0x46, 0x75, 0xbf, 0x72, 0xff, 0xff, 0xff,
  0x04, 0x00, 0x00, 0x00, 0x80, 0x00, 0x00, 0x00, 0xae, 0x00, 0xcd, 0x3d, 0x21, 0xad, 0x86, 0xbf,
  0xce, 0x2f, 0xfa, 0xbf, 0x57, 0x23, 0x67, 0x3e, 0xfd, 0x92, 0x86, 0xbf, 0xa7, 0x31, 0x46, 0xc0,
  0x9a, 0xd5, 0x1d, 0xbf, 0xb7, 0x2d, 0x3d, 0x3f, 0x13, 0x55, 0x59, 0x3f, 0x24, 0x95, 0x9c, 0x3d,
  0x5f, 0x42, 0xeb, 0xbf, 0x7f, 0xbc, 0xcf, 0x3e, 0xec, 0xa5, 0xa4, 0x3e, 0x48, 0xdd, 0x12, 0x3a,
  0xdd, 0x68, 0x73, 0x3f, 0x23, 0x36, 0xfb, 0x3e, 0x7a, 0x84, 0x2b, 0xbf, 0x22, 0xa8, 0xd6, 0xbf,
  0xf9, 0x76, 0xb3, 0xbf, 0xa5, 0xbf, 0x14, 0x3f, 0x66, 0xfc, 0x2d, 0xbc, 0x50, 0x40, 0xcb, 0xbf,
  0x8e, 0x44, 0x5e, 0x3e, 0xa6, 0xa2, 0xe2, 0x3d, 0xc1, 0x21, 0x6e, 0x3f, 0xcc, 0xaf, 0x2d, 0xbf,
  0x87, 0x43, 0x80, 0x3f, 0x16, 0x72, 0x2a, 0x3f, 0x8d, 0x66, 0x69, 0x3e, 0xab, 0x80, 0x9d, 0x3f,
  0xa7, 0x81, 0x30, 0x3f, 0x41, 0x08, 0x1c, 0x3c, 0x00, 0x00, 0x06, 0x00, 0x08, 0x00, 0x04, 0x00,
  0x06, 0x00, 0x00, 0x00, 0x04, 0x00, 0x00, 0x00, 0x00, 0x20, 0x00, 0x00, 0xa6, 0xe6, 0xf6, 0x3c,
  0x3f, 0x27, 0x53, 0x3d, 0x65, 0xa6, 0x2d, 0xba, 0x7d, 0x35, 0x74, 0x41, 0x9e, 0x4f, 0xfc, 0x3d,
  0xed, 0x9e, 0x93, 0x3b, 0xca, 0x70, 0x95, 0xbe, 0xd2, 0xc5, 0x0f, 0xbb, 0x37, 0x3f, 0xb9, 0x3e,
  0x87, 0x55, 0x0f, 0xbd, 0xc8, 0x7a, 0xd7, 0xbe, 0x58, 0xca, 0x02, 0x40, 0xff, 0xf1, 0xa2, 0xbd,
  0x69, 0x26, 0xf5, 0xbe, 0xec, 0x25, 0x85, 0xbd, 0x99, 0xcf, 0xe2, 0xb9, 0x83, 0x50, 0x8c, 0xbe,
  0xce, 0xa4, 0x10, 0xbf, 0x5b, 0x35, 0x37, 0x40, 0x4a, 0x48, 0x66, 0xbd, 0x6d, 0xb9, 0x4f, 0x40,
  0x7c, 0x08, 0x2a, 0x40, 0x54, 0x87, 0xb4, 0xbb, 0xe9, 0x53, 0x0b, 0xc0, 0x07, 0x3b, 0xc6, 0x3c,
  0x69, 0xeb, 0xf2, 0xbc, 0x72, 0x9c, 0x38, 0x40, 0x24, 0xa2, 0x2f, 0xbd, 0x29, 0x71, 0xc1, 0xbd,
  0xbe, 0x3b, 0xca, 0xbe, 0x3e, 0xd7, 0xf2, 0x3e, 0x24, 0x99, 0x09, 0xbd, 0x3a, 0xe9, 0xf2, 0xbd,
  0x45, 0x18, 0x3e, 0x3e, 0x90, 0x84, 0x1a, 0x3e, 0xd2, 0x7f, 0x52, 0xbe, 0xdf, 0x35, 0xa9, 0xbd,
  0x32, 0x85, 0x5e, 0xc0, 0x90, 0x18, 0x4d, 0x3d, 0xd5, 0xff, 0x71, 0xbb, 0xb9, 0xd9, 0x6a, 0xbe,
  0xc8, 0x63, 0xa1, 0xbb, 0xd8, 0x4f, 0x61, 0xc1, 0x7a, 0xb8, 0x07, 0xbe, 0xd2, 0x88, 0x09, 0xc0,
  0x18, 0x3d, 0xaf, 0xbb, 0xf0, 0xa3, 0x2f, 0xba, 0x01, 0x5c, 0x53, 0xbb, 0xa5, 0x16, 0x50, 0x3d,
  0x3d, 0x0d, 0xaf, 0xbd, 0xb4, 0x41, 0xad, 0xbb, 0xb6, 0x41, 0x47, 0xc0, 0x43, 0xd7, 0x9d, 0x3d,
  0xc0, 0x87, 0xda, 0xbb, 0xaa, 0x99, 0x59, 0xbc, 0x71, 0x26, 0x86, 0xbc, 0xc8, 0x81, 0xd7, 0xbc,
  0xe6, 0x7b, 0x3d, 0xbf, 0x8e, 0x9e, 0xf9, 0x3b, 0x15, 0x08, 0x06, 0x40, 0xfb, 0x5b, 0x97, 0x3f,
  0xc1, 0xb9, 0xdf, 0x3e, 0x1e, 0xfa, 0x25, 0x3f, 0x80, 0x9e, 0x13, 0xbd, 0x8e, 0xf7, 0x67, 0xbd,
  0x80, 0x5a, 0x9f, 0xbd, 0x89, 0x8e, 0x18, 0x3a, 0x54, 0xc5, 0x25, 0x42, 0x80, 0x0c, 0x8f, 0x3d,
  0x57, 0x4d, 0xb2, 0xbc, 0x74, 0x78, 0x13, 0xbd, 0xcd, 0x79, 0x8d, 0x3b, 0x68, 0x1b, 0x07, 0xbe,
  0xdb, 0xd2, 0x99, 0x3e, 0x70, 0xe0, 0xe3, 0xbe, 0x7b, 0xfa, 0xf1, 0x3e, 0x41, 0xd7, 0x79, 0x3c,
  0x6b, 0x8c, 0x64, 0xbe, 0xde, 0x66, 0xac, 0xbc, 0xf4, 0xec, 0x62, 0xba, 0x76, 0x57, 0x04, 0xbf,
  0x9b, 0x0b, 0xc4, 0xbf, 0x35, 0x22, 0xcd, 0x3f, 0xe3, 0xbd, 0x2a, 0xbe, 0x4f, 0xe9, 0x02, 0x40,
  0x77, 0x8f, 0xb0, 0x3e, 0x48, 0x66, 0xda, 0x3d, 0xe1, 0xbd, 0x35, 0x41, 0x7c, 0xf8, 0x7f, 0x3d,
  0x2e, 0xfb, 0x14, 0x3d, 0x4b, 0xb3, 0x19, 0xbf, 0x99, 0x7e, 0x7d, 0xbc, 0x88, 0xc8, 0xa8, 0x3b,
  0x9c, 0x10, 0x72, 0xbe, 0xef, 0x4a, 0xfd, 0xbe, 0x6f, 0xcb, 0x30, 0xbe, 0xba, 0x4c, 0x28, 0xbd,
  0x21, 0x49, 0x8a, 0xbe, 0x97, 0x28, 0xe4, 0xbc, 0x9c, 0x9b, 0xb2, 0xbd, 0x92, 0xe8, 0x06, 0x3e,
  0x01, 0xa7, 0x12, 0x41, 0x1f, 0xad, 0x87, 0x3d, 0xb7, 0x2a, 0x2f, 0x3c, 0xd4, 0x6e, 0x28, 0xbc,
  0x80, 0x4f, 0x99, 0x3d, 0x71, 0xd5, 0xfe, 0xc0, 0xe2, 0xad, 0xfc, 0xbc, 0xca, 0x97, 0xae, 0x40,
  0xbb, 0xce, 0x00, 0xbe, 0xf1, 0x8b, 0x11, 0x3b, 0x95, 0xfd, 0xbb, 0xbd, 0x1b, 0x11, 0x6f, 0xbe,
  0xfa, 0x27, 0x0e, 0x3d, 0xba, 0x54, 0x89, 0xbd, 0xea, 0xc7, 0xf8, 0xbe, 0xdd, 0x6c, 0xb8, 0xbe,
  0x35, 0x97, 0x41, 0x3c, 0xab, 0x83, 0x80, 0x3d, 0xe8, 0x92, 0x89, 0xbe, 0x12, 0x0c, 0xd6, 0x3b,
  0x99, 0x47, 0x66, 0xbf, 0xe0, 0x04, 0x64, 0xbd, 0xad, 0x89, 0xca, 0xbc, 0x6c, 0x7a, 0xaf, 0x3f,
  0xca, 0x63, 0x59, 0xbf, 0x5b, 0x00, 0x8e, 0x3f, 0x90, 0x68, 0x31, 0x3c, 0xb6, 0x93, 0xdf, 0x3d,
  0xe4, 0xe6, 0x94, 0xbd, 0x02, 0x32, 0xfc, 0xba, 0x6c, 0x62, 0xd1, 0x40, 0xfd, 0x74, 0x4d, 0xbe,
  0x23, 0xa2, 0xdc, 0x3c, 0x57, 0xed, 0x62, 0x3e, 0x0e, 0xc6, 0xba, 0xbb, 0x49, 0xdb, 0xa2, 0x3e,
  0xe0, 0x63, 0x82, 0xbe, 0xcb, 0x41, 0x86, 0x3f, 0x3a, 0x4a, 0x13, 0x40, 0xe7, 0x48, 0x02, 0x3d,
  0x0a, 0x35, 0x43, 0x3e, 0x01, 0x16, 0x0c, 0x3c, 0x2f, 0x07, 0xea, 0x39, 0xdb, 0x7b, 0x0e, 0xbf,
  0x1e, 0xf0, 0x25, 0x3e, 0x54, 0xa6, 0x48, 0x40, 0x7f, 0xb0, 0x64, 0x3d, 0x6b, 0x96, 0xab, 0x3f,
  0xe5, 0xfa, 0x42, 0x40, 0x4c, 0x69, 0x7e, 0x3b, 0x09, 0x61, 0x4a, 0xc0, 0x63, 0x9c, 0xa7, 0x3c,
  0x1b, 0xbc, 0x14, 0xbc, 0xaf, 0xe7, 0xc9, 0x41, 0x2c, 0xf5, 0x68, 0x39, 0x8d, 0x6c, 0x90, 0x3d,
  0x54, 0x1d, 0x30, 0x3f, 0x86, 0xbc, 0xa3, 0x3f, 0xdf, 0xa2, 0xb1, 0x3c, 0x6c, 0xdd, 0xbd, 0x3d,
  0x02, 0xdb, 0xf8, 0x3c, 0x01, 0x11, 0x65, 0xbd, 0xd2, 0x08, 0x0d, 0xbe, 0xc4, 0x41, 0xcf, 0x3d,
  0x87, 0x21, 0x77, 0x41, 0x30, 0xa6, 0xe0, 0x3c, 0xd6, 0x0a, 0x2d, 0x3d, 0x8b, 0x92, 0x26, 0x3c,
  0x21, 0x9a, 0x33, 0x3e, 0x00, 0x05, 0x1d, 0x41, 0x90, 0x04, 0x7d, 0xbd, 0x54, 0xb0, 0x0c, 0xc1,
  0x97, 0x2e, 0xec, 0x3c, 0x2f, 0xd3, 0xed, 0x39, 0xda, 0xed, 0x51, 0xbd, 0xb5, 0x0f, 0xb6, 0xbd,
  0xab, 0xd1, 0x0c, 0x3e, 0xb0, 0xb9, 0xf3, 0xbc, 0xd2, 0xf3, 0x9c, 0xbf, 0x0e, 0xd2, 0x6a, 0x3e,
  0x5e, 0x83, 0xfa, 0x3b, 0xd5, 0x4e, 0xab, 0xbd, 0x47, 0x6e, 0xe9, 0x3d, 0xe4, 0x19, 0xc6, 0x3c,
  0xc7, 0x0c, 0x2f, 0xbf, 0x54, 0xcc, 0x4b, 0xbd, 0xae, 0xd8, 0xc8, 0x40, 0xe6, 0xe5, 0xe0, 0x3f,
  0x24, 0x95, 0xa3, 0x3e, 0x9d, 0xc8, 0xa2, 0x3f, 0x55, 0xb9, 0x3a, 0x3d, 0x90, 0x2e, 0x73, 0xbd,
  0x8a, 0x8e, 0x89, 0x3d, 0x57, 0x82, 0xcc, 0xb9, 0x07, 0x71, 0x15, 0xc1, 0xb3, 0x84, 0x91, 0xbc,
  0x55, 0xcf, 0x42, 0x3c, 0xa7, 0x14, 0x5c, 0x3d, 0x44, 0x2d, 0x10, 0xba, 0x15, 0x5d, 0x95, 0xbd,
  0xf2, 0xc0, 0x7e, 0x3e, 0x30, 0x9f, 0xe7, 0xbe, 0x53, 0x9d, 0x14, 0x40, 0x30, 0xbb, 0x6c, 0xbd,
  0xce, 0xad, 0x46, 0xbe, 0x0d, 0xe3, 0x63, 0xbc, 0x6d, 0x9d, 0xef, 0xb9, 0xa9, 0x29, 0x88, 0x3f,
  0xd0, 0xa4, 0x9c, 0xbf, 0xe8, 0x65, 0x46, 0x40, 0xaa, 0x61, 0xca, 0xbd, 0xaa, 0xb2, 0x13, 0x40,
  0xcd, 0x86, 0x30, 0x40, 0xc5, 0xe8, 0xa1, 0xbd, 0xbe, 0x88, 0x92, 0x3f, 0x1b, 0x3f, 0xb5, 0xbc,
  0xb1, 0xd8, 0x23, 0x3a, 0x36, 0xd0, 0xdf, 0xbe, 0x87, 0x97, 0x12, 0xbc, 0x21, 0x87, 0x67, 0xbd,
  0xb8, 0xc1, 0x1e, 0xbf, 0xfc, 0xfa, 0xa3, 0xbf, 0x8f, 0x07, 0xb2, 0x3b, 0x66, 0x52, 0x53, 0xbe,
  0x21, 0xf1, 0x7c, 0xbe, 0xec, 0x1e, 0x1b, 0x3e, 0xa6, 0xd1, 0x4a, 0x3c, 0x4e, 0x25, 0xee, 0xbd,
  0xf5, 0xbd, 0x40, 0x41, 0x8c, 0x03, 0x5f, 0xbd, 0xd0, 0xf0, 0x3e, 0xbd, 0xa3, 0x09, 0xcc, 0xbd,
  0x23, 0x87, 0x96, 0x3c, 0xad, 0x37, 0x82, 0xc1, 0x97, 0x87, 0x00, 0x3e, 0x38, 0x39, 0x44, 0xc1,
  0xec, 0xae, 0x83, 0xbe, 0x20, 0xf3, 0xe9, 0x3b, 0x86, 0x83, 0x04, 0xbd, 0x67, 0x6a, 0xd7, 0xbb,
  0xef, 0xc0, 0xf3, 0xbd, 0x96, 0x83, 0x70, 0xbb, 0x57, 0xd8, 0x8f, 0xc0, 0xf1, 0x0d, 0xc8, 0x3c,
  0x12, 0x28, 0x43, 0x3b, 0x9f, 0xf3, 0x13, 0x3e, 0x3d, 0x12, 0x62, 0xbe, 0x59, 0x9f, 0x85, 0xbd,
  0x1d, 0xc9, 0xcf, 0x3f, 0x19, 0xaf, 0x29, 0x3e, 0xeb, 0x99, 0x3e, 0x3f, 0x29, 0xa1, 0x26, 0xbf,
  0xa6, 0xcd, 0x48, 0xc0, 0x9c, 0x67, 0x7c, 0xbe, 0xa2, 0xf9, 0x1e, 0xbd, 0xf4, 0xc4, 0x59, 0xbb,
  0xd9, 0xa2, 0x18, 0x3d, 0x03, 0x51, 0x3a, 0x3a, 0x0e, 0x30, 0x73, 0x40, 0x2f, 0x99, 0x96, 0x3d,
  0xa6, 0x6c, 0x89, 0x3c, 0xfe, 0xd6, 0x7c, 0xbe, 0xfb, 0xc6, 0xa5, 0xba, 0xcd, 0x2e, 0xba, 0x3f,
  0x7c, 0x1b, 0xb9, 0x3e, 0x44, 0x99, 0x2b, 0xbf, 0x74, 0xbb, 0x90, 0x3e, 0x0f, 0x15, 0x6c, 0xbd,
  0x95, 0x7d, 0x99, 0xbf, 0x1b, 0x10, 0x93, 0xbd, 0x74, 0xef, 0x99, 0x3a, 0xdc, 0x0d, 0x50, 0x3e,
  0x13, 0x84, 0x8f, 0xbf, 0x0d, 0x5f, 0xdd, 0xbe, 0xd3, 0xe1, 0xdd, 0x3e, 0x42, 0xdc, 0x96, 0xbf,
  0x48, 0x51, 0x01, 0xbf, 0x27, 0x33, 0x19, 0x3d, 0xec, 0x04, 0x75, 0x3d, 0x4a, 0x71, 0x66, 0x3e,
  0x87, 0x7a, 0x3e, 0x3c, 0x9a, 0x0f, 0x60, 0xc1, 0x8e, 0x2c, 0xaf, 0x3c, 0x1d, 0xe8, 0x14, 0xbe,
  0xa2, 0x08, 0x08, 0x3e, 0xb9, 0xdf, 0xab, 0xbf, 0x2e, 0xf2, 0x66, 0x3c, 0x17, 0x63, 0xba, 0x3c,
  0xd7, 0x12, 0x66, 0x3e, 0x92, 0xe9, 0xa3, 0x3e, 0xb9, 0xe9, 0x61, 0x3c, 0xc3, 0x04, 0x3c, 0x3e,
  0x4e, 0x91, 0x1f, 0xc1, 0xf7, 0x51, 0xe2, 0x3c, 0x70, 0x09, 0x0e, 0x3c, 0xf1, 0x1f, 0x3a, 0xbf,
  0xc7, 0x1a, 0x1d, 0x3d, 0xbd, 0xa3, 0x92, 0x40, 0xc5, 0x67, 0x6f, 0x3d, 0xd5, 0x56, 0xd8, 0xc0,
  0x24, 0x89, 0xd0, 0xbc, 0x94, 0xc8, 0x26, 0xb8, 0xa0, 0x77, 0xa2, 0x3e, 0xa0, 0x00, 0x71, 0xbe,
  0x8d, 0x30, 0x6c, 0xbd, 0x68, 0xcd, 0x9f, 0xbd, 0xc9, 0x4c, 0x33, 0xbf, 0x14, 0x23, 0x16, 0xbd,
  0xdb, 0xfc, 0x96, 0x3b, 0xc8, 0x7d, 0x1c, 0x3f, 0x8a, 0xf4, 0xd4, 0xbe, 0xf8, 0x54, 0xb4, 0xbe,
  0x10, 0xb9, 0x31, 0x3e, 0xb3, 0x72, 0x1a, 0x3c, 0xaa, 0xe9, 0x09, 0xc1, 0x9e, 0xa0, 0x70, 0x40,
  0x0d, 0x72, 0x4d, 0x3e, 0x2d, 0xe2, 0xe1, 0xbf, 0x51, 0x08, 0x49, 0xba, 0x11, 0xec, 0x9f, 0xbd,
  0x86, 0x7d, 0xa1, 0x3d, 0x65, 0x4c, 0x94, 0x3a, 0xc2, 0xfd, 0x01, 0x3e, 0x59, 0x8d, 0x80, 0x3e,
  0x65, 0x3a, 0x8a, 0x3d, 0x6f, 0xc6, 0x8e, 0x3f, 0xcd, 0xb2, 0x71, 0x3a, 0xa2, 0xc2, 0x6c, 0xbf,
  0xfd, 0xbb, 0x6a, 0x3d, 0x9a, 0x61, 0x5c, 0x3f, 0x3e, 0x49, 0xe9, 0x3f, 0x2f, 0x59, 0xd9, 0x3d,
  0xcf, 0x51, 0x6b, 0x3f, 0x3d, 0x15, 0x8a, 0x3c, 0xe3, 0xec, 0x6b, 0xbb, 0xb5, 0x61, 0x5a, 0x3f,
  0x28, 0xe7, 0x68, 0xbd, 0xcf, 0x1a, 0x7e, 0x3f, 0xaf, 0xe4, 0xf3, 0xbe, 0xd4, 0x23, 0x27, 0x3f,
  0x1f, 0xf2, 0xa4, 0x3f, 0x22, 0x1f, 0xac, 0x3e, 0xfd, 0x6d, 0x01, 0x40, 0x6a, 0x2c, 0x38, 0xbe,
  0x9a, 0x8a, 0xe3, 0xbb, 0xdd, 0x4f, 0x95, 0xc0, 0xe6, 0x57, 0xa0, 0x3d, 0xfb, 0xa5, 0xa7, 0xbb,
  0x51, 0x93, 0xad, 0x3f, 0x34, 0xa2, 0xac, 0x3f, 0x6a, 0x1a, 0x63, 0x3d, 0x4d, 0xc7, 0x2b, 0xbd,
  0x90, 0x46, 0x7a, 0x3f, 0x2e, 0xe2, 0x7a, 0xbc, 0xfa, 0xa5, 0x9e, 0x3d, 0xbc, 0x4a, 0xa8, 0x3e,
  0x85, 0x13, 0xd5, 0x41, 0x26, 0xac, 0x09, 0x3e, 0x38, 0x3c, 0xda, 0xbd, 0xbf, 0x2e, 0xb9, 0x3d,
  0x21, 0x62, 0x03, 0xbe, 0x0a, 0x89, 0x54, 0x40, 0xc4, 0xb9, 0xc6, 0x3e, 0xee, 0x85, 0xcf, 0x41,
  0x13, 0x7f, 0xcf, 0xbe, 0x99, 0xba, 0x3c, 0xbc, 0x9e, 0x37, 0x2d, 0xbe, 0x84, 0x8e, 0xae, 0x3a,
  0x00, 0xcb, 0x4c, 0x3e, 0x0c, 0xec, 0x86, 0x3e, 0x4e, 0x85, 0x48, 0xc0, 0x13, 0x63, 0xef, 0x3d,
  0x6e, 0x26, 0xd7, 0x3b, 0x20, 0x7d, 0x3a, 0x3d, 0x77, 0x7e, 0x31, 0x3f, 0x2a, 0x3e, 0xe5, 0xba,
  0x85, 0x83, 0x61, 0x3f, 0xdf, 0xbe, 0xa2, 0xbc, 0xe6, 0xb3, 0xfd, 0xbf, 0xcc, 0x38, 0xa4, 0xbf,
  0xb1, 0x69, 0xe1, 0xbf, 0xfd, 0x53, 0xb1, 0xbf, 0x21, 0x13, 0xe7, 0x3d, 0x16, 0x90, 0xf9, 0xbc,
  0x94, 0xa0, 0x22, 0xbd, 0x55, 0x07, 0x8d, 0x37, 0x21, 0x62, 0x06, 0x42, 0x89, 0xf9, 0x1e, 0xbd,
  0xd0, 0x83, 0x69, 0xbb, 0xb0, 0x80, 0xe5, 0xbe, 0x28, 0xce, 0xbb, 0xba, 0x3e, 0x69, 0x59, 0xbf,
  0x9a, 0x20, 0x53, 0x3e, 0xfb, 0x6c, 0x4d, 0xbf, 0x9a, 0x06, 0x1b, 0xbf, 0x7a, 0x88, 0xd8, 0xbb,
  0xb2, 0x59, 0x33, 0xbe, 0xea, 0x1f, 0xb3, 0xbb, 0x17, 0x24, 0x53, 0xba, 0x5f, 0x0f, 0xdf, 0x3f,
  0xec, 0x96, 0x35, 0xbf, 0x0c, 0x38, 0x98, 0xbf, 0x14, 0x43, 0xf4, 0x3d, 0x25, 0xec, 0x5d, 0xbf,
  0x12, 0x2e, 0x2a, 0xbf, 0x89, 0x9a, 0x25, 0x3d, 0x88, 0xd1, 0xe8, 0xc0, 0x87, 0x2a, 0x64, 0xbd,
  0xdd, 0xd5, 0x87, 0xbd, 0x14, 0x6a, 0x33, 0xc0, 0x61, 0x15, 0x07, 0x3c, 0x0f, 0x50, 0x48, 0x3d,
  0xae, 0x46, 0xd6, 0x3e, 0xfb, 0xf4, 0x29, 0x3d, 0x2a, 0x50, 0x2e, 0xba, 0x42, 0xf4, 0x58, 0xbc,
  0xcd, 0x69, 0xab, 0x3e, 0xf5, 0xc8, 0x03, 0xbd, 0x4b, 0x6d, 0x86, 0xbd, 0x8d, 0x03, 0xc9, 0x3d,
  0x88, 0xff, 0xaf, 0xc1, 0x5f, 0x8a, 0xce, 0xbd, 0x5a, 0x38, 0xa9, 0x3c, 0x89, 0x4f, 0x1b, 0xbd,
  0x72, 0x55, 0x75, 0x3d, 0x02, 0x9a, 0x54, 0x40, 0xff, 0x11, 0x59, 0xbd, 0x07, 0xee, 0xaf, 0x3f,
  0xb0, 0x97, 0x6c, 0xbe, 0x82, 0x8b, 0xff, 0x3a, 0xb1, 0x90, 0xa7, 0xbd, 0x50, 0xbc, 0xa0, 0xbd,
  0x30, 0x2f, 0x19, 0x3e, 0x95, 0xea, 0x9d, 0x3b, 0xcd, 0x2b, 0x70, 0x40, 0xec, 0x7f, 0x9a, 0x3d,
  0xe0, 0x23, 0x0e, 0x3a, 0x12, 0x29, 0xc1, 0xbd, 0xaf, 0x22, 0x8c, 0xbe, 0x35, 0x30, 0xcf, 0xbd,
  0xe3, 0xf1, 0x41, 0x40, 0x81, 0xd9, 0x1d, 0x3d, 0xf6, 0x12, 0x83, 0xbf, 0x43, 0x4c, 0x76, 0xbf,
  0x4a, 0x1c, 0x63, 0xc0, 0x31, 0xf0, 0xea, 0x3c, 0x8f, 0x56, 0x98, 0x3d, 0x2d, 0x25, 0x80, 0x3d,
  0x0a, 0x8e, 0x10, 0xbe, 0x03, 0xa8, 0x82, 0x39, 0x71, 0xfa, 0x71, 0x40, 0x8a, 0x61, 0xd0, 0x3c,
  0x36, 0x79, 0x03, 0xbd, 0xd4, 0x01, 0x23, 0xbf, 0x19, 0x8d, 0xa9, 0x3a, 0xb5, 0x07, 0x22, 0x40,
  0x45, 0x83, 0xd1, 0x3e, 0xb9, 0x5f, 0x08, 0xc0, 0x63, 0x1b, 0xd4, 0xbe, 0xc9, 0xa9, 0x14, 0xbc,
  0xe7, 0xdb, 0x38, 0xbf, 0x8d, 0x75, 0xd9, 0xbd, 0xe1, 0x7d, 0xa7, 0x3a, 0x30, 0xe8, 0xa4, 0x3e,
  0x41, 0x49, 0x08, 0xbf, 0xd7, 0xc4, 0xfd, 0xbf, 0xde, 0x7a, 0x5a, 0xbe, 0xfd, 0x8c, 0xbe, 0xbf,
  0x83, 0x62, 0x08, 0x3f, 0xc7, 0xb2, 0x03, 0xbe, 0x31, 0x05, 0x80, 0xbf, 0xc5, 0xb9, 0x85, 0xbd,
  0xbb, 0x72, 0x15, 0xbd, 0xc8, 0xea, 0x88, 0x3e, 0x49, 0x25, 0x17, 0xbd, 0x50, 0x1b, 0x81, 0xbd,
  0x70, 0x64, 0xd0, 0xbf, 0x45, 0x2f, 0xa2, 0xbf, 0xe4, 0x96, 0x5c, 0x3c, 0x41, 0x25, 0xc3, 0xbd,
  0xab, 0xee, 0x15, 0xbf, 0xaf, 0x5d, 0xfd, 0xbb, 0x2e, 0x80, 0x49, 0xbe, 0x8d, 0x6a, 0x91, 0x3d,
  0x0b, 0xec, 0xae, 0xc0, 0x84, 0x7b, 0x14, 0xbe, 0x83, 0xbc, 0x60, 0xbd, 0xe9, 0x54, 0x08, 0xbf,
  0x12, 0x1d, 0x6b, 0x3c, 0x0f, 0xe4, 0x9e, 0x40, 0x92, 0x88, 0x0a, 0xbe, 0x99, 0x18, 0xe0, 0x3f,
  0xf9, 0xf9, 0x9c, 0x3d, 0xd7, 0x5d, 0x04, 0x3b, 0x1e, 0xe6, 0x2b, 0x3e, 0xa3, 0x6a, 0x87, 0xbd,
  0xed, 0xe1, 0x70, 0xbd, 0x24, 0x3b, 0x91, 0xbd, 0x4c, 0x1f, 0x22, 0xc0, 0x85, 0x92, 0xb5, 0xbd,
  0x70, 0x88, 0xa9, 0xbc, 0x9a, 0x6c, 0x1e, 0x3e, 0xe8, 0x2a, 0x07, 0xbf, 0x3c, 0xe9, 0x28, 0xbe,
  0x3d, 0xbb, 0xf0, 0xbe, 0x20, 0xfa, 0x89, 0x3c, 0x79, 0xa1, 0x11, 0xc1, 0x21, 0xf6, 0xcc, 0x40,
  0xb3, 0xff, 0xd8, 0x3e, 0x2d, 0xc8, 0xc6, 0xbf, 0x60, 0x57, 0xac, 0xbc, 0x98, 0xd1, 0x05, 0xbc,
  0x17, 0xa7, 0x91, 0x3d, 0xd9, 0xcd, 0xe2, 0xb8, 0xf8, 0xc2, 0x18, 0xc0, 0x95, 0x42, 0xc0, 0xbd,
  0x39, 0x6c, 0xa7, 0x3b, 0x33, 0x3b, 0x39, 0x3f, 0x21, 0x36, 0x96, 0x3a, 0xc2, 0xf1, 0x89, 0xc0,
  0x69, 0xe8, 0x20, 0xbf, 0x15, 0xc1, 0x85, 0x40, 0x89, 0xe7, 0xa0, 0x3f, 0x79, 0x1f, 0x88, 0xbd,
  0x80, 0xc8, 0xef, 0xbd, 0xbf, 0xe1, 0xe3, 0x3c, 0x13, 0x06, 0x25, 0x39, 0x05, 0x92, 0xaa, 0xbe,
  0xb3, 0x72, 0x07, 0xbf, 0x7a, 0x59, 0x5a, 0x3f, 0x9f, 0x58, 0x1e, 0x3d, 0x94, 0xaf, 0xd2, 0x3f,
  0xd9, 0x47, 0xb9, 0x3f, 0xb4, 0x58, 0x78, 0xbe, 0x70, 0x37, 0x05, 0xbe, 0xc5, 0x76, 0x99, 0xbc,
  0xf9, 0xb7, 0x11, 0xbc, 0x11, 0x82, 0x04, 0x40, 0x5e, 0x7c, 0x02, 0xbd, 0x4f, 0x2e, 0xc5, 0xbc,
  0xae, 0xdd, 0x98, 0x3f, 0xb7, 0x3f, 0x22, 0x40, 0xcb, 0x8f, 0x60, 0xbc, 0x0e, 0x92, 0xeb, 0xbd,
  0xa3, 0x8d, 0x9d, 0xbe, 0x72, 0x95, 0xd1, 0xbb, 0x5e, 0x6c, 0xe2, 0xbd, 0x4a, 0x83, 0x5b, 0xbe,
  0xd7, 0x78, 0x32, 0x40, 0xe3, 0xc3, 0x1a, 0x3d, 0x74, 0xe3, 0xfd, 0xbc, 0xe7, 0x34, 0xd4, 0xbc,
  0x81, 0x85, 0xcb, 0x3c, 0x82, 0xdc, 0xda, 0xc0, 0x8f, 0x01, 0x07, 0xbe, 0x8a, 0x19, 0xed, 0x3f,
  0xca, 0xb4, 0x8e, 0x3d, 0x4f, 0xb5, 0xac, 0x3a, 0x6d, 0x77, 0x76, 0x3d, 0xb7, 0x9f, 0x38, 0xbd,
  0x7e, 0xc0, 0xe4, 0xbd, 0xf2, 0x4e, 0x22, 0xbd, 0x9a, 0x4b, 0xac, 0xc0, 0x82, 0x5f, 0xe5, 0x3c,
  0xf0, 0x2b, 0xa2, 0x3a, 0x02, 0xfc, 0xa0, 0x3d, 0x1b, 0xcc, 0x1e, 0x3f, 0xf3, 0x1e, 0x86, 0xbc,
  0x5d, 0xb5, 0x94, 0xbd, 0x7f, 0xb8, 0x8f, 0x3d, 0xc4, 0x64, 0x5a, 0xbf, 0x44, 0x44, 0x07, 0xc1,
  0xa7, 0x26, 0x6b, 0x3f, 0x99, 0x75, 0x5b, 0xbd, 0x3a, 0xc8, 0x0b, 0xbd, 0x6f, 0x20, 0xa5, 0x3d,
  0x71, 0x09, 0x87, 0xbd, 0xa6, 0x39, 0x9f, 0xba, 0xb5, 0xe2, 0x32, 0x41, 0x99, 0xc5, 0x60, 0x3d,
  0xea, 0x30, 0x0b, 0xbc, 0x03, 0x6c, 0xbe, 0xbf, 0xa3, 0xa2, 0x5a, 0x3a, 0x5d, 0xb3, 0x67, 0x40,
  0xce, 0x3a, 0x03, 0x3f, 0xfb, 0xbe, 0x50, 0xc0, 0x75, 0xcc, 0xf2, 0xbc, 0x1a, 0x29, 0x25, 0x3d,
  0xe1, 0xf2, 0xab, 0xbe, 0x1e, 0xdc, 0xf7, 0xbc, 0x30, 0xe0, 0x0c, 0x39, 0x22, 0x3a, 0xe5, 0x3e,
  0x2a, 0x9b, 0xd8, 0xbe, 0xba, 0x65, 0x29, 0x3f, 0x3c, 0x8e, 0x0f, 0xbf, 0x63, 0x29, 0xa9, 0x3e,
  0x81, 0xa4, 0x1c, 0x3f, 0x04, 0x81, 0x5b, 0x3e, 0x26, 0xf8, 0x33, 0x40, 0xc8, 0x8d, 0xc5, 0x3a,
  0x9d, 0xe9, 0x68, 0x3d, 0x86, 0xbe, 0x8e, 0x40, 0xbe, 0x1d, 0x0c, 0xbd, 0x26, 0xb2, 0xce, 0x3c,
  0x5c, 0x3b, 0x29, 0xc0, 0xfe, 0xe0, 0x2e, 0xc0, 0x54, 0x09, 0x50, 0xbd, 0x45, 0x6e, 0xf7, 0xbd,
  0x6c, 0x2e, 0xae, 0xbf, 0xda, 0x06, 0x4f, 0x3d, 0x62, 0x20, 0xb3, 0x3c, 0x65, 0x4c, 0x19, 0xbe,
  0x82, 0x1e, 0x52, 0x41, 0xb7, 0xe4, 0xaf, 0x3c, 0xc4, 0x1f, 0x21, 0x3d, 0xde, 0x00, 0x1e, 0xbe,
  0x65, 0xd2, 0x46, 0x3d, 0x72, 0xbd, 0xa2, 0xbf, 0x1a, 0xef, 0x5e, 0x3d, 0xca, 0xb6, 0x3a, 0x40,
  0x39, 0x11, 0x24, 0x3a, 0x7b, 0x7f, 0xe6, 0xbb, 0x45, 0xbb, 0x5d, 0x3d, 0x6e, 0xa5, 0xad, 0xbb,
  0x3c, 0xbc, 0xa2, 0xbc, 0xbb, 0x32, 0x2b, 0xbd, 0xfb, 0x40, 0xd7, 0x3e, 0x36, 0x42, 0xdb, 0x3c,
  0x8c, 0xf6, 0x4d, 0x3b, 0x97, 0x80, 0x91, 0xbd, 0xe5, 0xdf, 0x1a, 0xbf, 0x90, 0x6a, 0xed, 0xbc,
  0x5d, 0x9d, 0xec, 0xbd, 0xf1, 0x1b, 0x63, 0xbd, 0xad, 0xd3, 0xce, 0xc0, 0x2f, 0xaa, 0x0b, 0x41,
  0xc5, 0x4b, 0x95, 0x3d, 0x29, 0x0f, 0x46, 0xbf, 0x43, 0x5a, 0x10, 0xbc, 0xbc, 0xa7, 0x9e, 0x3d,
  0xe1, 0x08, 0xbb, 0x3b, 0xcc, 0x7d, 0x20, 0xba, 0x31, 0x36, 0x04, 0xc1, 0xe9, 0x08, 0xdd, 0x3d,
  0x50, 0xf7, 0xc0, 0x3b, 0x5e, 0x4e, 0xbf, 0x3d, 0xa8, 0xb0, 0x55, 0xbb, 0x84, 0xa7, 0xe0, 0x3f,
  0x92, 0x8c, 0x41, 0x3e, 0x48, 0xf2, 0x81, 0x3f, 0xa0, 0x1f, 0x03, 0x3f, 0x67, 0xf6, 0xf8, 0x3c,
  0x0a, 0x1c, 0xf6, 0xbe, 0x4f, 0x75, 0x05, 0x3d, 0xa0, 0x34, 0x7d, 0x3a, 0xd7, 0xd6, 0x36, 0xbe,
  0x14, 0x66, 0x8e, 0xbd, 0xce, 0x97, 0x6e, 0x3f, 0xff, 0x9b, 0xe2, 0x3e, 0xc7, 0x44, 0x3e, 0x3f,
  0x4f, 0x50, 0xaa, 0x3f, 0xe1, 0x43, 0x98, 0x3e, 0x82, 0xd7, 0xdc, 0xc0, 0xc4, 0x3a, 0x3d, 0xbe,
  0x7b, 0xb2, 0x94, 0xbd, 0x1c, 0xc8, 0x6a, 0x41, 0x01, 0x72, 0x5b, 0x3d, 0xe4, 0x9e, 0xd0, 0x3c,
  0x83, 0x5e, 0x1a, 0x3f, 0x84, 0xb8, 0x6e, 0x3e, 0x50, 0x32, 0x95, 0x3d, 0xc2, 0x49, 0x74, 0x3d,
  0x96, 0x34, 0x61, 0x3f, 0xc0, 0xb8, 0x3a, 0xbd, 0xf6, 0x6b, 0x9d, 0x3a, 0x2d, 0xdf, 0x54, 0x3e,
  0x93, 0xce, 0xdc, 0x40, 0xe3, 0x3c, 0xf3, 0xbd, 0xab, 0xf9, 0x70, 0x3c, 0x09, 0x8a, 0x24, 0xbd,
  0xca, 0xd7, 0xae, 0x3c, 0x9e, 0xca, 0x0b, 0x40, 0x2b, 0x12, 0xa3, 0x3d, 0x01, 0x39, 0x29, 0x42,
  0xf5, 0xad, 0x31, 0xbc, 0x99, 0x1b, 0x8f, 0xba, 0xe2, 0x11, 0xae, 0xbd, 0xe3, 0xdc, 0xd9, 0xbd,
  0x1a, 0x01, 0xc5, 0x3c, 0x40, 0x85, 0x3d, 0xbc, 0x92, 0xb3, 0xe1, 0xbe, 0xf4, 0x5e, 0xd9, 0x3c,
  0xe5, 0xba, 0x09, 0xbc, 0xa2, 0x08, 0xe0, 0xbd, 0x86, 0x4c, 0x2c, 0xbe, 0x72, 0x7d, 0x15, 0xbe,
  0xed, 0xd0, 0x01, 0xbf, 0xa5, 0x00, 0x4e, 0xbd, 0x85, 0xb1, 0x12, 0x41, 0xf2, 0x46, 0x6c, 0x40,
  0xfe, 0x2d, 0x9f, 0xbe, 0x7c, 0x87, 0x1d, 0xbe, 0x2b, 0x46, 0x22, 0x3d, 0xbd, 0xdb, 0x8b, 0x3d,
  0x7a, 0x66, 0xc4, 0x3d, 0x27, 0xcc, 0xa5, 0xba, 0x3f, 0x61, 0xcb, 0x40, 0x44, 0xdc, 0x72, 0x3d,
  0xff, 0x31, 0x96, 0xbd, 0x63, 0xa4, 0xc0, 0xbe, 0xdb, 0xe2, 0x3d, 0x3b, 0xc6, 0x18, 0x99, 0x3f,
  0xd5, 0xf2, 0x5f, 0x3e, 0xf5, 0x14, 0x7f, 0x3e, 0xdc, 0x3a, 0x8f, 0xbf, 0xfe, 0xd9, 0x81, 0xbd,
  0x40, 0x78, 0x9d, 0xbf, 0xd1, 0x19, 0x98, 0xbd, 0x6d, 0xff, 0x92, 0xba, 0x7a, 0x95, 0x62, 0xbe,
  0x08, 0xcf, 0xf5, 0x3e, 0x8f, 0x6b, 0x82, 0xbf, 0xa7, 0x6e, 0x99, 0xbf, 0x90, 0x71, 0x26, 0xc0,
  0x98, 0xd4, 0x96, 0xbf, 0x4a, 0xcd, 0x8c, 0xbd, 0xc6, 0xce, 0x4c, 0xbf, 0xbb, 0xf4, 0x7d, 0xbd,
  0xb2, 0x89, 0x4d, 0xbc, 0xd8, 0xaa, 0x6a, 0x40, 0xd1, 0x80, 0x1a, 0xbd, 0x9b, 0x2a, 0x08, 0x3d,
  0x80, 0xb4, 0x36, 0xbf, 0x06, 0x1f, 0x4c, 0xbe, 0x9f, 0xfc, 0xf5, 0xbd, 0x8e, 0x82, 0xe9, 0x3d,
  0x69, 0x01, 0xb2, 0xbd, 0x3c, 0xf3, 0x53, 0x3d, 0x5b, 0xb7, 0xac, 0x3d, 0x48, 0x5c, 0x0d, 0xbd,
  0x9f, 0xf4, 0x40, 0xc1, 0xf2, 0x30, 0xf8, 0xbc, 0xde, 0x31, 0x2e, 0xbe, 0x65, 0x0d, 0x2b, 0xbd,
  0x87, 0xf5, 0xa5, 0xbd, 0xf9, 0x18, 0x0e, 0x41, 0x59, 0xc2, 0xb4, 0xbd, 0xd0, 0xbc, 0xa6, 0xc0,
  0x99, 0x0b, 0x0f, 0x3e, 0x30, 0x2d, 0xa9, 0x3b, 0x8e, 0x4a, 0x3d, 0xbe, 0x7d, 0x7e, 0xf9, 0xbd,
  0x4b, 0xb9, 0x45, 0x3e, 0x07, 0xb3, 0x24, 0xbe, 0xa9, 0xc5, 0xd2, 0x3e, 0xf4, 0xb7, 0x01, 0xbe,
  0x1a, 0x99, 0x0f, 0x3b, 0x7f, 0x6f, 0x26, 0xbe, 0x65, 0x09, 0x0e, 0xbf, 0x6c, 0xdb, 0xac, 0xbc,
  0x8a, 0xb9, 0xd9, 0xba, 0x16, 0x98, 0xf4, 0xbd, 0x7f, 0x67, 0x86, 0x3f, 0x96, 0xf9, 0x43, 0x40,
  0x82, 0x29, 0x3a, 0x3f, 0x67, 0x3c, 0x52, 0xc0, 0x17, 0xd2, 0xb0, 0xbd, 0x6d, 0xed, 0x0f, 0xbe,
  0x52, 0x4a, 0x8a, 0xbd, 0x8a, 0x3e, 0x88, 0xb8, 0xe0, 0xa4, 0x8b, 0xc0, 0xf4, 0x33, 0xb4, 0x3d,
  0x9a, 0xb2, 0x06, 0x3c, 0x5f, 0x62, 0x93, 0xbf, 0xc4, 0x6a, 0x51, 0x3b, 0x10, 0xd6, 0xec, 0x3f,
  0x25, 0xf6, 0xe2, 0x3e, 0xf9, 0xcd, 0x99, 0xbf, 0xb3, 0xa3, 0x72, 0xbe, 0x98, 0xaf, 0x0d, 0xbe,
  0x3b, 0x1b, 0x6f, 0xbf, 0x90, 0xcc, 0x4e, 0xbd, 0x27, 0x8e, 0x3a, 0xb8, 0x1f, 0x3a, 0x73, 0xbe,
  0x37, 0x30, 0xe5, 0x3e, 0x27, 0x04, 0xe4, 0xbf, 0xe7, 0x47, 0x23, 0xbe, 0xb8, 0xad, 0x47, 0xc0,
  0x87, 0x96, 0xb3, 0xbe, 0xa7, 0xaa, 0x9e, 0x3d, 0x87, 0x83, 0x7d, 0xbf, 0xc6, 0x6c, 0x1e, 0xbd,
  0x23, 0xbb, 0x85, 0x3c, 0x87, 0x25, 0xd6, 0x40, 0xb4, 0x1e, 0x1d, 0xbc, 0x5e, 0x89, 0x4c, 0xbd,
  0xac, 0x17, 0xa8, 0xbf, 0xd3, 0xdb, 0xc2, 0xbf, 0x64, 0xb4, 0xab, 0xbd, 0x68, 0x93, 0x7f, 0x3d,
  0xf7, 0x4e, 0x74, 0xbf, 0xa7, 0x28, 0xc8, 0xbe, 0x0e, 0x55, 0x34, 0xbe, 0x03, 0x9b, 0xe9, 0x3c,
  0x90, 0xea, 0x22, 0xc0, 0xbd, 0x90, 0x77, 0x3c, 0x0c, 0xea, 0x74, 0x3c, 0xd6, 0x88, 0x0c, 0x3d,
  0xfa, 0x07, 0x0c, 0xbe, 0x60, 0xc4, 0x19, 0x41, 0x75, 0x2c, 0x4c, 0xbd, 0xa6, 0x4e, 0xee, 0xbf,
  0xf2, 0xa2, 0x3d, 0x3d, 0xf8, 0x82, 0x73, 0xba, 0xe2, 0x9d, 0xac, 0xbe, 0x77, 0xba, 0x54, 0xbe,
  0x79, 0x83, 0x61, 0xbc, 0xfd, 0x67, 0x0e, 0xbd, 0x7b, 0x73, 0x19, 0xc0, 0x12, 0x08, 0xde, 0xbd,
  0xd4, 0xbb, 0x72, 0xbb, 0x36, 0xe9, 0xa3, 0xbe, 0x9c, 0xc6, 0xc0, 0xbe, 0x57, 0x33, 0x81, 0xbd,
  0xce, 0xcf, 0x5a, 0x3e, 0x98, 0x9b, 0x20, 0xbd, 0x14, 0x80, 0x50, 0x40, 0x49, 0xbc, 0xb9, 0x40,
  0x58, 0x60, 0x91, 0x3f, 0x33, 0x61, 0xfc, 0x3a, 0xbf, 0x8f, 0x5a, 0xbd, 0x05, 0x77, 0x13, 0x3c,
  0x1f, 0x7c, 0xc0, 0x3c, 0xd1, 0x36, 0x00, 0xb8, 0x21, 0x70, 0x71, 0xc0, 0x52, 0x58, 0x18, 0x3e,
  0x70, 0x01, 0x07, 0xbc, 0x22, 0xd6, 0xfa, 0xbe, 0x1a, 0xf1, 0x0b, 0x3a, 0x8a, 0xe3, 0x3c, 0x3f,
  0x10, 0x19, 0x15, 0x3e, 0xbc, 0xed, 0x78, 0x3f, 0x6a, 0x43, 0x0d, 0x40, 0x5b, 0xd2, 0x66, 0x3d,
  0xd1, 0x4a, 0xc6, 0xbe, 0x8b, 0x2e, 0x4e, 0x3d, 0xbf, 0xdc, 0x8e, 0xb7, 0xe6, 0xb5, 0x72, 0xbf,
  0x2f, 0x0b, 0xdc, 0xbf, 0x8b, 0xa1, 0x6f, 0x40, 0xa5, 0xfc, 0x06, 0xbe, 0xb8, 0x6d, 0x2e, 0x40,
  0xa1, 0x5d, 0xe0, 0x3f, 0xfd, 0x66, 0xc7, 0xbc, 0xbd, 0x48, 0xcf, 0x40, 0xe3, 0xb8, 0x1e, 0xbd,
  0x08, 0xb6, 0xb9, 0x3c, 0xd7, 0x2f, 0xc4, 0x3f, 0xbd, 0x2f, 0x9d, 0xbc, 0xd2, 0xa2, 0x05, 0xbe,
  0x5d, 0x05, 0xd4, 0x3e, 0xdd, 0xa9, 0x89, 0x3e, 0xdf, 0xc3, 0xaf, 0xbd, 0x53, 0x9a, 0x61, 0xbe,
  0xc9, 0xc7, 0x86, 0xbe, 0xf4, 0x27, 0xb7, 0x3d, 0x8f, 0x5c, 0x5c, 0x3d, 0xa1, 0xf6, 0x09, 0xbd,
  0x98, 0xa6, 0x0b, 0x3e, 0xe3, 0x8c, 0xe3, 0xbc, 0xfb, 0xab, 0xd4, 0xbd, 0x0d, 0x1b, 0xe1, 0xbd,
  0xf4, 0xed, 0x0f, 0x3c, 0x7a, 0x63, 0x85, 0xc1, 0x9b, 0x26, 0xc8, 0xbc, 0x79, 0x72, 0x28, 0x41,
  0xab, 0xd4, 0x81, 0xbd, 0x27, 0x09, 0xca, 0x39, 0x99, 0x94, 0x0d, 0x3d, 0x95, 0xe1, 0x1c, 0xbe,
  0x69, 0xd2, 0x3b, 0xbe, 0x04, 0x56, 0x67, 0x3c, 0x91, 0x3a, 0xcb, 0xc0, 0xb3, 0x02, 0xa5, 0xbd,
  0xb4, 0x97, 0x93, 0x3a, 0x60, 0xbb, 0xf2, 0x3d, 0x0b, 0xd1, 0x27, 0xbe, 0xa1, 0xf1, 0xc7, 0xbc,
  0x19, 0x9a, 0xd4, 0xbe, 0x53, 0xe6, 0xa0, 0x3c, 0x88, 0xa2, 0xb2, 0xbe, 0x21, 0x26, 0x3d, 0xbe,
  0x63, 0x00, 0x1d, 0xbf, 0xa9, 0xcf, 0x1f, 0xbd, 0x9f, 0xfa, 0x2b, 0xbd, 0x1f, 0x10, 0x1d, 0x3d,
  0x17, 0x15, 0x07, 0xbd, 0x0d, 0xc2, 0x47, 0x3a, 0xb9, 0x84, 0x67, 0x41, 0xa1, 0x81, 0x87, 0x3c,
  0xef, 0x5b, 0x8f, 0xbc, 0x29, 0x99, 0x4d, 0xbe, 0xca, 0xbd, 0x6c, 0xbb, 0xd4, 0xf4, 0xbe, 0x3f,
  0x43, 0x1d, 0x16, 0x3f, 0x47, 0xcb, 0xbe, 0xbe, 0xb2, 0x62, 0x0d, 0xbf, 0x86, 0x20, 0x0f, 0xbc,
  0xd7, 0xa5, 0x0f, 0xc0, 0xb2, 0x3f, 0xca, 0xbd, 0x08, 0x71, 0x3c, 0xba, 0xcd, 0x58, 0x20, 0x3f,
  0x0c, 0xdb, 0xf7, 0x3e, 0x8e, 0x03, 0xd6, 0x3c, 0x77, 0x2a, 0xe0, 0xbf, 0x3f, 0xd4, 0xfe, 0xbf,
  0x73, 0x95, 0xe8, 0x3d, 0x05, 0x19, 0x49, 0xbe, 0x54, 0x3e, 0xd5, 0xbf, 0x47, 0x84, 0xae, 0x3c,
  0x65, 0x21, 0x29, 0xbb, 0x75, 0xf1, 0x0d, 0x41, 0x0c, 0x47, 0xd6, 0x3c, 0xc6, 0xcf, 0x12, 0x3d,
  0x6f, 0xa2, 0x24, 0xbc, 0x3e, 0xf7, 0x0a, 0xbf, 0x45, 0xde, 0x6d, 0xbc, 0x21, 0xdc, 0xb9, 0xbd,
  0x19, 0x08, 0x3b, 0xc0, 0x65, 0xdc, 0x52, 0x3e, 0x32, 0xc8, 0xf6, 0xbd, 0xcb, 0xf9, 0xfc, 0x3c,
  0x90, 0x3a, 0x55, 0xc1, 0xfb, 0xc5, 0x35, 0x3e, 0x0f, 0x4b, 0x0a, 0x3d, 0x01, 0x4c, 0xf2, 0x3c,
  0x47, 0xfd, 0x81, 0x3c, 0x5b, 0xa4, 0x5c, 0x40, 0x56, 0xc3, 0x02, 0xbe, 0x42, 0x2f, 0x4b, 0xc1,
  0xf8, 0x9f, 0x54, 0x3d, 0xe2, 0x00, 0xda, 0xbb, 0xf8, 0x32, 0x8e, 0xbd, 0x0e, 0x03, 0x65, 0x3d,
  0xbf, 0xa5, 0x72, 0xbc, 0xc2, 0xa0, 0x96, 0xbe, 0xaa, 0xcf, 0xcb, 0xbf, 0x0d, 0xed, 0x49, 0xbe,
  0xf8, 0x4c, 0x45, 0x3b, 0xe1, 0x5b, 0x05, 0xbe, 0x89, 0x4e, 0x4a, 0xbf, 0x0a, 0xa2, 0x44, 0xbd,
  0xa1, 0x40, 0x20, 0xbf, 0xa4, 0xda, 0x9d, 0xbd, 0x5b, 0xdc, 0x5c, 0xc0, 0xe2, 0x51, 0x63, 0x40,
  0x2a, 0x39, 0xb1, 0x3f, 0x7a, 0x8f, 0x32, 0xc0, 0xbe, 0x4c, 0x1a, 0x3d, 0xcf, 0x22, 0x5e, 0xbc,
  0x89, 0x17, 0x52, 0xbd, 0xe1, 0x60, 0x16, 0x39, 0x9f, 0xac, 0x38, 0x3e, 0x05, 0x12, 0xdf, 0x3c,
  0xf8, 0x69, 0xf9, 0x3b, 0x33, 0x0d, 0x36, 0xbf, 0x81, 0xbc, 0x11, 0xbb, 0x2f, 0x3e, 0x8f, 0x40,
  0xbe, 0x01, 0xcf, 0x3e, 0x34, 0x83, 0x2c, 0xc0, 0x53, 0x92, 0x5b, 0xbf, 0xff, 0xb0, 0x90, 0xbd,
  0xea, 0xdd, 0x12, 0xbf, 0xd8, 0x54, 0xb3, 0xbd, 0x94, 0xb5, 0xb6, 0xba, 0x73, 0x64, 0x43, 0x3e,
  0x7d, 0xc3, 0xf3, 0x3e, 0xad, 0xac, 0x67, 0xbe, 0x8f, 0x4c, 0x46, 0x3e, 0x7c, 0x8d, 0x9a, 0xbf,
  0x1e, 0x7c, 0x4b, 0xbf, 0xec, 0x26, 0x0a, 0x3d, 0x4e, 0x64, 0x8d, 0xbf, 0xc0, 0xa6, 0xe0, 0xbc,
  0x6c, 0x25, 0xf6, 0xbc, 0x81, 0xc8, 0x01, 0x40, 0x36, 0xbc, 0x8a, 0x3c, 0x4d, 0xdb, 0x6c, 0xbd,
  0xe6, 0x0f, 0x15, 0xc0, 0x29, 0xb9, 0x1a, 0xc0, 0xc8, 0xba, 0xbd, 0xbb, 0xcd, 0x29, 0x40, 0xbd,
  0x60, 0x09, 0xea, 0xbf, 0x06, 0x83, 0x15, 0xbd, 0xc6, 0xea, 0xbb, 0x3b, 0x1c, 0xb1, 0x5c, 0xbd,
  0xbd, 0x56, 0xe9, 0xc0, 0xad, 0xb4, 0x03, 0x3d, 0xca, 0xdf, 0xf8, 0x3b, 0x5e, 0xba, 0x19, 0x3d,
  0x36, 0xd8, 0x20, 0xbc, 0x8b, 0xe6, 0x88, 0x40, 0xec, 0x8d, 0x3f, 0xbd, 0xc3, 0x9b, 0x85, 0xc0,
  0x5a, 0x30, 0xa9, 0x3b, 0x1c, 0xe0, 0x23, 0x3b, 0xf4, 0xfa, 0x3c, 0x3d, 0x95, 0x95, 0xc6, 0xbd,
  0x7f, 0xce, 0x85, 0xbc, 0xbd, 0x21, 0xbe, 0xbd, 0x90, 0x40, 0x17, 0xc0, 0xb9, 0x6b, 0xc0, 0xbd,
  0xef, 0xc0, 0x27, 0x3b, 0xc5, 0x4c, 0x2f, 0x3d, 0x01, 0x8b, 0x12, 0xbf, 0xf9, 0x8b, 0x85, 0xbd,
  0xc4, 0xa9, 0x36, 0xbe, 0x6f, 0xe9, 0x1c, 0x3d, 0xf7, 0x95, 0x97, 0xc0, 0xd7, 0x71, 0x0b, 0x41,
  0xd6, 0x1c, 0xbd, 0x3e, 0x46, 0x65, 0x9f, 0xbf, 0xf8, 0x86, 0x3d, 0xbc, 0xf3, 0x87, 0x8b, 0x3b,
  0x8b, 0xb4, 0x9d, 0x3d, 0x10, 0xc5, 0x0d, 0x39, 0x52, 0x34, 0x9e, 0xc1, 0xec, 0x3e, 0x1f, 0x3d,
  0x84, 0x6b, 0x05, 0xbd, 0xc8, 0xd7, 0x37, 0xbe, 0x6d, 0xa1, 0xa1, 0xba, 0xb4, 0x5f, 0x51, 0x3f,
  0x27, 0x29, 0xd2, 0x3e, 0xc9, 0xed, 0x43, 0xbf, 0x35, 0xf7, 0x85, 0xbc, 0xa3, 0xab, 0xf9, 0xbb,
  0xaa, 0x7a, 0xfa, 0xbe, 0x38, 0x66, 0x6e, 0x3d, 0xe9, 0x91, 0x8e, 0xba, 0x3a, 0xb6, 0x8d, 0xba,
  0xe4, 0x5e, 0xcf, 0xbf, 0xad, 0x4e, 0x2d, 0xbf, 0x7c, 0x98, 0xe6, 0x3d, 0xf0, 0xea, 0x0a, 0xbf,
  0x5f, 0x5b, 0xd3, 0xbe, 0x65, 0x4f, 0xf6, 0xbc, 0xb4, 0xcf, 0x08, 0xc0, 0x0c, 0x4e, 0x9b, 0xbd,
  0x55, 0x76, 0x60, 0xbd, 0x4a, 0xe6, 0x41, 0x40, 0xd9, 0xcd, 0xa4, 0xbc, 0x0a, 0xf3, 0x42, 0xbc,
  0xfa, 0x5e, 0x1e, 0xbf, 0x6b, 0x78, 0x02, 0xbf, 0x81, 0x8d, 0x0a, 0x3c, 0x66, 0x50, 0x7d, 0xbe,
  0x4b, 0x89, 0x17, 0xbf, 0x5c, 0xbe, 0x3c, 0xbc, 0xac, 0xb2, 0x29, 0x3e, 0xb1, 0xa9, 0x34, 0x3d,
  0xaf, 0x71, 0xea, 0xc0, 0x30, 0x4c, 0x07, 0xbd, 0xed, 0x31, 0x2e, 0xbd, 0xdd, 0x63, 0x12, 0xbd,
  0x07, 0x4d, 0x8e, 0xbd, 0x3b, 0x90, 0xaf, 0x40, 0x66, 0x23, 0x62, 0x3e, 0x0c, 0x40, 0x28, 0xc1,
  0xaf, 0xa2, 0x9a, 0x3c, 0xeb, 0x17, 0x97, 0x3b, 0x71, 0x30, 0xf7, 0x3c, 0x97, 0xd6, 0xe7, 0xbd,
  0xe6, 0xee, 0x94, 0xbd, 0x1c, 0x07, 0x05, 0x3d, 0x47, 0x7c, 0xc7, 0xc0, 0x86, 0x48, 0xe2, 0xbe,
  0x11, 0x68, 0x6c, 0x3a, 0xb4, 0x0a, 0xa4, 0x3c, 0xa4, 0x75, 0xc6, 0xbe, 0x7f, 0xd1, 0xb2, 0xbd,
  0x13, 0x12, 0x60, 0xbe, 0x58, 0xd0, 0x23, 0x3c, 0x0e, 0x0a, 0xec, 0xbe, 0x7f, 0x4b, 0x8e, 0x40,
  0x44, 0x2d, 0x8f, 0x3f, 0x9a, 0xfc, 0x82, 0x40, 0x58, 0x8e, 0x12, 0xbd, 0xa7, 0x29, 0x8a, 0xbd,
  0xa6, 0x4a, 0xc3, 0x3d, 0x5d, 0x3d, 0xbd, 0xb9, 0xcd, 0x69, 0xc3, 0x3f, 0x9b, 0x9c, 0xc2, 0x3b,
  0xea, 0x88, 0x1d, 0x3c, 0x66, 0xd0, 0xfd, 0x3e, 0x1f, 0xcf, 0x8f, 0xba, 0x11, 0xa1, 0x4d, 0xbd,
  0xfa, 0xce, 0x51, 0xbd, 0x2a, 0x72, 0x9d, 0xbe, 0x21, 0x00, 0x96, 0x3e, 0x63, 0x56, 0x6f, 0xbd,
  0x61, 0xc3, 0x39, 0xbf, 0x97, 0x7b, 0xe9, 0xbb, 0x43, 0x69, 0x0d, 0xbb, 0x75, 0x04, 0x89, 0x3e,
  0x08, 0x28, 0x28, 0xc0, 0x8c, 0x9b, 0x19, 0x3f, 0x71, 0x46, 0xb7, 0x3f, 0x2b, 0x14, 0xb2, 0x3e,
  0xc3, 0x8a, 0xa7, 0xbe, 0xea, 0x5d, 0xa8, 0xbd, 0x04, 0x52, 0x3e, 0xbf, 0x77, 0xf2, 0xdf, 0xbc,
  0x0b, 0xc9, 0x45, 0xbd, 0xef, 0xce, 0x93, 0xc1, 0xc9, 0x07, 0xa8, 0xbc, 0xad, 0xa7, 0xaf, 0xbe,
  0xac, 0x50, 0x18, 0x3f, 0x42, 0x3f, 0x64, 0x3e, 0x84, 0xb1, 0xaa, 0xbd, 0xea, 0xed, 0x8f, 0xbd,
  0x00, 0x7a, 0xdd, 0x3e, 0x5c, 0xd7, 0x13, 0x3f, 0x85, 0xb2, 0xf0, 0xbd, 0x45, 0x4d, 0x90, 0xbd,
  0xcf, 0x0a, 0x36, 0xc1, 0x01, 0x91, 0x3a, 0xbd, 0x2f, 0x04, 0x69, 0x38, 0xdd, 0xe7, 0xf8, 0xbd,
  0x0a, 0x74, 0xe0, 0xbd, 0x36, 0xc9, 0x1f, 0x40, 0x5b, 0xc5, 0x39, 0x3e, 0x74, 0x91, 0x4c, 0xbf,
  0xd5, 0x5a, 0x29, 0xbb, 0x1f, 0xf2, 0xdc, 0x3b, 0x97, 0xb7, 0x07, 0x3e, 0x46, 0x19, 0x3f, 0xbe,
  0x86, 0x03, 0xd2, 0x3d, 0xa7, 0x6c, 0x8f, 0xbd, 0x10, 0x2c, 0x11, 0xc0, 0x78, 0x37, 0x41, 0xbe,
  0x0a, 0xf0, 0xfc, 0xba, 0x92, 0xf3, 0x36, 0x3f, 0xbc, 0x96, 0xbb, 0x3d, 0xb0, 0x60, 0x1c, 0x3c,
  0x41, 0xed, 0x06, 0xbe, 0x53, 0xef, 0x0f, 0xbc, 0x55, 0xe2, 0xa7, 0x3e, 0x58, 0x3f, 0xe5, 0x3e,
  0x3f, 0x73, 0x2d, 0xbf, 0xb7, 0x61, 0x1e, 0xbf, 0x8e, 0x09, 0x40, 0x3c, 0x84, 0xea, 0x8c, 0x3c,
  0xfe, 0x53, 0x5e, 0xbd, 0xe4, 0x37, 0x5f, 0x39, 0x2f, 0x19, 0x12, 0x40, 0x30, 0xf6, 0xfe, 0xbd,
  0x35, 0xec, 0x91, 0xbc, 0x0b, 0x12, 0x73, 0xbd, 0x3f, 0xe2, 0xc5, 0xba, 0xd1, 0x4f, 0x7a, 0x3e,
  0xed, 0xea, 0x15, 0x3e, 0xf1, 0x69, 0x86, 0xbf, 0x93, 0x54, 0xc9, 0x3e, 0xae, 0xcb, 0x05, 0x3d,
  0x9b, 0x79, 0x2f, 0xbf, 0x38, 0xaa, 0x57, 0x3d, 0x39, 0xdd, 0xd9, 0xba, 0x5e, 0x9e, 0x81, 0xbd,
  0x38, 0xc7, 0xe6, 0xbe, 0xf3, 0xd4, 0x87, 0x3f, 0x86, 0x5e, 0xe7, 0x3e, 0x79, 0x69, 0x28, 0x3f,
  0xba, 0x6a, 0xe1, 0x3e, 0x45, 0xc0, 0x9b, 0x3e, 0x6a, 0x1a, 0x90, 0xc0, 0x8c, 0xbd, 0x86, 0xbe,
  0xec, 0xe5, 0x3b, 0xbd, 0xdb, 0xc3, 0xe1, 0x41, 0x59, 0x50, 0x24, 0x3d, 0xc5, 0xd2, 0xf3, 0x3d,
  0x86, 0xfd, 0x99, 0x3d, 0x3a, 0x7a, 0x15, 0xbf, 0x1e, 0xb6, 0x29, 0x3d, 0x37, 0xc4, 0x4d, 0x3e,
  0xcb, 0xd1, 0x4d, 0x3f, 0xf0, 0x1b, 0x0f, 0xbe, 0x7d, 0x8e, 0x43, 0xbe, 0x67, 0xfd, 0x91, 0x3e,
  0x79, 0x91, 0x2d, 0xc1, 0x3f, 0xe1, 0x46, 0xbd, 0x2d, 0xd0, 0x19, 0x3d, 0xcd, 0x70, 0xbb, 0xbe,
  0x3b, 0xd6, 0xcf, 0xbd, 0x1c, 0x31, 0x85, 0x3f, 0xca, 0x97, 0x02, 0xbd, 0x08, 0x44, 0x00, 0x42,
  0xa0, 0x60, 0xb6, 0x36, 0x3a, 0x48, 0xc3, 0x3b, 0xe1, 0x39, 0x8b, 0xbe, 0x9c, 0xf0, 0x49, 0xbe,
  0xad, 0x58, 0xd9, 0x3d, 0x2c, 0x7e, 0xb9, 0xbd, 0x21, 0x24, 0x11, 0x40, 0x1e, 0x9a, 0x19, 0xbe,
  0x6e, 0xeb, 0x8e, 0x3c, 0x4b, 0xc2, 0x28, 0xbe, 0x9d, 0xb1, 0x58, 0xbe, 0x9f, 0x4f, 0x84, 0xbe,
  0xa0, 0x94, 0x49, 0x3d, 0xea, 0x2d, 0xa3, 0xbd, 0x71, 0x6d, 0x21, 0x41, 0xbd, 0x93, 0xc7, 0x3f,
  0xae, 0xd5, 0xde, 0x3d, 0x5e, 0xac, 0x4f, 0x3e, 0x5b, 0x61, 0xa7, 0x3d, 0xd3, 0x1c, 0xc2, 0xbd,
  0x0c, 0xfc, 0x96, 0x3d, 0x1b, 0x21, 0xc5, 0xb7, 0xcd, 0xfd, 0xd5, 0xc0, 0x5c, 0x13, 0xe1, 0x3d,
  0xe9, 0x6c, 0x5f, 0xbb, 0x3d, 0xf4, 0x4f, 0xbf, 0xb3, 0xd9, 0x15, 0x3a, 0xc0, 0x13, 0x30, 0x40,
  0xed, 0xe2, 0x9a, 0x3d, 0xa4, 0xa6, 0xa2, 0xbf, 0x1d, 0x40, 0xad, 0xbf, 0x21, 0x2b, 0x76, 0x3c,
  0xd2, 0x5c, 0x5b, 0xbf, 0xe8, 0x1f, 0x9f, 0x3d, 0x8c, 0xf9, 0xcb, 0x3a, 0x1b, 0x13, 0x52, 0x3d,
  0xa2, 0xca, 0xc9, 0x3f, 0xf0, 0xe1, 0xcf, 0xbe, 0xb3, 0x9f, 0x1b, 0xbf, 0x67, 0xbf, 0x96, 0xbf,
  0x36, 0x00, 0x10, 0xbf, 0xef, 0x82, 0xb6, 0xbd, 0x22, 0xe9, 0xcf, 0xbf, 0x6d, 0x36, 0x96, 0x3d,
  0xb1, 0x2a, 0x23, 0xbd, 0x0f, 0x4c, 0xb6, 0x3f, 0x1c, 0x4b, 0x2d, 0x3d, 0x2a, 0xd6, 0x86, 0x3d,
  0x84, 0xd6, 0xf9, 0xbf, 0xd2, 0xde, 0x92, 0xbf, 0x0d, 0xb3, 0xa9, 0x3d, 0x50, 0x08, 0xd5, 0x3d,
  0x3b, 0x83, 0xe7, 0xbf, 0x3f, 0x7d, 0xa6, 0x3e, 0x64, 0x6a, 0x15, 0x3e, 0xb6, 0x01, 0x2e, 0x3d,
  0x28, 0xec, 0x16, 0xc1, 0x1a, 0xf1, 0x0c, 0x3e, 0x85, 0x8c, 0xd4, 0x3b, 0x73, 0x1b, 0x8d, 0x3e,
  0xd0, 0x9f, 0xcc, 0xbc, 0x63, 0x39, 0x7b, 0x40, 0x10, 0x8d, 0xa3, 0xbd, 0xaf, 0x41, 0x0d, 0xc1,
  0x84, 0xd5, 0x4f, 0x3d, 0xf0, 0x0c, 0x33, 0xbb, 0x47, 0x5e, 0x18, 0x3d, 0x5c, 0x9d, 0xb6, 0xbc,
  0x39, 0xb7, 0xe4, 0x3c, 0x17, 0x83, 0x11, 0xbe, 0x27, 0xd6, 0xbd, 0x3f, 0x8f, 0xed, 0xf0, 0xbc,
  0xeb, 0x06, 0x6b, 0x3c, 0xd5, 0xad, 0x95, 0xbe, 0x9f, 0x0b, 0x1f, 0xbf, 0x89, 0x7a, 0xbd, 0xbd,
  0x49, 0x9e, 0xb9, 0xbd, 0xa5, 0x54, 0x80, 0xbc, 0x01, 0xac, 0xf8, 0xc0, 0x58, 0xfe, 0xd2, 0x40,
  0x47, 0xdb, 0x40, 0x3f, 0xaf, 0x4e, 0xb0, 0x3f, 0x67, 0xd2, 0xad, 0x3a, 0x5c, 0xf5, 0x12, 0xbe,
  0xf1, 0xa9, 0xe4, 0xbd, 0x7d, 0x96, 0x66, 0xba, 0xab, 0x26, 0xbb, 0xc0, 0xfd, 0xf6, 0x87, 0xbe,
  0xc2, 0xf3, 0x10, 0xbd, 0x83, 0x9b, 0x33, 0xbf, 0xb8, 0x1d, 0x3a, 0x3a, 0x65, 0xef, 0xa5, 0xbf,
  0x81, 0xee, 0xef, 0xbd, 0xe1, 0x91, 0xb1, 0xbe, 0xbf, 0xc9, 0x63, 0x3e, 0xf2, 0xb9, 0x9b, 0x3d,
  0x01, 0xa6, 0x65, 0xbf, 0xa8, 0x6a, 0x0a, 0x3e, 0xa7, 0x82, 0x38, 0x3a, 0x7a, 0xe2, 0xb9, 0x3f,
  0xa4, 0x83, 0x99, 0xbe, 0xc1, 0x1a, 0x44, 0x3f, 0xfe, 0x7f, 0xf3, 0x3d, 0xec, 0x09, 0x67, 0x3f,
  0x4d, 0xb6, 0xb3, 0xbe, 0x65, 0x7a, 0x93, 0x3d, 0x71, 0x73, 0x05, 0x41, 0xa7, 0x06, 0x26, 0xbe,
  0x07, 0xf6, 0x57, 0x3d, 0xe2, 0xfd, 0x4f, 0x41, 0x37, 0xc8, 0x00, 0x3d, 0x53, 0xb7, 0xf3, 0x3d,
  0x47, 0x84, 0xe8, 0xbe, 0x4b, 0x28, 0x97, 0xbf, 0xa8, 0x6b, 0x16, 0x3d, 0x35, 0xb3, 0xdf, 0x3d,
  0x7f, 0x04, 0x37, 0x3f, 0xc9, 0x55, 0xfd, 0xbc, 0x1c, 0x3f, 0x29, 0x3e, 0x5b, 0xd0, 0x28, 0x3e,
  0xe9, 0xb4, 0x1f, 0xc0, 0xde, 0xcf, 0xea, 0xbd, 0x8d, 0xca, 0xbb, 0x3d, 0x3d, 0x48, 0xbd, 0x3a,
  0x7f, 0xa9, 0x26, 0x3d, 0x14, 0x73, 0x1c, 0x40, 0x15, 0x3f, 0x13, 0xbe, 0x8c, 0x1b, 0x51, 0xc2,
  0x38, 0xda, 0x37, 0xbe, 0x2f, 0x50, 0xc2, 0x3b, 0xec, 0x0a, 0x79, 0xbe, 0x98, 0xb5, 0x12, 0xbd,
  0xca, 0x1a, 0x0e, 0x3e, 0x22, 0xc8, 0xff, 0xbd, 0xcd, 0x51, 0xcb, 0xbd, 0x0b, 0x88, 0xe3, 0xbc,
  0x32, 0xf1, 0x96, 0xbb, 0x2c, 0x8d, 0x0c, 0xbe, 0x0a, 0x0f, 0xed, 0xbd, 0xfe, 0x03, 0x60, 0x3d,
  0x8a, 0x3f, 0x0d, 0x40, 0x95, 0x48, 0x40, 0xbc, 0xbb, 0x62, 0xa4, 0x40, 0x21, 0x20, 0xd7, 0xbe,
  0x03, 0xa2, 0x8a, 0xc0, 0x4b, 0x19, 0xab, 0xbf, 0x94, 0xfc, 0xc3, 0x3c, 0xcb, 0xe2, 0xa8, 0x3d,
  0xc0, 0x45, 0x29, 0x3e, 0x22, 0x90, 0xe2, 0xba, 0x0c, 0x86, 0x95, 0xbe, 0xfc, 0x9e, 0x3b, 0x3e,
  0x2a, 0x85, 0x87, 0xbd, 0xc7, 0xe6, 0xa7, 0xbe, 0x31, 0xc3, 0x72, 0xba, 0x0a, 0x2f, 0xf6, 0x3e,
  0xed, 0xed, 0x93, 0x3d, 0x7b, 0x1f, 0xf6, 0x3b, 0xe2, 0xba, 0x88, 0xbf, 0x68, 0x7b, 0x81, 0xbc,
  0x7e, 0xd0, 0x88, 0xbe, 0x18, 0xa0, 0xab, 0x3c, 0xd6, 0xe6, 0x31, 0x39, 0x82, 0xca, 0xc8, 0xbd,
  0xa8, 0x35, 0xf1, 0x3f, 0x15, 0xfe, 0x1b, 0x3e, 0xd7, 0x78, 0xaa, 0x3f, 0x48, 0x73, 0x38, 0x3f,
  0xc9, 0xa9, 0x2d, 0xbe, 0xa1, 0x72, 0x57, 0xbe, 0x96, 0xb7, 0x61, 0xbf, 0x2f, 0x52, 0x36, 0x3d,
  0xe0, 0xa6, 0x73, 0x3c, 0x87, 0xb2, 0x7f, 0xc1, 0xd3, 0xbb, 0x5f, 0xbd, 0xe4, 0x8c, 0x6d, 0xbe,
  0xcb, 0x0e, 0xfb, 0x3e, 0x7c, 0x1a, 0x2f, 0xbf, 0xa0, 0x7c, 0x7e, 0xbc, 0x66, 0xf5, 0x5f, 0x3e,
  0x25, 0x88, 0x15, 0xbe, 0xc3, 0x19, 0xbd, 0x3e, 0x1b, 0x30, 0x00, 0xbe, 0x84, 0xc9, 0x11, 0xbe,
  0xf9, 0x74, 0x43, 0xc1, 0xb9, 0xf1, 0xd1, 0x3d, 0xe0, 0xa3, 0xa2, 0xbb, 0x81, 0xab, 0xb8, 0x3e,
  0x86, 0xb3, 0x42, 0x3d, 0x89, 0x49, 0xbd, 0x3d, 0x78, 0xb9, 0x8a, 0x3e, 0xf3, 0x3e, 0xc2, 0x3d,
  0x80, 0x53, 0xec, 0xbc, 0x43, 0x84, 0x72, 0xbb, 0xcc, 0xc5, 0xbe, 0x3e, 0x71, 0x31, 0x10, 0xbe,
  0xe4, 0x53, 0x89, 0xbc, 0xbb, 0x1f, 0x84, 0xbd, 0x6e, 0x60, 0xd9, 0x3e, 0xe9, 0x0c, 0x76, 0xbe,
  0x6a, 0x90, 0x5b, 0x3c, 0x6c, 0x01, 0x30, 0x3f, 0xdf, 0x1c, 0x2a, 0xbd, 0x0e, 0x98, 0x2f, 0x3c,
  0x07, 0x15, 0xc4, 0x3e, 0xa7, 0x9e, 0x78, 0xbd, 0x93, 0xe8, 0x89, 0x3f, 0x36, 0x97, 0x06, 0x40,
  0x53, 0x72, 0xb0, 0xbe, 0x89, 0x7c, 0x78, 0xbf, 0x83, 0xd5, 0x94, 0xbb, 0xea, 0x6c, 0x8c, 0x3c,
  0x44, 0xd6, 0x32, 0xbe, 0xb5, 0x60, 0xfe, 0x39, 0x72, 0x63, 0x35, 0x3f, 0x98, 0x2d, 0x41, 0xbe,
  0xc1, 0x44, 0x28, 0xbc, 0x2e, 0x71, 0x06, 0xbf, 0x6c, 0xeb, 0x38, 0xbb, 0xfc, 0x2c, 0x50, 0x40,
  0x10, 0x7e, 0xd4, 0x3e, 0xa2, 0xdd, 0xd9, 0xbf, 0xd0, 0x56, 0xdc, 0xbd, 0xc2, 0x37, 0x0d, 0x3d,
  0x85, 0xd0, 0x8f, 0x3b, 0x30, 0x24, 0xcf, 0xbd, 0x0b, 0x6f, 0xc1, 0x3a, 0xae, 0xd9, 0xa0, 0xbe,
  0xdf, 0x0c, 0x96, 0x3f, 0x3a, 0x6d, 0xca, 0xbf, 0xbb, 0x6c, 0x64, 0xbf, 0xdd, 0xaa, 0x28, 0xbf,
  0x6e, 0x26, 0x71, 0x3f, 0xb0, 0xef, 0x27, 0x3e, 0x53, 0x5e, 0xe4, 0xbf, 0xd9, 0x3e, 0x54, 0xbd,
  0x1b, 0x19, 0xf1, 0xbc, 0xa6, 0x69, 0x9a, 0x41, 0x67, 0xea, 0x2d, 0x3d, 0x49, 0x78, 0xf7, 0x3d,
  0x06, 0x5f, 0xb7, 0xbf, 0xf9, 0xf9, 0xf2, 0xbf, 0xe5, 0x3e, 0xc8, 0x3b, 0x10, 0x3e, 0xb7, 0x3c,
  0x9a, 0x05, 0xa6, 0xbf, 0xad, 0x0e, 0x92, 0xbb, 0x64, 0xa5, 0xe0, 0xbc, 0x0b, 0xdc, 0x70, 0x3e,
  0xd6, 0xb9, 0x45, 0xc1, 0x79, 0xe2, 0xf5, 0x3a, 0x3f, 0xe6, 0x5d, 0x3d, 0x88, 0x38, 0x56, 0xbe,
  0x2e, 0x6e, 0x08, 0xbc, 0xb0, 0x2a, 0x00, 0x41, 0xa0, 0x56, 0x40, 0xbd, 0x3d, 0x5e, 0x8c, 0xc0,
  0xa9, 0x51, 0x0c, 0x3e, 0x55, 0x96, 0x36, 0x39, 0x9d, 0x4e, 0x73, 0xbe, 0xac, 0x03, 0x09, 0xbe,
  0x96, 0x27, 0x87, 0x3d, 0x8e, 0x82, 0xa8, 0xbc, 0x97, 0x47, 0x8d, 0xbf, 0x95, 0x07, 0x98, 0xbd,
  0xe7, 0xe5, 0x75, 0xbb, 0x20, 0xb2, 0x0d, 0xbf, 0x14, 0x11, 0x2f, 0xbf, 0xa1, 0x76, 0xbb, 0xbe,
  0x7f, 0x45, 0x4b, 0xbe, 0xf5, 0xe6, 0x02, 0xbe, 0xb2, 0x87, 0x8a, 0x3e, 0x32, 0x98, 0xa9, 0x40,
  0x01, 0xd4, 0xc0, 0x3f, 0xd5, 0x8f, 0x19, 0xc0, 0xee, 0xef, 0xde, 0x3c, 0x62, 0x76, 0x28, 0x3d,
  0x21, 0x00, 0x26, 0xbd, 0xa6, 0x5e, 0x20, 0x39, 0x2a, 0x16, 0x8f, 0x41, 0xb2, 0x33, 0xe1, 0x3d,
  0xfb, 0x92, 0x2c, 0x3b, 0x23, 0xe2, 0x35, 0xbd, 0xfc, 0x5e, 0x09, 0x3b, 0x13, 0x45, 0xe1, 0x3f,
  0x2f, 0x7a, 0x61, 0x3e, 0xf9, 0x0a, 0x2d, 0xbf, 0x82, 0x80, 0x92, 0x3f, 0x47, 0xa2, 0x0a, 0xbe,
  0x9c, 0x2d, 0x10, 0xbe, 0x6c, 0x4c, 0xaa, 0xbd, 0x56, 0x2c, 0x5e, 0xba, 0xed, 0xff, 0xe5, 0xbe,
  0x9d, 0x96, 0xc1, 0xbf, 0x5c, 0x5f, 0x07, 0x40, 0x3f, 0xb8, 0x0e, 0xbc, 0xd9, 0x8d, 0x72, 0x40,
  0x06, 0x4e, 0xdb, 0x3f, 0xed, 0xd1, 0x0a, 0xbe, 0x03, 0x21, 0x09, 0xc0, 0x0c, 0xe2, 0x3d, 0xbd,
  0x53, 0x4d, 0x18, 0xbc, 0x17, 0xf3, 0xcb, 0x3e, 0x0d, 0xaa, 0x49, 0xbd, 0x26, 0x1d, 0xc2, 0xbd,
  0x87, 0x74, 0x97, 0xbe, 0x78, 0xfd, 0x3d, 0xbf, 0x0e, 0x7a, 0xbc, 0xbd, 0x06, 0x2f, 0x14, 0xbd,
  0xe2, 0xaa, 0xb5, 0xbe, 0x18, 0xa7, 0x19, 0x3e, 0x66, 0x28, 0x6e, 0xbe, 0x9a, 0x18, 0xf7, 0x3b,
  0xcf, 0x17, 0x1b, 0xc0, 0xdb, 0xf4, 0x18, 0xba, 0xfa, 0x75, 0x97, 0xbc, 0xda, 0x7c, 0xa8, 0xbe,
  0x70, 0x76, 0x29, 0xbd, 0x06, 0xe6, 0x76, 0xc1, 0x1e, 0x07, 0xda, 0xbc, 0x21, 0x75, 0xb9, 0xbf,
  0xa8, 0x15, 0xd7, 0x3c, 0xb8, 0xd8, 0x8a, 0x3b, 0xd7, 0x80, 0xb4, 0x3d, 0x60, 0x72, 0xcb, 0x3c,
  0xe9, 0xa2, 0x8d, 0xbd, 0x42, 0x5b, 0x13, 0x3c, 0xdc, 0xa2, 0x51, 0xc0, 0xc6, 0xb3, 0x81, 0x3c,
  0xe1, 0x21, 0x22, 0xbb, 0x46, 0x9d, 0x14, 0xbe, 0x66, 0x6d, 0xbf, 0xbe, 0x91, 0xd5, 0x84, 0xbd,
  0xf5, 0x86, 0xa1, 0xbe, 0x7f, 0x38, 0x75, 0xbb, 0x5c, 0x1e, 0x65, 0x3f, 0xa0, 0xd0, 0x0b, 0x40,
  0x3a, 0x36, 0xc3, 0x3e, 0x4f, 0x5b, 0x6e, 0x3e, 0xf4, 0x54, 0x58, 0xbd, 0x89, 0xd3, 0x51, 0xbc,
  0x4d, 0xdd, 0x8b, 0x39, 0x18, 0xe4, 0xa2, 0xb8, 0xa6, 0x98, 0x07, 0xc1, 0x73, 0xd9, 0x9c, 0xbd,
  0x9f, 0xbc, 0xa2, 0x3b, 0x88, 0x7f, 0x83, 0xbf, 0x9f, 0x85, 0xb0, 0x3a, 0x01, 0x9e, 0x20, 0x40,
  0x88, 0xdb, 0xa0, 0x3e, 0x64, 0x70, 0x96, 0xbf, 0x85, 0x7e, 0x73, 0xbf, 0x74, 0x52, 0xaf, 0xbc,
  0x01, 0xb2, 0xae, 0xbf, 0xf7, 0x9a, 0xb4, 0xbd, 0xd0, 0x0e, 0x1f, 0xba, 0x44, 0x59, 0xa8, 0x3e,
  0x21, 0x41, 0xa0, 0xbf, 0x62, 0x00, 0xa7, 0xbf, 0x83, 0x8e, 0xa5, 0xbf, 0x04, 0xcf, 0x02, 0xc0,
  0xee, 0x2d, 0x7d, 0xbe, 0xba, 0x4e, 0x1d, 0xbe, 0x44, 0x97, 0x13, 0xbc, 0x25, 0x21, 0xd5, 0xbc,
  0xe9, 0xe9, 0xb0, 0xbd, 0x2c, 0x16, 0x18, 0x41, 0x08, 0xb8, 0x46, 0x3d, 0x76, 0x6d, 0xba, 0xbd,
  0x9c, 0x8d, 0x60, 0xbf, 0xa1, 0x82, 0xb9, 0xbf, 0x6e, 0x4b, 0xb0, 0xbc, 0x0d, 0xec, 0x46, 0xbd,
  0x5e, 0xff, 0xe3, 0xbf, 0xd7, 0x50, 0x06, 0x3e, 0x51, 0x1f, 0x31, 0xbd, 0x58, 0x09, 0x54, 0xbd,
  0x5d, 0x76, 0x36, 0xc0, 0x19, 0x7e, 0x18, 0xbe, 0x41, 0x04, 0x0f, 0xba, 0x9d, 0xe8, 0x58, 0xbe,
  0xb9, 0x2c, 0x98, 0xbd, 0xf7, 0x6f, 0xeb, 0x40, 0x13, 0x61, 0xca, 0xbd, 0x74, 0xea, 0x82, 0xbf,
  0xc5, 0xc1, 0xae, 0x3d, 0x26, 0x1f, 0xc2, 0x3b, 0x29, 0xac, 0xfa, 0xbc, 0xe8, 0xd6, 0x27, 0xbe,
  0x67, 0x6d, 0x8e, 0x3c, 0x68, 0xbb, 0xe4, 0xbc, 0x17, 0x5c, 0x8e, 0x3e, 0xbe, 0x15, 0x39, 0xbe,
  0x4c, 0x9b, 0x82, 0xbb, 0x68, 0x25, 0x62, 0xbe, 0x98, 0x75, 0xcf, 0xbe, 0x04, 0x37, 0x88, 0xbd,
  0x88, 0xc2, 0xf6, 0x3d, 0x85, 0x76, 0x4d, 0xbd, 0xd4, 0x56, 0x52, 0xc0, 0xc4, 0x8b, 0xaa, 0x40,
  0x8a, 0x19, 0x05, 0x3f, 0x84, 0x59, 0x0f, 0x3e, 0x45, 0x39, 0x6d, 0xbc, 0x2f, 0x54, 0x94, 0xbc,
  0x6c, 0x66, 0x14, 0x3e, 0x13, 0xa8, 0xf7, 0x3a, 0x2f, 0x66, 0x01, 0xc1, 0x64, 0x60, 0x91, 0x3d,
  0x57, 0x45, 0x2e, 0x3d, 0xde, 0xd3, 0x6f, 0xbf, 0xd0, 0x04, 0xc9, 0xb8, 0xe9, 0xea, 0x13, 0x40,
  0xf0, 0x32, 0xf4, 0x3e, 0x09, 0x9a, 0xe6, 0xbf, 0x90, 0x83, 0x3a, 0xbf, 0x47, 0xb1, 0x7c, 0x3d,
  0x4a, 0x5e, 0x68, 0xbf, 0x28, 0x28, 0x65, 0x3d, 0xf5, 0xf6, 0x43, 0xba, 0xcf, 0x4b, 0x0a, 0x3e,
  0xa6, 0x4c, 0x36, 0x3f, 0xf3, 0xca, 0x03, 0x3f, 0x82, 0xb6, 0x61, 0x3e, 0xde, 0x3b, 0xfe, 0xbd,
  0xcb, 0x04, 0xb3, 0xbf, 0xeb, 0x49, 0x21, 0x3d, 0xf9, 0xce, 0xa3, 0x3f, 0x93, 0x2c, 0x03, 0x3e,
  0x46, 0xba, 0xff, 0x3c, 0x3c, 0x3c, 0x98, 0xc1, 0x72, 0x06, 0x8d, 0x3c, 0x2b, 0xec, 0xea, 0xbc,
  0x6e, 0x15, 0xce, 0xbf, 0x11, 0x9c, 0x07, 0xc0, 0x85, 0x1a, 0xc9, 0x3b, 0x6d, 0xbd, 0x1b, 0x3e,
  0x29, 0x5e, 0x25, 0x3f, 0x9e, 0xf0, 0x45, 0x3e, 0xe5, 0xa8, 0x0e, 0x3e, 0xb9, 0x04, 0x58, 0xbd,
  0x07, 0xe1, 0xa5, 0x41, 0x09, 0x6f, 0x4b, 0x3d, 0x06, 0x1e, 0x8f, 0xbb, 0x63, 0x7a, 0x89, 0x3c,
  0x83, 0x5a, 0x8b, 0x3c, 0xe4, 0x1e, 0x0e, 0x40, 0xea, 0xf9, 0x33, 0x3e, 0xb3, 0x16, 0x57, 0x40,
  0xda, 0x1e, 0x16, 0xbe, 0x1d, 0x53, 0x8f, 0xbb, 0x29, 0x37, 0x4a, 0x3e, 0xfd, 0x33, 0x31, 0x3d,
  0x26, 0x35, 0x93, 0x3d, 0x2f, 0xd4, 0xa6, 0xbd, 0xcc, 0xa5, 0x5a, 0x40, 0xc1, 0x06, 0x5f, 0x3e,
  0xa3, 0xf2, 0xda, 0xbb, 0xe5, 0x44, 0x9a, 0x3e, 0xf4, 0x36, 0xb9, 0xbe, 0x8b, 0x03, 0x15, 0x3e,
  0x8b, 0xa8, 0xfc, 0x3e, 0xa7, 0xe4, 0xa5, 0x3d, 0x21, 0x99, 0xfd, 0xbf, 0x9b, 0x9d, 0xd1, 0x40,
  0x30, 0xa7, 0xff, 0xbf, 0xcf, 0xd5, 0xa5, 0x3f, 0x38, 0x2e, 0xeb, 0xbb, 0x51, 0x71, 0xfe, 0xbc,
  0x2a, 0x35, 0x29, 0xbd, 0x46, 0xff, 0xa6, 0xb9, 0xc9, 0xd2, 0x9d, 0xc0, 0x9f, 0x07, 0x11, 0xbe,
  0xae, 0xb5, 0x88, 0xbb, 0x9c, 0xf3, 0x82, 0x3f, 0x4e, 0x5c, 0x86, 0x3b, 0xf1, 0xaa, 0x95, 0xc0,
  0x63, 0x16, 0x29, 0xbf, 0x75, 0x78, 0x71, 0x40, 0x28, 0x45, 0x8b, 0xbf, 0x54, 0x6b, 0x86, 0xbd,
  0x89, 0xa6, 0x96, 0x3e, 0xfb, 0x2e, 0x5f, 0x3d, 0xb8, 0x88, 0xec, 0xb9, 0xf7, 0x08, 0x37, 0x3e,
  0x07, 0xcc, 0x68, 0xbf, 0xaf, 0xeb, 0xa4, 0xbf, 0x0d, 0x15, 0xc2, 0xbd, 0x68, 0x0c, 0x1a, 0xc0,
  0xe2, 0x2d, 0x02, 0xc0, 0xd0, 0x50, 0xd4, 0xbd, 0xc0, 0x4e, 0xcd, 0xbf, 0x54, 0x9e, 0x43, 0x3c,
  0x48, 0x8b, 0x79, 0xbb, 0xda, 0x0c, 0x3b, 0xc0, 0xb1, 0xf7, 0x72, 0xbc, 0xa0, 0xbe, 0x7b, 0xbd,
  0x24, 0x5c, 0xed, 0x3f, 0x93, 0xb3, 0x1d, 0x40, 0xf0, 0x5a, 0x92, 0xbd, 0x5c, 0x5a, 0x57, 0x3c,
  0x36, 0x71, 0x6d, 0xbf, 0x52, 0xae, 0x16, 0xbe, 0x95, 0x41, 0x71, 0xbe, 0xe3, 0x5f, 0x51, 0xbe,
  0x88, 0x1f, 0x0b, 0xc1, 0xba, 0x51, 0x1b, 0xbc, 0x0e, 0x23, 0xcf, 0x3c, 0xd4, 0x8c, 0x22, 0xbe,
  0xdf, 0xed, 0x81, 0xbd, 0xfd, 0xa8, 0x26, 0x41, 0x64, 0x58, 0xdb, 0xbd, 0x45, 0xe9, 0x9a, 0x40,
  0x8a, 0xda, 0xf8, 0x3d, 0xe0, 0x47, 0x9d, 0x3b, 0xdf, 0x0c, 0x0a, 0x3e, 0x83, 0x0d, 0x5a, 0xbe,
  0x52, 0xf6, 0x46, 0xbc, 0xd2, 0x24, 0xbc, 0xbd, 0x94, 0xa7, 0x85, 0xbd, 0x86, 0xa7, 0xc3, 0xbd,
  0x0f, 0x76, 0xb8, 0xb9, 0xa7, 0xa2, 0x15, 0xbe, 0x6e, 0x86, 0x3a, 0x3f, 0x20, 0xb0, 0xbf, 0xbd,
  0xd9, 0x78, 0x01, 0xbf, 0xd5, 0x58, 0x09, 0xbb, 0xae, 0x01, 0x3b, 0xc0, 0xe2, 0x6a, 0x03, 0xc1,
  0x40, 0x1c, 0x81, 0x3f, 0x73, 0xb8, 0x51, 0xbf, 0x0b, 0x10, 0x4a, 0xbc, 0xe7, 0xdb, 0xdd, 0xbc,
  0xc6, 0x7a, 0xc9, 0xbd, 0xd8, 0x26, 0xea, 0x37, 0x61, 0xa2, 0x6e, 0x41, 0x81, 0xc3, 0xc7, 0xbd,
  0xdd, 0xcc, 0xa1, 0xbc, 0x5b, 0x38, 0x1f, 0x3f, 0xb3, 0xeb, 0x12, 0x3a, 0xf8, 0xcf, 0x7b, 0xc0,
  0xe1, 0x98, 0x45, 0xbf, 0xe7, 0x96, 0x45, 0x40, 0xca, 0x9f, 0xd4, 0xbe, 0x09, 0xdd, 0x0e, 0x3c,
  0xf6, 0x81, 0xd5, 0x3c, 0xeb, 0x4b, 0x60, 0x3c, 0xa1, 0xb5, 0x81, 0xb9, 0x52, 0x43, 0x03, 0xbe,
  0x18, 0x0f, 0xef, 0x39, 0x92, 0x89, 0x97, 0xbf, 0x2a, 0xf7, 0xfa, 0x3d, 0x08, 0x40, 0x99, 0xbf,
  0x1f, 0xd4, 0x13, 0xbf, 0x33, 0x2e, 0x18, 0xbe, 0xd2, 0x43, 0x90, 0xbf, 0xb0, 0x5d, 0xd6, 0x3b,
  0xbc, 0xee, 0xc4, 0xbb, 0xcf, 0x35, 0x2f, 0xc0, 0x43, 0x24, 0xf1, 0xbb, 0xf2, 0xc1, 0x1b, 0xbc,
  0x57, 0x8d, 0xb8, 0x3f, 0xa9, 0x0b, 0x49, 0x40, 0x5b, 0xc2, 0x79, 0xbd, 0x67, 0x33, 0x0a, 0xbd,
  0xea, 0x39, 0x59, 0xbe, 0x70, 0x84, 0x06, 0xbe, 0x00, 0x0b, 0xc6, 0xbd, 0x51, 0x3b, 0xd6, 0xbd,
  0xb8, 0xb4, 0xb1, 0x40, 0xbe, 0x12, 0x6f, 0x3c, 0xc6, 0x19, 0xf9, 0x3c, 0xaf, 0x60, 0xb6, 0xbd,
  0x42, 0x8f, 0x11, 0x3d, 0x6a, 0x12, 0x54, 0x40, 0xa5, 0x1c, 0xb4, 0xbd, 0xfa, 0xd6, 0x21, 0xc0,
  0x65, 0x20, 0x32, 0x3c, 0x56, 0x7e, 0xb2, 0x3a, 0x42, 0x12, 0xf5, 0x3c, 0xc0, 0x9b, 0xf7, 0x3b,
  0xf2, 0x8b, 0x73, 0x3d, 0x77, 0x71, 0x74, 0xbd, 0x6a, 0xff, 0x3e, 0x40, 0xca, 0xd4, 0x48, 0xbe,
  0x6b, 0xbb, 0x07, 0x3b, 0x4d, 0x3e, 0xc6, 0x3d, 0xc8, 0x82, 0x3c, 0x3f, 0xad, 0xf0, 0x8f, 0xbd,
  0x6d, 0xbf, 0x87, 0xbd, 0xa4, 0x02, 0x58, 0x3c, 0xa1, 0x3e, 0x14, 0xc0, 0x27, 0x23, 0x0d, 0xc1,
  0xab, 0xcc, 0x3d, 0x3e, 0x53, 0x27, 0x51, 0xbe, 0x3c, 0xc2, 0xbc, 0xbb, 0xc3, 0x06, 0x48, 0xbc,
  0x32, 0x4a, 0x59, 0x3d, 0x4e, 0x68, 0xd2, 0x38, 0x7b, 0x79, 0xde, 0xc0, 0xca, 0xdf, 0xe4, 0x3b,
  0xcb, 0x41, 0x89, 0xbc, 0xb9, 0x08, 0xe4, 0x3d, 0x86, 0xc2, 0xb9, 0xb9, 0xf6, 0x08, 0x4b, 0x3d,
  0x9d, 0xd0, 0x61, 0x3e, 0x82, 0x00, 0x00, 0xbe, 0x7e, 0x07, 0xec, 0x3f, 0x71, 0x90, 0xf1, 0xbd,
  0x1a, 0xac, 0x0f, 0xbe, 0x58, 0x86, 0x28, 0xb8, 0x70, 0x63, 0x06, 0xb9, 0xa4, 0xc3, 0x97, 0x3f,
  0xd7, 0xc1, 0xae, 0xbf, 0xc4, 0xe6, 0x50, 0x40, 0x82, 0xc1, 0xa2, 0xbd, 0x5a, 0x6a, 0x02, 0x40,
  0x50, 0x45, 0x22, 0x40, 0xe6, 0x2e, 0x8b, 0xbd, 0xaa, 0x3e, 0xae, 0xc0, 0x99, 0x55, 0x39, 0xbd,
  0x54, 0x79, 0x73, 0x3b, 0x42, 0x83, 0x4c, 0x3f, 0x77, 0x50, 0xa1, 0xbc, 0x00, 0x5f, 0xa9, 0xbd,
  0x2f, 0x76, 0x35, 0x3f, 0xed, 0xf4, 0x12, 0xbe, 0x38, 0xf2, 0x04, 0x3c, 0xc1, 0x8d, 0x59, 0xbe,
  0x36, 0x12, 0xc8, 0x3e, 0xfe, 0xe5, 0xa9, 0x3d, 0x6f, 0x32, 0x8b, 0xbd, 0x28, 0xe5, 0x3d, 0xbd,
  0xff, 0x09, 0x45, 0xc1, 0x18, 0xd4, 0x1b, 0xbd, 0x47, 0x60, 0xbe, 0xbd, 0xc9, 0x74, 0x43, 0xbe,
  0x70, 0xd8, 0xa6, 0x3c, 0x31, 0x53, 0x8d, 0xc1, 0xc8, 0xa8, 0x52, 0x3c, 0x6b, 0x27, 0xdc, 0x40,
  0xde, 0x39, 0x21, 0xbe, 0xef, 0xfd, 0x9a, 0xbb, 0x78, 0x89, 0xef, 0x3d, 0x98, 0xf7, 0x80, 0xbd,
  0x5b, 0x66, 0x21, 0xbe, 0x0c, 0x90, 0x39, 0xbd, 0x47, 0xf6, 0x4a, 0xc0, 0x99, 0x5d, 0x01, 0xbd,
  0xff, 0x91, 0xc6, 0xba, 0x8c, 0x12, 0x53, 0xbc, 0xed, 0xa3, 0x3a, 0xbe, 0x84, 0xc0, 0xa9, 0xbc,
  0xe3, 0x54, 0x94, 0x3f, 0x9d, 0x0c, 0x56, 0x3d, 0xed, 0x32, 0x6a, 0xbf, 0x1e, 0x08, 0x81, 0x3c,
  0xa1, 0x72, 0x0f, 0xc0, 0x00, 0x08, 0x2f, 0x3e, 0xcd, 0xec, 0x6d, 0xbd, 0x5b, 0x50, 0xd1, 0x3d,
  0x26, 0xdb, 0xe6, 0xbd, 0xed, 0xb7, 0xe6, 0xba, 0xe3, 0x03, 0x28, 0xc0, 0x51, 0x85, 0xd9, 0xbd,
  0x6f, 0xae, 0xe7, 0xbc, 0x25, 0xee, 0x14, 0x3f, 0xba, 0x9c, 0xbe, 0xba, 0x39, 0x74, 0x38, 0xc0,
  0xa6, 0xac, 0xb0, 0xbe, 0x62, 0xec, 0x4a, 0x40, 0x06, 0xcc, 0xf4, 0xbf, 0x52, 0xf0, 0x6b, 0x3c,
  0x25, 0xca, 0xd2, 0xbe, 0x72, 0xa0, 0x19, 0xbd, 0x8b, 0xce, 0x20, 0xbb, 0xad, 0xd8, 0x15, 0x3e,
  0x3e, 0x94, 0x08, 0xbf, 0xc7, 0x79, 0x5e, 0xbf, 0x63, 0x1a, 0xdf, 0xbe, 0xd8, 0x4f, 0xc5, 0xbf,
  0xe1, 0xf1, 0xfd, 0xbf, 0x34, 0x5f, 0x2d, 0xbe, 0xb1, 0x73, 0x51, 0xc0, 0xe1, 0x0c, 0xc3, 0xbc,
  0xf9, 0xfa, 0x99, 0x3c, 0xb0, 0xde, 0x56, 0x41, 0x24, 0x46, 0x36, 0xbc, 0x18, 0x61, 0xd7, 0x3c,
  0x1e, 0x6b, 0x87, 0x3f, 0x7e, 0x7a, 0x22, 0x40, 0x27, 0xd0, 0x2c, 0xbb, 0x63, 0x53, 0x87, 0x3d,
  0x96, 0x27, 0x9a, 0x3b, 0x8e, 0x2d, 0x0b, 0xbd, 0x2e, 0x60, 0xad, 0xbd, 0x29, 0x9d, 0x81, 0xbd,
  0xd1, 0xf4, 0xf7, 0xbf, 0x94, 0x4b, 0x4c, 0x3d, 0x61, 0x9b, 0x8b, 0x3d, 0xe3, 0x4e, 0x66, 0x3d,
  0x23, 0xc7, 0x59, 0xbd, 0x54, 0x62, 0x1a, 0x41, 0xf5, 0x17, 0x6a, 0xbe, 0x6d, 0xec, 0xf0, 0x3f,
  0x91, 0x89, 0x2c, 0x3e, 0xc5, 0x91, 0xf9, 0xba, 0x43, 0x05, 0xa5, 0xbd, 0x55, 0x09, 0x9e, 0xbe,
  0x62, 0x6c, 0x0b, 0xbd, 0x7c, 0x64, 0xdf, 0xbd, 0xfc, 0x35, 0x05, 0xbf, 0xba, 0x30, 0x22, 0xbe,
  0x2b, 0xb6, 0x35, 0x3c, 0x80, 0xda, 0x59, 0xbc, 0x98, 0xed, 0xde, 0x3d, 0x56, 0x4f, 0x37, 0xbe,
  0x57, 0xf8, 0x42, 0xbf, 0xc2, 0xa0, 0xe0, 0xbd, 0x4c, 0x28, 0x06, 0xc0, 0x86, 0x18, 0xcf, 0xc0,
  0xcc, 0xba, 0xaa, 0x3f, 0xe4, 0xd2, 0xd0, 0xbf, 0xba, 0xa8, 0x4d, 0x3b, 0x48, 0x14, 0x23, 0x3d,
  0xac, 0x03, 0x88, 0xb8, 0xbe, 0xb3, 0x67, 0x39, 0x12, 0xe7, 0x23, 0xc0, 0x6f, 0xe3, 0xad, 0xbd,
  0xeb, 0x35, 0x8d, 0xbc, 0x8b, 0xf3, 0x31, 0x3f, 0xa8, 0xe6, 0x7e, 0xba, 0x19, 0x48, 0x8e, 0xc0,
  0x47, 0xea, 0x50, 0xbf, 0x03, 0xe2, 0x96, 0x40, 0xa9, 0xbe, 0xae, 0x3e, 0xec, 0x2b, 0x64, 0xbb,
  0x49, 0xb7, 0xc6, 0xbc, 0x76, 0x32, 0x9b, 0x3c, 0x8b, 0xc3, 0x8b, 0x39, 0xb7, 0xe3, 0xbe, 0x3e,
  0xc7, 0x23, 0x8e, 0xbe, 0xf1, 0x1e, 0x0d, 0x3f, 0x19, 0x32, 0xe3, 0x3d, 0xf6, 0x1e, 0x87, 0xbe,
  0x4d, 0x7f, 0x93, 0x3f, 0xd5, 0x53, 0xa2, 0xbd, 0xcd, 0x11, 0xc6, 0x3d, 0xc5, 0xd3, 0x66, 0x3c,
  0xf9, 0xa4, 0x1c, 0xbd, 0x24, 0x70, 0x7b, 0xc0, 0xf5, 0x41, 0xbb, 0xbc, 0x37, 0x34, 0xaa, 0x3c,
  0x80, 0x93, 0x0a, 0x40, 0x5b, 0xd1, 0x0c, 0x40, 0xe9, 0x81, 0x4c, 0xbd, 0x95, 0x62, 0xee, 0xbd,
  0x38, 0x81, 0x78, 0xbe, 0x20, 0x4d, 0x7c, 0x3d, 0xfc, 0xa0, 0xf6, 0xbc, 0x55, 0x3b, 0x37, 0xbe,
  0xf5, 0xd6, 0x18, 0xc1, 0x4b, 0xcb, 0x49, 0xbb, 0xdb, 0xf9, 0xcc, 0x3c, 0x61, 0x34, 0xa3, 0xbd,
  0x2a, 0x6f, 0x2e, 0x3c, 0x97, 0x6f, 0x3c, 0xc0, 0xbc, 0xcd, 0x50, 0xbe, 0x1f, 0xbc, 0xc4, 0x3f,
  0x2f, 0x64, 0x84, 0x3d, 0x59, 0x06, 0x8b, 0xbb, 0x5f, 0x0b, 0x03, 0x3c, 0xde, 0x78, 0xc5, 0x3a,
  0x01, 0x70, 0x47, 0xbc, 0xc0, 0xcf, 0x91, 0xbd, 0x90, 0x28, 0x8d, 0xbf, 0x3b, 0xfb, 0xab, 0x3c,
  0x0b, 0x46, 0xae, 0xbb, 0x04, 0xc5, 0x5d, 0x3d, 0x72, 0xde, 0x45, 0x3f, 0x2f, 0xf8, 0x18, 0x3d,
  0x9f, 0x28, 0x45, 0x3e, 0x2c, 0x7a, 0x2f, 0x3d, 0xdd, 0x6d, 0x13, 0xbf, 0xd9, 0x88, 0x01, 0xc1,
  0x0a, 0xe4, 0x72, 0xbe, 0xb3, 0x37, 0x17, 0xbe, 0xef, 0x2c, 0x51, 0xbd, 0xe9, 0xb9, 0x6e, 0xbb,
  0x62, 0xbb, 0x1f, 0x3c, 0xf4, 0x56, 0x8d, 0xb9, 0xbc, 0x41, 0x55, 0x40, 0x14, 0x25, 0x01, 0x3d,
  0x9b, 0x06, 0x87, 0xbc, 0x60, 0x40, 0xb9, 0xbe, 0x24, 0xb8, 0x92, 0x3b, 0x9f, 0x1e, 0x57, 0x40,
  0xc8, 0xe0, 0x8a, 0x3b, 0x1a, 0xb3, 0x8f, 0xc0, 0xee, 0x08, 0xea, 0x3e, 0x74, 0x32, 0xf6, 0xbd,
  0x04, 0xbd, 0xab, 0xbe, 0x5d, 0x29, 0x45, 0x3d, 0x46, 0x7c, 0x41, 0xba, 0x6f, 0xa3, 0x97, 0xbe,
  0xc3, 0x72, 0x05, 0x3e, 0xc3, 0x5c, 0x88, 0x3f, 0x8c, 0x6e, 0x20, 0x3d, 0xc6, 0xd4, 0xa5, 0xbf,
  0x12, 0xf1, 0x90, 0xbe, 0x32, 0x15, 0xae, 0x3d, 0x7f, 0x39, 0x7e, 0xbf, 0x77, 0xb7, 0x9a, 0x3c,
  0x4f, 0x75, 0x0a, 0xbd, 0xdb, 0x5f, 0x16, 0x3f, 0xf4, 0xc0, 0x42, 0xbd, 0x47, 0x68, 0x12, 0xbd,
  0x74, 0xc4, 0xc2, 0xbf, 0x13, 0xb0, 0x34, 0xc0, 0x53, 0x92, 0x9d, 0xbd, 0x8e, 0x2f, 0x28, 0x3a,
  0x82, 0x74, 0x1d, 0xbf, 0x2b, 0xff, 0x2a, 0xbe, 0x3a, 0xfc, 0x60, 0x3d, 0xf7, 0x5d, 0x16, 0x3d,
  0x89, 0x63, 0x1f, 0xbf, 0x66, 0xa7, 0xa3, 0x3d, 0x58, 0xcf, 0xc9, 0x3b, 0x49, 0x6d, 0xdd, 0x3d,
  0xb3, 0x03, 0x80, 0x3b, 0xc6, 0x7b, 0x92, 0x3f, 0x7c, 0xff, 0xa8, 0x3d, 0x83, 0x60, 0x85, 0x40,
  0xed, 0x4f, 0x0c, 0xbd, 0x90, 0x0a, 0x7c, 0x3b, 0xf2, 0x9b, 0x00, 0x3e, 0xe7, 0xa4, 0xc3, 0xbd,
  0xc0, 0x3a, 0x1e, 0xbd, 0x0b, 0x9d, 0x43, 0x3d, 0x51, 0xb9, 0x8f, 0xbf, 0x11, 0xfc, 0x8a, 0xbe,
  0xad, 0xd4, 0xa5, 0x3a, 0xbd, 0xb3, 0xf1, 0x3d, 0xbf, 0xf2, 0x81, 0xbf, 0x8f, 0xc6, 0xd8, 0xbd,
  0x8a, 0xb0, 0xfb, 0x3d, 0xae, 0xa9, 0x3e, 0x3c, 0x57, 0x2c, 0x18, 0x3e, 0x58, 0x67, 0x11, 0x41,
  0xe8, 0x9d, 0x41, 0x3f, 0xad, 0xf4, 0x6d, 0xbf, 0x74, 0x7b, 0xbb, 0xbc, 0xd4, 0xf8, 0xff, 0xff,
  0xd8, 0xf8, 0xff, 0xff, 0x0f, 0x00, 0x00, 0x00, 0x4d, 0x4c, 0x49, 0x52, 0x20, 0x43, 0x6f, 0x6e,
  0x76, 0x65, 0x72, 0x74, 0x65, 0x64, 0x2e, 0x00, 0x01, 0x00, 0x00, 0x00, 0x14, 0x00, 0x00, 0x00,
  0x00, 0x00, 0x0e, 0x00, 0x18, 0x00, 0x14, 0x00, 0x10, 0x00, 0x0c, 0x00, 0x08, 0x00, 0x04, 0x00,
  0x0e, 0x00, 0x00, 0x00, 0x14, 0x00, 0x00, 0x00, 0x1c, 0x00, 0x00, 0x00, 0x50, 0x01, 0x00, 0x00,
  0x54, 0x01, 0x00, 0x00, 0x58, 0x01, 0x00, 0x00, 0x04, 0x00, 0x00, 0x00, 0x6d, 0x61, 0x69, 0x6e,
  0x00, 0x00, 0x00, 0x00, 0x05, 0x00, 0x00, 0x00, 0xf8, 0x00, 0x00, 0x00, 0xb0, 0x00, 0x00, 0x00,
  0x68, 0x00, 0x00, 0x00, 0x34, 0x00, 0x00, 0x00, 0x10, 0x00, 0x00, 0x00, 0x00, 0x00, 0x0a, 0x00,
  0x10, 0x00, 0x0c, 0x00, 0x08, 0x00, 0x04, 0x00, 0x0a, 0x00, 0x00, 0x00, 0x0c, 0x00, 0x00, 0x00,
  0x10, 0x00, 0x00, 0x00, 0x01, 0x00, 0x00, 0x00, 0x01, 0x00, 0x00, 0x00, 0x0d, 0x00, 0x00, 0x00,
  0x01, 0x00, 0x00, 0x00, 0x0c, 0x00, 0x00, 0x00, 0x9a, 0xff, 0xff, 0xff, 0x10, 0x00, 0x00, 0x00,
  0x00, 0x00, 0x00, 0x08, 0x0c, 0x00, 0x00, 0x00, 0x10, 0x00, 0x00, 0x00, 0x84, 0xf9, 0xff, 0xff,
  0x01, 0x00, 0x00, 0x00, 0x0c, 0x00, 0x00, 0x00, 0x03, 0x00, 0x00, 0x00, 0x0b, 0x00, 0x00, 0x00,
  0x03, 0x00, 0x00, 0x00, 0x05, 0x00, 0x00, 0x00, 0xca, 0xff, 0xff, 0xff, 0x10, 0x00, 0x00, 0x00,
  0x00, 0x00, 0x00, 0x08, 0x10, 0x00, 0x00, 0x00, 0x14, 0x00, 0x00, 0x00, 0x76, 0xff, 0xff, 0xff,
  0x00, 0x00, 0x00, 0x01, 0x01, 0x00, 0x00, 0x00, 0x0b, 0x00, 0x00, 0x00, 0x03, 0x00, 0x00, 0x00,
  0x0a, 0x00, 0x00, 0x00, 0x04, 0x00, 0x00, 0x00, 0x06, 0x00, 0x00, 0x00, 0x00, 0x00, 0x0e, 0x00,
  0x14, 0x00, 0x00, 0x00, 0x10, 0x00, 0x0c, 0x00, 0x0b, 0x00, 0x04, 0x00, 0x0e, 0x00, 0x00, 0x00,
  0x10, 0x00, 0x00, 0x00, 0x00, 0x00, 0x00, 0x08, 0x10, 0x00, 0x00, 0x00, 0x14, 0x00, 0x00, 0x00,
  0xba, 0xff, 0xff, 0xff, 0x00, 0x00, 0x00, 0x01, 0x01, 0x00, 0x00, 0x00, 0x0a, 0x00, 0x00, 0x00,
  0x03, 0x00, 0x00, 0x00, 0x09, 0x00, 0x00, 0x00, 0x01, 0x00, 0x00, 0x00, 0x02, 0x00, 0x00, 0x00,
  0x00, 0x00, 0x0e, 0x00, 0x16, 0x00, 0x00, 0x00, 0x10, 0x00, 0x0c, 0x00, 0x0b, 0x00, 0x04, 0x00,
  0x0e, 0x00, 0x00, 0x00, 0x18, 0x00, 0x00, 0x00, 0x00, 0x00, 0x00, 0x08, 0x18, 0x00, 0x00, 0x00,
  0x1c, 0x00, 0x00, 0x00, 0x00, 0x00, 0x06, 0x00, 0x08, 0x00, 0x07, 0x00, 0x06, 0x00, 0x00, 0x00,
  0x00, 0x00, 0x00, 0x01, 0x01, 0x00, 0x00, 0x00, 0x09, 0x00, 0x00, 0x00, 0x03, 0x00, 0x00, 0x00,
  0x00, 0x00, 0x00, 0x00, 0x08, 0x00, 0x00, 0x00, 0x07, 0x00, 0x00, 0x00, 0x01, 0x00, 0x00, 0x00,
  0x0d, 0x00, 0x00, 0x00, 0x01, 0x00, 0x00, 0x00, 0x00, 0x00, 0x00, 0x00, 0x0e, 0x00, 0x00, 0x00,
  0x60, 0x05, 0x00, 0x00, 0x08, 0x05, 0x00, 0x00, 0xb4, 0x04, 0x00, 0x00, 0x74, 0x04, 0x00, 0x00,
  0x34, 0x04, 0x00, 0x00, 0xf8, 0x03, 0x00, 0x00, 0xbc, 0x03, 0x00, 0x00, 0x80, 0x03, 0x00, 0x00,
  0x30, 0x03, 0x00, 0x00, 0x90, 0x02, 0x00, 0x00, 0x80, 0x01, 0x00, 0x00, 0xe0, 0x00, 0x00, 0x00,
  0x60, 0x00, 0x00, 0x00, 0x04, 0x00, 0x00, 0x00, 0xee, 0xfa, 0xff, 0xff, 0x00, 0x00, 0x00, 0x01,
  0x14, 0x00, 0x00, 0x00, 0x1c, 0x00, 0x00, 0x00, 0x1c, 0x00, 0x00, 0x00, 0x0e, 0x00, 0x00, 0x00,
  0x34, 0x00, 0x00, 0x00, 0x02, 0x00, 0x00, 0x00, 0xff, 0xff, 0xff, 0xff, 0x01, 0x00, 0x00, 0x00,
  0xd8, 0xfa, 0xff, 0xff, 0x1b, 0x00, 0x00, 0x00, 0x53, 0x74, 0x61, 0x74, 0x65, 0x66, 0x75, 0x6c,
  0x50, 0x61, 0x72, 0x74, 0x69, 0x74, 0x69, 0x6f, 0x6e, 0x65, 0x64, 0x43, 0x61, 0x6c, 0x6c, 0x5f,
  0x31, 0x3a, 0x30, 0x00, 0x02, 0x00, 0x00, 0x00, 0x01, 0x00, 0x00, 0x00, 0x01, 0x00, 0x00, 0x00,
  0x46, 0xfb, 0xff, 0xff, 0x00, 0x00, 0x00, 0x01, 0x14, 0x00, 0x00, 0x00, 0x1c, 0x00, 0x00, 0x00,
  0x1c, 0x00, 0x00, 0x00, 0x0d, 0x00, 0x00, 0x00, 0x58, 0x00, 0x00, 0x00, 0x02, 0x00, 0x00, 0x00,
  0xff, 0xff, 0xff, 0xff, 0x01, 0x00, 0x00, 0x00, 0x30, 0xfb, 0xff, 0xff, 0x3c, 0x00, 0x00, 0x00,
  0x73, 0x65, 0x71, 0x75, 0x65, 0x6e, 0x74, 0x69, 0x61, 0x6c, 0x5f, 0x31, 0x5f, 0x31, 0x2f, 0x64,
  0x65, 0x6e, 0x73, 0x65, 0x5f, 0x37, 0x5f, 0x31, 0x2f, 0x4d, 0x61, 0x74, 0x4d, 0x75, 0x6c, 0x3b,
  0x73, 0x65, 0x71, 0x75, 0x65, 0x6e, 0x74, 0x69, 0x61, 0x6c, 0x5f, 0x31, 0x5f, 0x31, 0x2f, 0x64,
  0x65, 0x6e, 0x73, 0x65, 0x5f, 0x37, 0x5f, 0x31, 0x2f, 0x41, 0x64, 0x64, 0x00, 0x00, 0x00, 0x00,
  0x02, 0x00, 0x00, 0x00, 0x01, 0x00, 0x00, 0x00, 0x01, 0x00, 0x00, 0x00, 0xc2, 0xfb, 0xff, 0xff,
  0x00, 0x00, 0x00, 0x01, 0x14, 0x00, 0x00, 0x00, 0x1c, 0x00, 0x00, 0x00, 0x1c, 0x00, 0x00, 0x00,
  0x0c, 0x00, 0x00, 0x00, 0x78, 0x00, 0x00, 0x00, 0x02, 0x00, 0x00, 0x00, 0xff, 0xff, 0xff, 0xff,
  0x10, 0x00, 0x00, 0x00, 0xac, 0xfb, 0xff, 0xff, 0x5e, 0x00, 0x00, 0x00, 0x73, 0x65, 0x71, 0x75,
  0x65, 0x6e, 0x74, 0x69, 0x61, 0x6c, 0x5f, 0x31, 0x5f, 0x31, 0x2f, 0x64, 0x65, 0x6e, 0x73, 0x65,
  0x5f, 0x36, 0x5f, 0x31, 0x2f, 0x4d, 0x61, 0x74, 0x4d, 0x75, 0x6c, 0x3b, 0x73, 0x65, 0x71, 0x75,
  0x65, 0x6e, 0x74, 0x69, 0x61, 0x6c, 0x5f, 0x31, 0x5f, 0x31, 0x2f, 0x64, 0x65, 0x6e, 0x73, 0x65,
  0x5f, 0x36, 0x5f, 0x31, 0x2f, 0x52, 0x65, 0x6c, 0x75, 0x3b, 0x73, 0x65, 0x71, 0x75, 0x65, 0x6e,
  0x74, 0x69, 0x61, 0x6c, 0x5f, 0x31, 0x5f, 0x31, 0x2f, 0x64, 0x65, 0x6e, 0x73, 0x65, 0x5f, 0x36,
  0x5f, 0x31, 0x2f, 0x42, 0x69, 0x61, 0x73, 0x41, 0x64, 0x64, 0x00, 0x00, 0x02, 0x00, 0x00, 0x00,
  0x01, 0x00, 0x00, 0x00, 0x10, 0x00, 0x00, 0x00, 0x5e, 0xfc, 0xff, 0xff, 0x00, 0x00, 0x00, 0x01,
  0x14, 0x00, 0x00, 0x00, 0x1c, 0x00, 0x00, 0x00, 0x1c, 0x00, 0x00, 0x00, 0x0b, 0x00, 0x00, 0x00,
  0xe8, 0x00, 0x00, 0x00, 0x02, 0x00, 0x00, 0x00, 0xff, 0xff, 0xff, 0xff, 0x20, 0x00, 0x00, 0x00,
  0x48, 0xfc, 0xff, 0xff, 0xcc, 0x00, 0x00, 0x00, 0x73, 0x65, 0x71, 0x75, 0x65, 0x6e, 0x74, 0x69,
  0x61, 0x6c, 0x5f, 0x31, 0x5f, 0x31, 0x2f, 0x62, 0x61, 0x74, 0x63, 0x68, 0x5f, 0x6e, 0x6f, 0x72,
  0x6d, 0x61, 0x6c, 0x69, 0x7a, 0x61, 0x74, 0x69, 0x6f, 0x6e, 0x5f, 0x31, 0x5f, 0x31, 0x2f, 0x62,
  0x61, 0x74, 0x63, 0x68, 0x6e, 0x6f, 0x72, 0x6d, 0x2f, 0x6d, 0x75, 0x6c, 0x5f, 0x31, 0x3b, 0x73,
  0x65, 0x71, 0x75, 0x65, 0x6e, 0x74, 0x69, 0x61, 0x6c, 0x5f, 0x31, 0x5f, 0x31, 0x2f, 0x62, 0x61,
  0x74, 0x63, 0x68, 0x5f, 0x6e, 0x6f, 0x72, 0x6d, 0x61, 0x6c, 0x69, 0x7a, 0x61, 0x74, 0x69, 0x6f,
  0x6e, 0x5f, 0x31, 0x5f, 0x31, 0x2f, 0x62, 0x61, 0x74, 0x63, 0x68, 0x6e, 0x6f, 0x72, 0x6d, 0x2f,
  0x61, 0x64, 0x64, 0x5f, 0x31, 0x3b, 0x73, 0x65, 0x71, 0x75, 0x65, 0x6e, 0x74, 0x69, 0x61, 0x6c,
  0x5f, 0x31, 0x5f, 0x31, 0x2f, 0x64, 0x65, 0x6e, 0x73, 0x65, 0x5f, 0x35, 0x5f, 0x31, 0x2f, 0x4d,
  0x61, 0x74, 0x4d, 0x75, 0x6c, 0x3b, 0x73, 0x65, 0x71, 0x75, 0x65, 0x6e, 0x74, 0x69, 0x61, 0x6c,
  0x5f, 0x31, 0x5f, 0x31, 0x2f, 0x64, 0x65, 0x6e, 0x73, 0x65, 0x5f, 0x35, 0x5f, 0x31, 0x2f, 0x52,
  0x65, 0x6c, 0x75, 0x3b, 0x73, 0x65, 0x71, 0x75, 0x65, 0x6e, 0x74, 0x69, 0x61, 0x6c, 0x5f, 0x31,
  0x5f, 0x31, 0x2f, 0x64, 0x65, 0x6e, 0x73, 0x65, 0x5f, 0x35, 0x5f, 0x31, 0x2f, 0x42, 0x69, 0x61,
  0x73, 0x41, 0x64, 0x64, 0x00, 0x00, 0x00, 0x00, 0x02, 0x00, 0x00, 0x00, 0x01, 0x00, 0x00, 0x00,
  0x20, 0x00, 0x00, 0x00, 0x6a, 0xfd, 0xff, 0xff, 0x00, 0x00, 0x00, 0x01, 0x14, 0x00, 0x00, 0x00,
  0x1c, 0x00, 0x00, 0x00, 0x1c, 0x00, 0x00, 0x00, 0x0a, 0x00, 0x00, 0x00, 0x78, 0x00, 0x00, 0x00,
  0x02, 0x00, 0x00, 0x00, 0xff, 0xff, 0xff, 0xff, 0x40, 0x00, 0x00, 0x00, 0x54, 0xfd, 0xff, 0xff,
  0x5e, 0x00, 0x00, 0x00, 0x73, 0x65, 0x71, 0x75, 0x65, 0x6e, 0x74, 0x69, 0x61, 0x6c, 0x5f, 0x31,
  0x5f, 0x31, 0x2f, 0x64, 0x65, 0x6e, 0x73, 0x65, 0x5f, 0x34, 0x5f, 0x31, 0x2f, 0x4d, 0x61, 0x74,
  0x4d, 0x75, 0x6c, 0x3b, 0x73, 0x65, 0x71, 0x75, 0x65, 0x6e, 0x74, 0x69, 0x61, 0x6c, 0x5f, 0x31,
  0x5f, 0x31, 0x2f, 0x64, 0x65, 0x6e, 0x73, 0x65, 0x5f, 0x34, 0x5f, 0x31, 0x2f, 0x52, 0x65, 0x6c,
  0x75, 0x3b, 0x73, 0x65, 0x71, 0x75, 0x65, 0x6e, 0x74, 0x69, 0x61, 0x6c, 0x5f, 0x31, 0x5f, 0x31,
  0x2f, 0x64, 0x65, 0x6e, 0x73, 0x65, 0x5f, 0x34, 0x5f, 0x31, 0x2f, 0x42, 0x69, 0x61, 0x73, 0x41,
  0x64, 0x64, 0x00, 0x00, 0x02, 0x00, 0x00, 0x00, 0x01, 0x00, 0x00, 0x00, 0x40, 0x00, 0x00, 0x00,
  0x5a, 0xfe, 0xff, 0xff, 0x00, 0x00, 0x00, 0x01, 0x10, 0x00, 0x00, 0x00, 0x10, 0x00, 0x00, 0x00,
  0x09, 0x00, 0x00, 0x00, 0x2c, 0x00, 0x00, 0x00, 0xe0, 0xfd, 0xff, 0xff, 0x1f, 0x00, 0x00, 0x00,
  0x73, 0x65, 0x71, 0x75, 0x65, 0x6e, 0x74, 0x69, 0x61, 0x6c, 0x5f, 0x31, 0x5f, 0x31, 0x2f, 0x64,
  0x65, 0x6e, 0x73, 0x65, 0x5f, 0x34, 0x5f, 0x31, 0x2f, 0x4d, 0x61, 0x74, 0x4d, 0x75, 0x6c, 0x00,
  0x02, 0x00, 0x00, 0x00, 0x40, 0x00, 0x00, 0x00, 0x08, 0x00, 0x00, 0x00, 0xa6, 0xfe, 0xff, 0xff,
  0x00, 0x00, 0x00, 0x01, 0x10, 0x00, 0x00, 0x00, 0x10, 0x00, 0x00, 0x00, 0x08, 0x00, 0x00, 0x00,
  0x1c, 0x00, 0x00, 0x00, 0x2c, 0xfe, 0xff, 0xff, 0x0f, 0x00, 0x00, 0x00, 0x61, 0x72, 0x69, 0x74,
  0x68, 0x2e, 0x63, 0x6f, 0x6e, 0x73, 0x74, 0x61, 0x6e, 0x74, 0x36, 0x00, 0x01, 0x00, 0x00, 0x00,
  0x40, 0x00, 0x00, 0x00, 0xde, 0xfe, 0xff, 0xff, 0x00, 0x00, 0x00, 0x01, 0x10, 0x00, 0x00, 0x00,
  0x10, 0x00, 0x00, 0x00, 0x07, 0x00, 0x00, 0x00, 0x1c, 0x00, 0x00, 0x00, 0x64, 0xfe, 0xff, 0xff,
  0x0f, 0x00, 0x00, 0x00, 0x61, 0x72, 0x69, 0x74, 0x68, 0x2e, 0x63, 0x6f, 0x6e, 0x73, 0x74, 0x61,
  0x6e, 0x74, 0x35, 0x00, 0x01, 0x00, 0x00, 0x00, 0x10, 0x00, 0x00, 0x00, 0x16, 0xff, 0xff, 0xff,
  0x00, 0x00, 0x00, 0x01, 0x10, 0x00, 0x00, 0x00, 0x10, 0x00, 0x00, 0x00, 0x06, 0x00, 0x00, 0x00,
  0x1c, 0x00, 0x00, 0x00, 0x9c, 0xfe, 0xff, 0xff, 0x0f, 0x00, 0x00, 0x00, 0x61, 0x72, 0x69, 0x74,
  0x68, 0x2e, 0x63, 0x6f, 0x6e, 0x73, 0x74, 0x61, 0x6e, 0x74, 0x34, 0x00, 0x01, 0x00, 0x00, 0x00,
  0x01, 0x00, 0x00, 0x00, 0x4e, 0xff, 0xff, 0xff, 0x00, 0x00, 0x00, 0x01, 0x10, 0x00, 0x00, 0x00,
  0x10, 0x00, 0x00, 0x00, 0x05, 0x00, 0x00, 0x00, 0x1c, 0x00, 0x00, 0x00, 0xd4, 0xfe, 0xff, 0xff,
  0x0f, 0x00, 0x00, 0x00, 0x61, 0x72, 0x69, 0x74, 0x68, 0x2e, 0x63, 0x6f, 0x6e, 0x73, 0x74, 0x61,
  0x6e, 0x74, 0x33, 0x00, 0x02, 0x00, 0x00, 0x00, 0x10, 0x00, 0x00, 0x00, 0x20, 0x00, 0x00, 0x00,
  0x8a, 0xff, 0xff, 0xff, 0x00, 0x00, 0x00, 0x01, 0x10, 0x00, 0x00, 0x00, 0x10, 0x00, 0x00, 0x00,
  0x04, 0x00, 0x00, 0x00, 0x1c, 0x00, 0x00, 0x00, 0x10, 0xff, 0xff, 0xff, 0x0f, 0x00, 0x00, 0x00,
  0x61, 0x72, 0x69, 0x74, 0x68, 0x2e, 0x63, 0x6f, 0x6e, 0x73, 0x74, 0x61, 0x6e, 0x74, 0x32, 0x00,
  0x02, 0x00, 0x00, 0x00, 0x01, 0x00, 0x00, 0x00, 0x10, 0x00, 0x00, 0x00, 0xc6, 0xff, 0xff, 0xff,
  0x00, 0x00, 0x00, 0x01, 0x10, 0x00, 0x00, 0x00, 0x10, 0x00, 0x00, 0x00, 0x03, 0x00, 0x00, 0x00,
  0x1c, 0x00, 0x00, 0x00, 0x4c, 0xff, 0xff, 0xff, 0x0f, 0x00, 0x00, 0x00, 0x61, 0x72, 0x69, 0x74,
  0x68, 0x2e, 0x63, 0x6f, 0x6e, 0x73, 0x74, 0x61, 0x6e, 0x74, 0x31, 0x00, 0x01, 0x00, 0x00, 0x00,
  0x20, 0x00, 0x00, 0x00, 0x00, 0x00, 0x16, 0x00, 0x18, 0x00, 0x14, 0x00, 0x00, 0x00, 0x10, 0x00,
  0x0c, 0x00, 0x08, 0x00, 0x00, 0x00, 0x00, 0x00, 0x00, 0x00, 0x07, 0x00, 0x16, 0x00, 0x00, 0x00,
  0x00, 0x00, 0x00, 0x01, 0x10, 0x00, 0x00, 0x00, 0x10, 0x00, 0x00, 0x00, 0x02, 0x00, 0x00, 0x00,
  0x1c, 0x00, 0x00, 0x00, 0x9c, 0xff, 0xff, 0xff, 0x0e, 0x00, 0x00, 0x00, 0x61, 0x72, 0x69, 0x74,
  0x68, 0x2e, 0x63, 0x6f, 0x6e, 0x73, 0x74, 0x61, 0x6e, 0x74, 0x00, 0x00, 0x02, 0x00, 0x00, 0x00,
  0x20, 0x00, 0x00, 0x00, 0x40, 0x00, 0x00, 0x00, 0x00, 0x00, 0x16, 0x00, 0x1c, 0x00, 0x18, 0x00,
  0x00, 0x00, 0x14, 0x00, 0x10, 0x00, 0x0c, 0x00, 0x00, 0x00, 0x00, 0x00, 0x08, 0x00, 0x07, 0x00,
  0x16, 0x00, 0x00, 0x00, 0x00, 0x00, 0x00, 0x01, 0x14, 0x00, 0x00, 0x00, 0x20, 0x00, 0x00, 0x00,
  0x20, 0x00, 0x00, 0x00, 0x01, 0x00, 0x00, 0x00, 0x3c, 0x00, 0x00, 0x00, 0x02, 0x00, 0x00, 0x00,
  0xff, 0xff, 0xff, 0xff, 0x08, 0x00, 0x00, 0x00, 0x04, 0x00, 0x04, 0x00, 0x04, 0x00, 0x00, 0x00,
  0x1f, 0x00, 0x00, 0x00, 0x73, 0x65, 0x72, 0x76, 0x69, 0x6e, 0x67, 0x5f, 0x64, 0x65, 0x66, 0x61,
  0x75, 0x6c, 0x74, 0x5f, 0x69, 0x6e, 0x70, 0x75, 0x74, 0x5f, 0x6c, 0x61, 0x79, 0x65, 0x72, 0x5f,
  0x31, 0x3a, 0x30, 0x00, 0x02, 0x00, 0x00, 0x00, 0x01, 0x00, 0x00, 0x00, 0x08, 0x00, 0x00, 0x00,
  0x02, 0x00, 0x00, 0x00, 0x20, 0x00, 0x00, 0x00, 0x04, 0x00, 0x00, 0x00, 0xf4, 0xff, 0xff, 0xff,
  0x0e, 0x00, 0x00, 0x00, 0x00, 0x00, 0x00, 0x0e, 0x0c, 0x00, 0x0c, 0x00, 0x0b, 0x00, 0x00, 0x00,
  0x00, 0x00, 0x04, 0x00, 0x0c, 0x00, 0x00, 0x00, 0x09, 0x00, 0x00, 0x00, 0x00, 0x00, 0x00, 0x09,
};
const unsigned int medical_model_len = 15344;

#endif // MODEL_DATA_H